{
  "version": "1.0",
  "truncation": null,
  "padding": null,
  "added_tokens": [
    {
      "id": 0,
      "content": "<|endoftext|>",
      "single_word": false,
      "lstrip": false,
      "rstrip": false,
      "normalized": false,
      "special": true
    },
    {
      "id": 1,
      "content": "<|pad|>",
      "single_word": false,
      "lstrip": false,
      "rstrip": false,
      "normalized": false,
      "special": true
    },
    {
      "id": 2,
      "content": "<|unk|>",
      "single_word": false,
      "lstrip": false,
      "rstrip": false,
      "normalized": false,
      "special": true
    }
  ],
  "normalizer": {
    "type": "NFKC"
  },
  "pre_tokenizer": {
    "type": "ByteLevel",
    "add_prefix_space": true,
    "trim_offsets": true,
    "use_regex": true
  },
  "post_processor": {
    "type": "ByteLevel",
    "add_prefix_space": true,
    "trim_offsets": true,
    "use_regex": true
  },
  "decoder": {
    "type": "ByteLevel",
    "add_prefix_space": true,
    "trim_offsets": true,
    "use_regex": true
  },
  "model": {
    "type": "BPE",
    "dropout": null,
    "unk_token": null,
    "continuing_subword_prefix": null,
    "end_of_word_suffix": null,
    "fuse_unk": false,
    "byte_fallback": false,
    "ignore_merges": false,
    "vocab": {
      "<|endoftext|>": 0,
      "<|pad|>": 1,
      "<|unk|>": 2,
      "!": 3,
      "'": 4,
      ",": 5,
      "-": 6,
      ".": 7,
      "0": 8,
      "1": 9,
      "2": 10,
      "3": 11,
      "4": 12,
      "5": 13,
      "6": 14,
      "7": 15,
      "8": 16,
      "9": 17,
      "?": 18,
      "A": 19,
      "B": 20,
      "C": 21,
      "D": 22,
      "E": 23,
      "F": 24,
      "G": 25,
      "H": 26,
      "I": 27,
      "J": 28,
      "K": 29,
      "L": 30,
      "M": 31,
      "N": 32,
      "O": 33,
      "P": 34,
      "Q": 35,
      "R": 36,
      "S": 37,
      "T": 38,
      "U": 39,
      "V": 40,
      "W": 41,
      "X": 42,
      "Y": 43,
      "Z": 44,
      "_": 45,
      "a": 46,
      "b": 47,
      "c": 48,
      "d": 49,
      "e": 50,
      "f": 51,
      "g": 52,
      "h": 53,
      "i": 54,
      "j": 55,
      "k": 56,
      "l": 57,
      "m": 58,
      "n": 59,
      "o": 60,
      "p": 61,
      "q": 62,
      "r": 63,
      "s": 64,
      "t": 65,
      "u": 66,
      "v": 67,
      "w": 68,
      "x": 69,
      "y": 70,
      "z": 71,
      "¡": 72,
      "¢": 73,
      "¤": 74,
      "¦": 75,
      "§": 76,
      "¨": 77,
      "©": 78,
      "ª": 79,
      "¬": 80,
      "°": 81,
      "±": 82,
      "³": 83,
      "´": 84,
      "¶": 85,
      "·": 86,
      "º": 87,
      "¼": 88,
      "Ã": 89,
      "Å": 90,
      "É": 91,
      "Ê": 92,
      "Ċ": 93,
      "Ġ": 94,
      "Ģ": 95,
      "ĥ": 96,
      "ī": 97,
      "Į": 98,
      "Ĵ": 99,
      "ĺ": 100,
      "Ļ": 101,
      "Ľ": 102,
      "ľ": 103,
      "Ł": 104,
      "ł": 105,
      "Ń": 106,
      "Ġt": 107,
      "he": 108,
      "Ġa": 109,
      "Ġi": 110,
      "Ġw": 111,
      "Ġs": 112,
      "Ġthe": 113,
      "ou": 114,
      "re": 115,
      "Ġo": 116,
      "in": 117,
      "ha": 118,
      "Ġb": 119,
      "Ġm": 120,
      "Ġy": 121,
      "Ġc": 122,
      "er": 123,
      "Ġd": 124,
      "nd": 125,
      "Ġf": 126,
      "Ġyou": 127,
      "on": 128,
      "Ġg": 129,
      "Ġp": 130,
      "ll": 131,
      "ing": 132,
      "Ġl": 133,
      "Ġto": 134,
      "an": 135,
      "Ġn": 136,
      "hat": 137,
      "or": 138,
      "ed": 139,
      "es": 140,
      "Ġand": 141,
      "en": 142,
      "is": 143,
      "Ġhe": 144,
      "it": 145,
      "Ġin": 146,
      "Ġit": 147,
      "ar": 148,
      "Ġof": 149,
      "as": 150,
      "Ġh": 151,
      "om": 152,
      "at": 153,
      "ow": 154,
      "'s": 155,
      "Ġha": 156,
      "Ġth": 157,
      "Ġthat": 158,
      "ot": 159,
      "et": 160,
      "ve": 161,
      "Ġon": 162,
      "ay": 163,
      "le": 164,
      "Ġwe": 165,
      "ic": 166,
      "us": 167,
      "Ġbe": 168,
      "Ġis": 169,
      "Ġe": 170,
      "id": 171,
      "gh": 172,
      "Ġr": 173,
      "ld": 174,
      "ut": 175,
      "al": 176,
      "oo": 177,
      "Ġdo": 178,
      "Ġk": 179,
      "Ġu": 180,
      "'t": 181,
      "Ġwas": 182,
      "Ġre": 183,
      "Ġst": 184,
      "Ġwhat": 185,
      "Ġfor": 186,
      "ver": 187,
      "ac": 188,
      "ke": 189,
      "ght": 190,
      "ad": 191,
      "im": 192,
      "ir": 193,
      "se": 194,
      "Ġj": 195,
      "ent": 196,
      "Ġme": 197,
      "am": 198,
      "ly": 199,
      "ion": 200,
      "Ġan": 201,
      "Ġwh": 202,
      "out": 203,
      "Ġgo": 204,
      "st": 205,
      "ight": 206,
      "Ġthis": 207,
      "ea": 208,
      "ith": 209,
      "Ġno": 210,
      "Ġse": 211,
      "ome": 212,
      "Ġwith": 213,
      "Ġli": 214,
      "Ġas": 215,
      "her": 216,
      "Ġnot": 217,
      "Ġthere": 218,
      "Ġare": 219,
      "all": 220,
      "ur": 221,
      "Ġthey": 222,
      "Ġhave": 223,
      "ch": 224,
      "ill": 225,
      "Ġcan": 226,
      "Ġat": 227,
      "Ġshe": 228,
      "Ġkn": 229,
      "Ġso": 230,
      "Ġwhe": 231,
      "ould": 232,
      "ter": 233,
      "ro": 234,
      "Ġdon": 235,
      "Ġbut": 236,
      "Ġone": 237,
      "ce": 238,
      "Ġfr": 239,
      "ust": 240,
      "Ġyour": 241,
      "Ġne": 242,
      "ant": 243,
      "ie": 244,
      "Ġknow": 245,
      "Ġall": 246,
      "Ġmy": 247,
      "eah": 248,
      "xx": 249,
      "il": 250,
      "ook": 251,
      "Ġhis": 252,
      "Ġoh": 253,
      "ct": 254,
      "un": 255,
      "op": 256,
      "ain": 257,
      "Ġsa": 258,
      "um": 259,
      "Ġde": 260,
      "Ġmo": 261,
      "Ġsh": 262,
      "Ġup": 263,
      "Ġ1": 264,
      "Ġher": 265,
      "Ġlike": 266,
      "Ġyeah": 267,
      "Ġal": 268,
      "Ġtr": 269,
      "Ġget": 270,
      "and": 271,
      "ĠI": 272,
      "ge": 273,
      "pp": 274,
      "our": 275,
      "Ġdid": 276,
      "Ġor": 277,
      "Ġab": 278,
      "ink": 279,
      "ood": 280,
      "'re": 281,
      "Ġpl": 282,
      "Ġout": 283,
      "ig": 284,
      "Ġhere": 285,
      "Ġsee": 286,
      "ake": 287,
      "Ġhad": 288,
      "Ġsu": 289,
      "ab": 290,
      "th": 291,
      "ol": 292,
      "ack": 293,
      "Ġlook": 294,
      "Ġhim": 295,
      "ul": 296,
      "ell": 297,
      "ck": 298,
      "..": 299,
      "Ġfrom": 300,
      "very": 301,
      "art": 302,
      "Ġjust": 303,
      "han": 304,
      "Ġif": 305,
      "red": 306,
      "'m": 307,
      "Ġby": 308,
      "Ġnow": 309,
      "ers": 310,
      "Ġv": 311,
      "Ġsome": 312,
      "Ġgot": 313,
      "Ġwho": 314,
      "qu": 315,
      "Ġcom": 316,
      "Ġsp": 317,
      "est": 318,
      "Ġright": 319,
      "ess": 320,
      "Ġch": 321,
      "na": 322,
      "Ġ2": 323,
      "ation": 324,
      "Ġthink": 325,
      "Ġwere": 326,
      "Ġwor": 327,
      "ri": 328,
      "Ġus": 329,
      "Ġwell": 330,
      "ind": 331,
      "nt": 332,
      "ame": 333,
      "Ġwant": 334,
      "ist": 335,
      "Ġthem": 336,
      "Ġwhen": 337,
      "Ġthen": 338,
      "one": 339,
      "Ġabout": 340,
      "itt": 341,
      "ound": 342,
      "os": 343,
      "ong": 344,
      "Ġsaid": 345,
      "'ll": 346,
      "ally": 347,
      "ry": 348,
      "Ġbo": 349,
      "ard": 350,
      "Ġbr": 351,
      "el": 352,
      "ap": 353,
      "ast": 354,
      "own": 355,
      "ive": 356,
      "res": 357,
      "Ġwould": 358,
      "Ġwill": 359,
      "Ġman": 360,
      "fe": 361,
      "Ġwhere": 362,
      "Ġex": 363,
      "Ġany": 364,
      "Ġhow": 365,
      "Ġyes": 366,
      "Ġgood": 367,
      "Ġtw": 368,
      "Ġxx": 369,
      "Ġok": 370,
      "Ġcon": 371,
      "Ġcome": 372,
      "Ġsay": 373,
      "Ġxxx": 374,
      "ate": 375,
      "ak": 376,
      "ber": 377,
      "ep": 378,
      "use": 379,
      "em": 380,
      "Ġgr": 381,
      "Ġtim": 382,
      "Ġokay": 383,
      "Ġar": 384,
      "ice": 385,
      "Ġlo": 386,
      "Ġpro": 387,
      "Ġput": 388,
      "ine": 389,
      "ick": 390,
      "if": 391,
      "ven": 392,
      "Ġcl": 393,
      "ort": 394,
      "ca": 395,
      "Ġ'": 396,
      "Ġlet": 397,
      "hing": 398,
      "ag": 399,
      "ies": 400,
      "Ġle": 401,
      "Ġpe": 402,
      "Ġgoing": 403,
      "ough": 404,
      "ich": 405,
      "Ġ19": 406,
      "Ġam": 407,
      "'ve": 408,
      "Ġag": 409,
      "ittle": 410,
      "Ġlittle": 411,
      "ore": 412,
      "Ġro": 413,
      "Ġ20": 414,
      "Ġhas": 415,
      "ide": 416,
      "ther": 417,
      "Ġmore": 418,
      "Ġdown": 419,
      "Ġco": 420,
      "Ġthan": 421,
      "ous": 422,
      "dy": 423,
      "way": 424,
      "Ġback": 425,
      "other": 426,
      "Ġtime": 427,
      "Ġaf": 428,
      "Ġcould": 429,
      "Ġint": 430,
      "Ġvery": 431,
      "Ġfe": 432,
      "Ġtwo": 433,
      "cause": 434,
      "Ġbl": 435,
      "Ġbeen": 436,
      "Ġqu": 437,
      "Ġun": 438,
      "Ġoff": 439,
      "Ġtoo": 440,
      "Ġover": 441,
      "ip": 442,
      "ity": 443,
      "Ġwhich": 444,
      "Ġplay": 445,
      "Ġen": 446,
      "Ġother": 447,
      "ose": 448,
      "Ġer": 449,
      "Ġthing": 450,
      "ra": 451,
      "ace": 452,
      "ree": 453,
      "ite": 454,
      "ish": 455,
      "Ġuh": 456,
      "Ġtheir": 457,
      "lf": 458,
      "Ġdoes": 459,
      "Ġwhy": 460,
      "Ġpr": 461,
      "are": 462,
      "ild": 463,
      "my": 464,
      "Ġgon": 465,
      "Ġcar": 466,
      "ud": 467,
      "ear": 468,
      "orn": 469,
      "Ġgonna": 470,
      "omet": 471,
      "Ġpeop": 472,
      "Ġtake": 473,
      "ment": 474,
      "ian": 475,
      "Ġtell": 476,
      "Ġmar": 477,
      "Ġpeople": 478,
      "Ġmake": 479,
      "nder": 480,
      "Ġsha": 481,
      "Ġsomet": 482,
      "reat": 483,
      "Ġcha": 484,
      "ft": 485,
      "Ġfir": 486,
      "ure": 487,
      "Ġbecause": 488,
      "ty": 489,
      "Ġway": 490,
      "ought": 491,
      "ia": 492,
      "Ġmay": 493,
      "alk": 494,
      "Ġafter": 495,
      "Ġpo": 496,
      "age": 497,
      "Ġcall": 498,
      "Ġagain": 499,
      "Ġwork": 500,
      "Ġsc": 501,
      "Ġfirst": 502,
      "Ġte": 503,
      "Ġbet": 504,
      "ue": 505,
      "ire": 506,
      "ase": 507,
      "ĠY": 508,
      "Ġevery": 509,
      "ass": 510,
      "iv": 511,
      "hed": 512,
      "Ġthese": 513,
      "Ġfl": 514,
      "ade": 515,
      "uck": 516,
      "mp": 517,
      "Ġinto": 518,
      "Ġneed": 519,
      "Ġjo": 520,
      "urn": 521,
      "ater": 522,
      "Ġmean": 523,
      "Ġday": 524,
      "Ġour": 525,
      "ble": 526,
      "uh": 527,
      "ount": 528,
      "Ġpart": 529,
      "Ġonly": 530,
      "Ġgu": 531,
      "iss": 532,
      "ect": 533,
      "Ġreally": 534,
      "Ġad": 535,
      "Ġshould": 536,
      "Ġbig": 537,
      "Ġmu": 538,
      "ied": 539,
      "Ġnew": 540,
      "pl": 541,
      "so": 542,
      "Ġdidn": 543,
      "ys": 544,
      "Ġbu": 545,
      "wn": 546,
      "Ġpre": 547,
      "ary": 548,
      "ord": 549,
      "Ġhapp": 550,
      "ĠW": 551,
      "Ġthr": 552,
      "Ġsomething": 553,
      "Ġmom": 554,
      "Ġhel": 555,
      "ĠT": 556,
      "we": 557,
      "Ġyear": 558,
      "bo": 559,
      "Ġfo": 560,
      "Ġmuch": 561,
      "day": 562,
      "act": 563,
      "ving": 564,
      "Ġwan": 565,
      "self": 566,
      "ather": 567,
      "fore": 568,
      "thing": 569,
      "ach": 570,
      "ren": 571,
      "Ġsm": 572,
      "ting": 573,
      "ĠA": 574,
      "Ġum": 575,
      "Ġho": 576,
      "per": 577,
      "Ġla": 578,
      "ff": 579,
      "ouse": 580,
      "Ġdis": 581,
      "ile": 582,
      "ved": 583,
      "co": 584,
      "Ġper": 585,
      "Ġcr": 586,
      "ady": 587,
      "ool": 588,
      "Ġwr": 589,
      "ub": 590,
      "Ġgir": 591,
      "pt": 592,
      "man": 593,
      "Ġmr": 594,
      "Ġac": 595,
      "Ġlong": 596,
      "ress": 597,
      "Ġmade": 598,
      "Ġwanna": 599,
      "cl": 600,
      "av": 601,
      "Ġhand": 602,
      "Ġple": 603,
      "Ġthose": 604,
      "Ġrem": 605,
      "ang": 606,
      "Ġbefore": 607,
      "'d": 608,
      "Ġact": 609,
      "Ġthank": 610,
      "ance": 611,
      "Ġbab": 612,
      "Ġnever": 613,
      "Ġthree": 614,
      "Ġold": 615,
      "Ġdad": 616,
      "ory": 617,
      "be": 618,
      "iz": 619,
      "Ġunder": 620,
      "Ġalso": 621,
      "Ġdr": 622,
      "Ġdoing": 623,
      "Ġke": 624,
      "Ġgirl": 625,
      "Ġgive": 626,
      "ci": 627,
      "Ġits": 628,
      "ions": 629,
      "Ġmum": 630,
      "Ġhar": 631,
      "Ġwa": 632,
      "ated": 633,
      "Ġtalk": 634,
      "able": 635,
      "Ġwent": 636,
      "Ġask": 637,
      "Ġaway": 638,
      "ix": 639,
      "ull": 640,
      "te": 641,
      "Ġeat": 642,
      "Ġel": 643,
      "Ġeven": 644,
      "hm": 645,
      "Ġchild": 646,
      "Ġhome": 647,
      "ps": 648,
      "ict": 649,
      "Ġapp": 650,
      "les": 651,
      "Ġmany": 652,
      "Ġche": 653,
      "ĠS": 654,
      "Ġmin": 655,
      "Ġgreat": 656,
      "Ġlea": 657,
      "Ġhouse": 658,
      "Ġthings": 659,
      "atch": 660,
      "Ġthought": 661,
      "Ġmust": 662,
      "Ġcomp": 663,
      "Ġfind": 664,
      "Ġhelp": 665,
      "ath": 666,
      "Ġanother": 667,
      "Ġcomm": 668,
      "Ġser": 669,
      "ful": 670,
      "Ġbit": 671,
      "ĠM": 672,
      "Ġwon": 673,
      "ise": 674,
      "Ġcount": 675,
      "Ġ201": 676,
      "ens": 677,
      "Ġind": 678,
      "Ġcame": 679,
      "Ġhi": 680,
      "ors": 681,
      "tain": 682,
      "Ġlove": 683,
      "Ġturn": 684,
      "ence": 685,
      "Ġtry": 686,
      "Ġbaby": 687,
      "00": 688,
      "Ġboy": 689,
      "Ġlot": 690,
      "ĠO": 691,
      "ug": 692,
      "Ġear": 693,
      "Ġstill": 694,
      "Ġsl": 695,
      "Ġlast": 696,
      "Ġisn": 697,
      "Ġbel": 698,
      "Ġcalled": 699,
      "ons": 700,
      "Ġdone": 701,
      "get": 702,
      "Ġthrough": 703,
      "ail": 704,
      "ves": 705,
      "Ġshow": 706,
      "ave": 707,
      "Ġsure": 708,
      "Ġplease": 709,
      "ark": 710,
      "iend": 711,
      "Ġstart": 712,
      "Ġsch": 713,
      "Ġhead": 714,
      "Ġhey": 715,
      "Ġchan": 716,
      "Ġstr": 717,
      "up": 718,
      "ward": 719,
      "Ġnight": 720,
      "ne": 721,
      "ious": 722,
      "Ġop": 723,
      "land": 724,
      "ans": 725,
      "Ġname": 726,
      "Ġah": 727,
      "Ġbot": 728,
      "unn": 729,
      "Ġfound": 730,
      "body": 731,
      "Ġmost": 732,
      "int": 733,
      "Ġmight": 734,
      "Ġmhm": 735,
      "Ġcare": 736,
      "Ġsw": 737,
      "Ġnice": 738,
      "Ġgl": 739,
      "Ġbook": 740,
      "hes": 741,
      "Ġcont": 742,
      "ened": 743,
      "ily": 744,
      "Ġres": 745,
      "ng": 746,
      "ĠYeah": 747,
      "ock": 748,
      "Ġbetter": 749,
      "ms": 750,
      "Ġfour": 751,
      "Ġmon": 752,
      "ign": 753,
      "Ġwait": 754,
      "Ġdif": 755,
      "Ġkind": 756,
      "Ġkeep": 757,
      "Ġma": 758,
      "air": 759,
      "Ġfriend": 760,
      "pe": 761,
      "Ġph": 762,
      "ually": 763,
      "oney": 764,
      "Ġmiss": 765,
      "ember": 766,
      "aking": 767,
      "Ġshall": 768,
      "Ġcol": 769,
      "Ġwar": 770,
      "ĠN": 771,
      "als": 772,
      "ates": 773,
      "side": 774,
      "xt": 775,
      "Ġwater": 776,
      "Ġ.": 777,
      "Ġfin": 778,
      "Ġanything": 779,
      "Ġele": 780,
      "Ġown": 781,
      "Ġstop": 782,
      "Ġused": 783,
      "Ġyears": 784,
      "Ġbre": 785,
      "Ġmummy": 786,
      "iver": 787,
      "au": 788,
      "Ġ3": 789,
      "Ġfeel": 790,
      "Ġcour": 791,
      "Ġmother": 792,
      "Ġschool": 793,
      "ah": 794,
      "og": 795,
      "ank": 796,
      "Ġdoesn": 797,
      "ical": 798,
      "ww": 799,
      "ings": 800,
      "Ġpres": 801,
      "Ġelse": 802,
      "Ġlife": 803,
      "Ġimp": 804,
      "Ġsuch": 805,
      "ult": 806,
      "Ġend": 807,
      "gg": 808,
      "Ġpol": 809,
      "rent": 810,
      "ways": 811,
      "Ġnor": 812,
      "Ġspe": 813,
      "Ġbeing": 814,
      "Ġdes": 815,
      "Ġaround": 816,
      "Ġsit": 817,
      "Ġchar": 818,
      "ited": 819,
      "Ġworld": 820,
      "Ġplace": 821,
      "Ġmat": 822,
      "anc": 823,
      "ling": 824,
      "Ġsupp": 825,
      "ope": 826,
      "mer": 827,
      "oss": 828,
      "Ġbus": 829,
      "ried": 830,
      "Ġz": 831,
      "Ġeng": 832,
      "orry": 833,
      "ince": 834,
      "Ġsame": 835,
      "Ġey": 836,
      "Ġgre": 837,
      "Ġfather": 838,
      "Ġdaddy": 839,
      "Ġcap": 840,
      "ĠC": 841,
      "med": 842,
      "Ġhuh": 843,
      "ute": 844,
      "Ġcle": 845,
      "ek": 846,
      "Ġwhile": 847,
      "Ġrep": 848,
      "Ġnext": 849,
      "Ġfar": 850,
      "Ġalways": 851,
      "Ġ200": 852,
      "Ġid": 853,
      "Ġwom": 854,
      "mo": 855,
      "inn": 856,
      "ta": 857,
      "Ġbec": 858,
      "Ġnothing": 859,
      "Ġhm": 860,
      "uc": 861,
      "Ġtold": 862,
      "Ġnum": 863,
      "der": 864,
      "sh": 865,
      "Ġerm": 866,
      "Ġhell": 867,
      "Ġred": 868,
      "Ġfam": 869,
      "ican": 870,
      "ĠB": 871,
      "Ġborn": 872,
      "Ġdiffe": 873,
      "Ġmaybe": 874,
      "ib": 875,
      "Ġset": 876,
      "Ġsorry": 877,
      "Ġtom": 878,
      "Ġfive": 879,
      "Ġever": 880,
      "Ġread": 881,
      "ump": 882,
      "outh": 883,
      "Ġuse": 884,
      "Ġtoday": 885,
      "Ġleft": 886,
      "io": 887,
      "led": 888,
      "ds": 889,
      "Ġsaw": 890,
      "Ġmm": 891,
      "Ġpers": 892,
      "ere": 893,
      "Ġbir": 894,
      "Ġgone": 895,
      "leep": 896,
      "ition": 897,
      "ew": 898,
      "Ġrec": 899,
      "ss": 900,
      "Ġopen": 901,
      "amp": 902,
      "Ġmoney": 903,
      "Ġmus": 904,
      "here": 905,
      "Ġbeg": 906,
      "mber": 907,
      "Ġhold": 908,
      "Ġamer": 909,
      "Ġcoming": 910,
      "Ġsing": 911,
      "Ġlist": 912,
      "ĠE": 913,
      "Ġhear": 914,
      "Ġreg": 915,
      "Ġhur": 916,
      "ever": 917,
      "vent": 918,
      "Ġacc": 919,
      "Ġmen": 920,
      "Ġremember": 921,
      "Ġunt": 922,
      "Ġatt": 923,
      "Ġwatch": 924,
      "Ġkill": 925,
      "Ġenough": 926,
      "Ġim": 927,
      "Ġsix": 928,
      "Ġhard": 929,
      "by": 930,
      "Ġmil": 931,
      "Ġstay": 932,
      "ĠH": 933,
      "Ġgoes": 934,
      "akes": 935,
      "ations": 936,
      "aught": 937,
      "Ġbed": 938,
      "Ġthough": 939,
      "Ġsur": 940,
      "Ġreal": 941,
      "ister": 942,
      "Ġbest": 943,
      "Ġgod": 944,
      "row": 945,
      "Ġgen": 946,
      "right": 947,
      "ream": 948,
      "Ġsy": 949,
      "ĠOh": 950,
      "Ġbelie": 951,
      "ction": 952,
      "Ġyoung": 953,
      "ger": 954,
      "ts": 955,
      "Ġmommy": 956,
      "Ġroom": 957,
      "ars": 958,
      "Ġasked": 959,
      "Ġmorn": 960,
      "Ġtook": 961,
      "ton": 962,
      "Ġcity": 963,
      "Ġca": 964,
      "Ġbro": 965,
      "Ġter": 966,
      "Ġbad": 967,
      "ial": 968,
      "Ġsk": 969,
      "Ġwo": 970,
      "Ġdear": 971,
      "Ġleave": 972,
      "ins": 973,
      "for": 974,
      "Ġed": 975,
      "und": 976,
      "ness": 977,
      "Ġstand": 978,
      "Ġdog": 979,
      "ished": 980,
      "Ġfoot": 981,
      "Ġdoor": 982,
      "Ġsays": 983,
      "fta": 984,
      "br": 985,
      "Ġuntil": 986,
      "Ġdifferent": 987,
      "Ġhafta": 988,
      "vel": 989,
      "ident": 990,
      "Ġquite": 991,
      "cond": 992,
      "oup": 993,
      "Ġsir": 994,
      "Ġ202": 995,
      "Ġmorning": 996,
      "huh": 997,
      "ĠAnd": 998,
      "Ġboth": 999,
      "Ġob": 1000,
      "Ġcourse": 1001,
      "Ġwalk": 1002,
      "Ġgrand": 1003,
      "Ġyet": 1004,
      "Ġdist": 1005,
      "Ġcent": 1006,
      "ung": 1007,
      "Ġexp": 1008,
      "Ġlight": 1009,
      "az": 1010,
      "Ġfire": 1011,
      "gether": 1012,
      "Ġret": 1013,
      "tern": 1014,
      "ower": 1015,
      "Ġsho": 1016,
      "Ġround": 1017,
      "Ġknown": 1018,
      "cc": 1019,
      "ational": 1020,
      "Ġonce": 1021,
      "ased": 1022,
      "Ġrel": 1023,
      "Ġsecond": 1024,
      "Ġsn": 1025,
      "Ġair": 1026,
      "Ġseen": 1027,
      "Ġsleep": 1028,
      "Ġ18": 1029,
      "Ġball": 1030,
      "Ġhat": 1031,
      "Ġgetting": 1032,
      "eak": 1033,
      "ier": 1034,
      "pr": 1035,
      "Ġpop": 1036,
      "Ġlar": 1037,
      "Ġnumber": 1038,
      "Ġpass": 1039,
      "Ġ4": 1040,
      "uff": 1041,
      "Ġlooking": 1042,
      "Ġuhhuh": 1043,
      "Ġste": 1044,
      "oun": 1045,
      "Ġking": 1046,
      "ces": 1047,
      "ellow": 1048,
      "Ġperson": 1049,
      "Ġwind": 1050,
      "Ġnear": 1051,
      "Ġmind": 1052,
      "Ġeyes": 1053,
      "Ġpret": 1054,
      "oh": 1055,
      "Ġeverything": 1056,
      "raw": 1057,
      "Ġsmall": 1058,
      "Ġbar": 1059,
      "ash": 1060,
      "Ġhigh": 1061,
      "Ġeach": 1062,
      "Ġtogether": 1063,
      "Ġent": 1064,
      "Ġcat": 1065,
      "Ġtrain": 1066,
      "ired": 1067,
      "Ġblue": 1068,
      "Ġready": 1069,
      "Ġdri": 1070,
      "Ġside": 1071,
      "Ġlater": 1072,
      "ten": 1073,
      "llow": 1074,
      "une": 1075,
      "Ġrun": 1076,
      "Ġmove": 1077,
      "Ġfall": 1078,
      "Ġinst": 1079,
      "ange": 1080,
      "Ġchildren": 1081,
      "Ġsince": 1082,
      "uring": 1083,
      "Ġface": 1084,
      "ics": 1085,
      "ctor": 1086,
      "Ġ199": 1087,
      "ween": 1088,
      "ets": 1089,
      "de": 1090,
      "Ġpar": 1091,
      "Ġchr": 1092,
      "ph": 1093,
      "Ġsoon": 1094,
      "Ġwithout": 1095,
      "vie": 1096,
      "Ġmet": 1097,
      "ably": 1098,
      "Ġhappened": 1099,
      "Ġbetween": 1100,
      "ible": 1101,
      "me": 1102,
      "Ġfew": 1103,
      "Ġhaven": 1104,
      "Ġweek": 1105,
      "Ġalright": 1106,
      "Ġwanted": 1107,
      "ason": 1108,
      "Ġpie": 1109,
      "Ġhaving": 1110,
      "Ġpretty": 1111,
      "tle": 1112,
      "Ġ5": 1113,
      "ross": 1114,
      "ters": 1115,
      "ames": 1116,
      "ĠD": 1117,
      "ont": 1118,
      "Ġblack": 1119,
      "ĠNo": 1120,
      "gr": 1121,
      "Ġheard": 1122,
      "Ġju": 1123,
      "Ġsort": 1124,
      "Ġhello": 1125,
      "ork": 1126,
      "Ġeas": 1127,
      "Ġhor": 1128,
      "ular": 1129,
      "unny": 1130,
      "Ġrest": 1131,
      "Ġlive": 1132,
      "Ġdec": 1133,
      "ane": 1134,
      "Ġpat": 1135,
      "oy": 1136,
      "Ġactually": 1137,
      "ures": 1138,
      "Ġkid": 1139,
      "Ġlooks": 1140,
      "Ġhalf": 1141,
      "Ġunited": 1142,
      "Ġpa": 1143,
      "Ġbring": 1144,
      "Ġstory": 1145,
      "ush": 1146,
      "its": 1147,
      "Ġcons": 1148,
      "ents": 1149,
      "Ġpick": 1150,
      "hn": 1151,
      "Ġans": 1152,
      "mb": 1153,
      "Ġpoint": 1154,
      "Ġamerican": 1155,
      "ma": 1156,
      "ĠWell": 1157,
      "ime": 1158,
      "fect": 1159,
      "Ġwhite": 1160,
      "Ġfollow": 1161,
      "Ġgreen": 1162,
      "iet": 1163,
      "Ġhot": 1164,
      "Ġhands": 1165,
      "Ġfamily": 1166,
      "cial": 1167,
      "Ġpur": 1168,
      "Ġson": 1169,
      "ertain": 1170,
      "Ġcut": 1171,
      "Ġdied": 1172,
      "oc": 1173,
      "Ġtop": 1174,
      "uary": 1175,
      "Ġheart": 1176,
      "Ġbelieve": 1177,
      "Ġexc": 1178,
      "Ġanim": 1179,
      "ged": 1180,
      "Ġunderst": 1181,
      "Ġdrink": 1182,
      "Ġaw": 1183,
      "Ġcur": 1184,
      "ubl": 1185,
      "enn": 1186,
      "osed": 1187,
      "ĠThe": 1188,
      "Ġstates": 1189,
      "Ġinv": 1190,
      "ese": 1191,
      "Ġbreak": 1192,
      "Ġdays": 1193,
      "Ġsound": 1194,
      "Ġmusic": 1195,
      "Ġdep": 1196,
      "Ġdel": 1197,
      "Ġthir": 1198,
      "ipp": 1199,
      "lly": 1200,
      "cha": 1201,
      "Ġteam": 1202,
      "Ġpict": 1203,
      "ball": 1204,
      "Ġprob": 1205,
      "Ġmrs": 1206,
      "clud": 1207,
      "Ġwasn": 1208,
      "Ġcoll": 1209,
      "Ġbrother": 1210,
      "ret": 1211,
      "Ġpap": 1212,
      "Ġsub": 1213,
      "ating": 1214,
      "ĠR": 1215,
      "Ġsaying": 1216,
      "Ġdire": 1217,
      "Ġtown": 1218,
      "Ġspo": 1219,
      "Ġswe": 1220,
      "Ġadd": 1221,
      "imes": 1222,
      "Ġass": 1223,
      "Ġland": 1224,
      "Ġ,": 1225,
      "ann": 1226,
      "Ġduring": 1227,
      "ina": 1228,
      "Ġmaking": 1229,
      "less": 1230,
      "Ġge": 1231,
      "ho": 1232,
      "ife": 1233,
      "Ġagainst": 1234,
      "Ġnat": 1235,
      "vern": 1236,
      "Ġeight": 1237,
      "Ġknew": 1238,
      "Ġupon": 1239,
      "ĠIt": 1240,
      "Ġjohn": 1241,
      "ither": 1242,
      "aw": 1243,
      "cle": 1244,
      "ster": 1245,
      "Ġgener": 1246,
      "ision": 1247,
      "Ġfood": 1248,
      "ual": 1249,
      "Ġparty": 1250,
      "Ġstate": 1251,
      "sel": 1252,
      "most": 1253,
      "Ġmag": 1254,
      "Ġlisten": 1255,
      "iness": 1256,
      "aut": 1257,
      "Ġalong": 1258,
      "Ġjack": 1259,
      "Ġsong": 1260,
      "Ġbuild": 1261,
      "Ġthom": 1262,
      "Ġhour": 1263,
      "Ġhimself": 1264,
      "Ġchrist": 1265,
      "Ġwonder": 1266,
      "Ġmatter": 1267,
      "Ġpay": 1268,
      "ject": 1269,
      "Ġ198": 1270,
      "Ġwhole": 1271,
      "Ġmed": 1272,
      "enty": 1273,
      "Ġgave": 1274,
      "Ġvo": 1275,
      "che": 1276,
      "Ġsim": 1277,
      "Ġsqu": 1278,
      "Ġhair": 1279,
      "cept": 1280,
      "uth": 1281,
      "Ġfine": 1282,
      "uss": 1283,
      "Ġguess": 1284,
      "ĠMm": 1285,
      "Ġbox": 1286,
      "Ġtalking": 1287,
      "Ġjob": 1288,
      "Ġmeet": 1289,
      "ote": 1290,
      "Ġwrong": 1291,
      "Ġcompan": 1292,
      "orrow": 1293,
      "Ġgame": 1294,
      "Ġgotta": 1295,
      "rew": 1296,
      "Ġprobably": 1297,
      "Ġhappy": 1298,
      "Ġwoman": 1299,
      "Ġmark": 1300,
      "ĠYou": 1301,
      "Ġspeak": 1302,
      "Ġleg": 1303,
      "Ġboys": 1304,
      "Ġthomas": 1305,
      "Ġstarted": 1306,
      "Ġunderstand": 1307,
      "ows": 1308,
      "Ġger": 1309,
      "Ġcomes": 1310,
      "Ġpoor": 1311,
      "Ġaren": 1312,
      "Ġlooked": 1313,
      "Ġtrying": 1314,
      "Ġten": 1315,
      "Ġ6": 1316,
      "ready": 1317,
      "Ġtre": 1318,
      "Ġinclud": 1319,
      "ants": 1320,
      "Ġfull": 1321,
      "ised": 1322,
      "Ġpain": 1323,
      "Ġclose": 1324,
      "Ġinc": 1325,
      "Ġes": 1326,
      "Ġnorth": 1327,
      "Ġsat": 1328,
      "Ġwouldn": 1329,
      "Ġda": 1330,
      "vers": 1331,
      "Ġsign": 1332,
      "ced": 1333,
      "Ġalready": 1334,
      "Ġcountry": 1335,
      "erest": 1336,
      "Ġsometimes": 1337,
      "Ġton": 1338,
      "Ġbeaut": 1339,
      "illy": 1340,
      "Ġgi": 1341,
      "Ġnin": 1342,
      "Ġplayed": 1343,
      "ĠG": 1344,
      "Ġill": 1345,
      "Ġfun": 1346,
      "arn": 1347,
      "Ġminute": 1348,
      "Ġbecame": 1349,
      "Ġalmost": 1350,
      "Ġcook": 1351,
      "Ġgovern": 1352,
      "key": 1353,
      "ĠEr": 1354,
      "Ġra": 1355,
      "Ġcolor": 1356,
      "ched": 1357,
      "Ġmine": 1358,
      "Ġhum": 1359,
      "Ġquest": 1360,
      "ee": 1361,
      "ĠP": 1362,
      "ief": 1363,
      "eter": 1364,
      "Ġinterest": 1365,
      "ted": 1366,
      "Ġword": 1367,
      "ik": 1368,
      "Ġhope": 1369,
      "ama": 1370,
      "Ġtimes": 1371,
      "ield": 1372,
      "Ġsec": 1373,
      "Ġlead": 1374,
      "www": 1375,
      "Ġ197": 1376,
      "Ġlost": 1377,
      "ital": 1378,
      "Ġ7": 1379,
      "Ġposs": 1380,
      "Ġreturn": 1381,
      "Ġidea": 1382,
      "Ġlady": 1383,
      "aster": 1384,
      "Ġcup": 1385,
      "Ġdead": 1386,
      "Ġstuff": 1387,
      "Ġfact": 1388,
      "Ġplaying": 1389,
      "Ġfight": 1390,
      "Ġquick": 1391,
      "Ġdeath": 1392,
      "Ġrock": 1393,
      "Ġbear": 1394,
      "Ġfriends": 1395,
      "where": 1396,
      "Ġemp": 1397,
      "Ġev": 1398,
      "undred": 1399,
      "ities": 1400,
      "Ġchair": 1401,
      "Ġconf": 1402,
      "Ġ8": 1403,
      "Ġbat": 1404,
      "ĠYes": 1405,
      "Ġcertain": 1406,
      "hy": 1407,
      "Ġbob": 1408,
      "ient": 1409,
      "Ġdro": 1410,
      "Ġcal": 1411,
      "Ġart": 1412,
      "ral": 1413,
      "ivers": 1414,
      "olog": 1415,
      "den": 1416,
      "Ġpull": 1417,
      "Ġhundred": 1418,
      "Ġty": 1419,
      "Ġproble": 1420,
      "Ġmovie": 1421,
      "Ġgirls": 1422,
      "wards": 1423,
      "ines": 1424,
      "ots": 1425,
      "aken": 1426,
      "Ġpri": 1427,
      "tend": 1428,
      "ike": 1429,
      "ined": 1430,
      "Ġsent": 1431,
      "eth": 1432,
      "Ġmid": 1433,
      "Ġprod": 1434,
      "Ġbur": 1435,
      "cess": 1436,
      "Ġones": 1437,
      "Ġfro": 1438,
      "Ġform": 1439,
      "Ġdont": 1440,
      "Ġnational": 1441,
      "Ġmeans": 1442,
      "Ġyourself": 1443,
      "Ġmonth": 1444,
      "Ġfuck": 1445,
      "ison": 1446,
      "Ġdar": 1447,
      "uct": 1448,
      "Ġfeet": 1449,
      "igh": 1450,
      "Ġmain": 1451,
      "Ġann": 1452,
      "Ġhist": 1453,
      "Ġben": 1454,
      "Ġoffic": 1455,
      "Ġbas": 1456,
      "Ġrecord": 1457,
      "Ġfore": 1458,
      "to": 1459,
      "ouch": 1460,
      "Ġmoment": 1461,
      "ica": 1462,
      "Ġsum": 1463,
      "Ġinter": 1464,
      "ered": 1465,
      "Ġrepl": 1466,
      "Ġhon": 1467,
      "Ġsouth": 1468,
      "Ġguy": 1469,
      "Ġsun": 1470,
      "Ġsomeone": 1471,
      "een": 1472,
      "Ġoutside": 1473,
      "ĠSo": 1474,
      "pect": 1475,
      "Ġfif": 1476,
      "ense": 1477,
      "unt": 1478,
      "Ġwants": 1479,
      "wer": 1480,
      "Ġprom": 1481,
      "Ġdraw": 1482,
      "Ġoften": 1483,
      "Ġexpl": 1484,
      "lish": 1485,
      "Ġsister": 1486,
      "Ġpresent": 1487,
      "ages": 1488,
      "cy": 1489,
      "Ġshort": 1490,
      "Ġstud": 1491,
      "unch": 1492,
      "cer": 1493,
      "Ġref": 1494,
      "Ġprov": 1495,
      "Ġmic": 1496,
      "Ġtele": 1497,
      "Ġlaw": 1498,
      "Ġlate": 1499,
      "airs": 1500,
      "Ġ..": 1501,
      "Ġbuy": 1502,
      "Ġimport": 1503,
      "ĠThat": 1504,
      "ĠL": 1505,
      "Ġage": 1506,
      "haps": 1507,
      "oon": 1508,
      "ury": 1509,
      "Ġable": 1510,
      "Ġem": 1511,
      "Ġcompl": 1512,
      "Ġstar": 1513,
      "ped": 1514,
      "Ġhappen": 1515,
      "Ġwin": 1516,
      "Ġlau": 1517,
      "Ġbusiness": 1518,
      "Ġmyself": 1519,
      "Ġcounty": 1520,
      "Ġbegan": 1521,
      "Ġmer": 1522,
      "Ġ196": 1523,
      "Ġstick": 1524,
      "Ġsal": 1525,
      "ken": 1526,
      "Ġdou": 1527,
      "Ġ!": 1528,
      "utes": 1529,
      "Ġcor": 1530,
      "Ġcaptain": 1531,
      "ĠWhat": 1532,
      "Ġbeh": 1533,
      "Ġtable": 1534,
      "Ġflo": 1535,
      "Ġbrought": 1536,
      "Ġ9": 1537,
      "Ġmad": 1538,
      "zz": 1539,
      "iful": 1540,
      "Ġcouldn": 1541,
      "Ġsweet": 1542,
      "Ġbye": 1543,
      "Ġrele": 1544,
      "Ġearly": 1545,
      "Ġdoctor": 1546,
      "son": 1547,
      "Ġserv": 1548,
      "Ġtrans": 1549,
      "ond": 1550,
      "rap": 1551,
      "Ġbehind": 1552,
      "Ġseven": 1553,
      "the": 1554,
      "ize": 1555,
      "od": 1556,
      "Ġmakes": 1557,
      "Ġpubl": 1558,
      "Ġthanks": 1559,
      "ives": 1560,
      "Ġlearn": 1561,
      "Ġwomen": 1562,
      "Ġmill": 1563,
      "Ġperhaps": 1564,
      "app": 1565,
      "Ġcold": 1566,
      "aces": 1567,
      "Ġboat": 1568,
      "Ġhorse": 1569,
      "ided": 1570,
      "Ġcontin": 1571,
      "ips": 1572,
      "Ġroad": 1573,
      "Ġtomorrow": 1574,
      "ey": 1575,
      "ments": 1576,
      "Ġtwenty": 1577,
      "Ġbirth": 1578,
      "Ġpower": 1579,
      "inner": 1580,
      "Ġfunny": 1581,
      "Ġcry": 1582,
      "Ġhurt": 1583,
      "Ġtaking": 1584,
      "Ġclass": 1585,
      "Ġgerman": 1586,
      "Ġwife": 1587,
      "Ġ10": 1588,
      "Ġless": 1589,
      "Ġsomebody": 1590,
      "Ġins": 1591,
      "ple": 1592,
      "ured": 1593,
      "Ġmilk": 1594,
      "Ġtill": 1595,
      "cla": 1596,
      "Ġtrue": 1597,
      "Ġloc": 1598,
      "Ġcase": 1599,
      "Ġinside": 1600,
      "Ġmess": 1601,
      "Ġvis": 1602,
      "Ġjan": 1603,
      "iam": 1604,
      "Ġfair": 1605,
      "dle": 1606,
      "form": 1607,
      "Ġdress": 1608,
      "Ġfell": 1609,
      "Ġtaken": 1610,
      "ully": 1611,
      "Ġago": 1612,
      "ific": 1613,
      "itting": 1614,
      "Ġpen": 1615,
      "gan": 1616,
      "Ġsea": 1617,
      "rib": 1618,
      "Ġline": 1619,
      "Ġhowever": 1620,
      "Ġext": 1621,
      "kes": 1622,
      "Ġchange": 1623,
      "Ġeither": 1624,
      "amed": 1625,
      "Ġwood": 1626,
      "Ġclot": 1627,
      "Ġta": 1628,
      "elt": 1629,
      "Ġprof": 1630,
      "Ġfront": 1631,
      "Ġwords": 1632,
      "Ġbeautiful": 1633,
      "Ġyellow": 1634,
      "Ġguys": 1635,
      "ape": 1636,
      "Ġmouth": 1637,
      "Ġwear": 1638,
      "ks": 1639,
      "ides": 1640,
      "Ġrather": 1641,
      "Ġvoice": 1642,
      "ists": 1643,
      "oud": 1644,
      "Ġber": 1645,
      "room": 1646,
      "Ġlad": 1647,
      "Ġir": 1648,
      "ider": 1649,
      "Ġhit": 1650,
      "Ġsil": 1651,
      "Ġcir": 1652,
      "Ġtrou": 1653,
      "Ġgroup": 1654,
      "ries": 1655,
      "ative": 1656,
      "ized": 1657,
      "Ġsand": 1658,
      "Ġtree": 1659,
      "ution": 1660,
      "Ġthrow": 1661,
      "Ġdark": 1662,
      "Ġwish": 1663,
      "gy": 1664,
      "Ġfish": 1665,
      "Ġimportant": 1666,
      "Ġminutes": 1667,
      "Ġfil": 1668,
      "head": 1669,
      "Ġpresident": 1670,
      "Ġcompany": 1671,
      "Ġbody": 1672,
      "Ġarea": 1673,
      "Ġpot": 1674,
      "Ġmarch": 1675,
      "Ġice": 1676,
      "ĠBut": 1677,
      "bit": 1678,
      "Ġap": 1679,
      "Ġriver": 1680,
      "Ġnews": 1681,
      "Ġorder": 1682,
      "Ġprot": 1683,
      "Ġcried": 1684,
      "Ġstrong": 1685,
      "ĠJ": 1686,
      "Ġblood": 1687,
      "Ġlarge": 1688,
      "Ġalone": 1689,
      "Ġjump": 1690,
      "Ġbag": 1691,
      "Ġpark": 1692,
      "ner": 1693,
      "Ġgiven": 1694,
      "Ġpast": 1695,
      "ney": 1696,
      "Ġelect": 1697,
      "ards": 1698,
      "Ġworking": 1699,
      "Ġlaugh": 1700,
      "Ġshop": 1701,
      "Ġpicture": 1702,
      "Ġpiece": 1703,
      "ones": 1704,
      "ying": 1705,
      "ues": 1706,
      "Ġenglish": 1707,
      "selves": 1708,
      "fully": 1709,
      "Ġcreat": 1710,
      "rench": 1711,
      "ze": 1712,
      "Ġdoll": 1713,
      "artment": 1714,
      "fl": 1715,
      "Ġpolit": 1716,
      "Ġbrown": 1717,
      "Ġstre": 1718,
      "ring": 1719,
      "Ġclean": 1720,
      "Ġfa": 1721,
      "ĠF": 1722,
      "Ġwow": 1723,
      "Ġgold": 1724,
      "Ġforg": 1725,
      "Ġfav": 1726,
      "arent": 1727,
      "Ġfootball": 1728,
      "Ġturned": 1729,
      "har": 1730,
      "gn": 1731,
      "Ġgrow": 1732,
      "Ġunivers": 1733,
      "Ġdeal": 1734,
      "Ġdam": 1735,
      "Ġaust": 1736,
      "Ġleast": 1737,
      "Ġpaper": 1738,
      "used": 1739,
      "Ġdiv": 1740,
      "Ġgun": 1741,
      "Ġplan": 1742,
      "Ġdef": 1743,
      "Ġfree": 1744,
      "ians": 1745,
      "Ġgent": 1746,
      "Ġtea": 1747,
      "ming": 1748,
      "ator": 1749,
      "Ġhung": 1750,
      "ald": 1751,
      "Ġ2020": 1752,
      "anger": 1753,
      "ention": 1754,
      "Ġeverybody": 1755,
      "Ġothers": 1756,
      "Ġfrance": 1757,
      "rest": 1758,
      "Ġalb": 1759,
      "Ġpu": 1760,
      "Ġ195": 1761,
      "Ġya": 1762,
      "Ġmaj": 1763,
      "Ġmount": 1764,
      "men": 1765,
      "ffe": 1766,
      "Ġbill": 1767,
      "Ġanimals": 1768,
      "Ġcamp": 1769,
      "els": 1770,
      "Ġstep": 1771,
      "ism": 1772,
      "Ġpig": 1773,
      "stem": 1774,
      "Ġcorn": 1775,
      "Ġadm": 1776,
      "Ġfast": 1777,
      "ches": 1778,
      "bb": 1779,
      "ony": 1780,
      "Ġglad": 1781,
      "Ġclear": 1782,
      "iting": 1783,
      "Ġwrite": 1784,
      "Ġfinished": 1785,
      "ience": 1786,
      "ety": 1787,
      "ley": 1788,
      "Ġusually": 1789,
      "not": 1790,
      "Ġegg": 1791,
      "Ġdarling": 1792,
      "Ġvill": 1793,
      "Ġisland": 1794,
      "Ġadv": 1795,
      "ham": 1796,
      "ete": 1797,
      "Ġcow": 1798,
      "Ġrunn": 1799,
      "Ġ17": 1800,
      "iously": 1801,
      "idge": 1802,
      "Ġ?": 1803,
      "Ġocc": 1804,
      "Ġsend": 1805,
      "Ġwall": 1806,
      "Ġclub": 1807,
      "Ġjap": 1808,
      "Ġkilled": 1809,
      "Ġchur": 1810,
      "Ġlang": 1811,
      "Ġquestion": 1812,
      "Ġdinner": 1813,
      "ove": 1814,
      "Ġsystem": 1815,
      "pped": 1816,
      "ii": 1817,
      "Ġwest": 1818,
      "Ġdat": 1819,
      "Ġhistory": 1820,
      "Ġband": 1821,
      "Ġpost": 1822,
      "Ġmur": 1823,
      "Ġ12": 1824,
      "Ġpos": 1825,
      "Ġthinking": 1826,
      "Ġdirect": 1827,
      "Ġfly": 1828,
      "Ġfrench": 1829,
      "Ġdaught": 1830,
      "ana": 1831,
      "Ġtonight": 1832,
      "Ġgovernment": 1833,
      "Ġfloor": 1834,
      "iter": 1835,
      "Ġsever": 1836,
      "Ġmot": 1837,
      "Ġsold": 1838,
      "ls": 1839,
      "Ġ15": 1840,
      "Ġcheck": 1841,
      "ilt": 1842,
      "Ġseemed": 1843,
      "end": 1844,
      "Ġje": 1845,
      "Ġ194": 1846,
      "Ġreason": 1847,
      "Ġnine": 1848,
      "Ġran": 1849,
      "Ġfelt": 1850,
      "Ġspecial": 1851,
      "Ġbirthday": 1852,
      "Ġliving": 1853,
      "urs": 1854,
      "Ġshut": 1855,
      "Ġphil": 1856,
      "ept": 1857,
      "Ġjanuary": 1858,
      "Ġtem": 1859,
      "Ġrain": 1860,
      "Ġground": 1861,
      "Ġpartic": 1862,
      "Ġlots": 1863,
      "Ġbooks": 1864,
      "iding": 1865,
      "Ġgets": 1866,
      "Ġrom": 1867,
      "Ġjapan": 1868,
      "Ġfellow": 1869,
      "rence": 1870,
      "Ġlay": 1871,
      "Ġsol": 1872,
      "Ġsuper": 1873,
      "ousand": 1874,
      "Ġseveral": 1875,
      "Ġoct": 1876,
      "Ġsam": 1877,
      "Ġgeneral": 1878,
      "Ġfrog": 1879,
      "Ġchoo": 1880,
      "Ġroll": 1881,
      "Ġwee": 1882,
      "Ġcross": 1883,
      "Ġtried": 1884,
      "cil": 1885,
      "Ġchance": 1886,
      "Ġsuppose": 1887,
      "Ġlie": 1888,
      "ges": 1889,
      "Ġteac": 1890,
      "Ġthousand": 1891,
      "Ġve": 1892,
      "Ġbrit": 1893,
      "Ġreplied": 1894,
      "umb": 1895,
      "Ġfix": 1896,
      "Ġtouch": 1897,
      "Ġbecome": 1898,
      "Ġstor": 1899,
      "ats": 1900,
      "Ġcatch": 1901,
      "ru": 1902,
      "Ġproblem": 1903,
      "ric": 1904,
      "Ġanyway": 1905,
      "Ġyours": 1906,
      "ery": 1907,
      "osp": 1908,
      "ford": 1909,
      "arch": 1910,
      "Ġallow": 1911,
      "Ġtruck": 1912,
      "Ġopp": 1913,
      "Ġexpect": 1914,
      "raid": 1915,
      "Ġdie": 1916,
      "Ġfing": 1917,
      "Ġearth": 1918,
      "ium": 1919,
      "rict": 1920,
      "ices": 1921,
      "Ġcarry": 1922,
      "Ġamong": 1923,
      "Ġbath": 1924,
      "Ġhang": 1925,
      "Ġseries": 1926,
      "Ġtrouble": 1927,
      "Ġcond": 1928,
      "Ġpolice": 1929,
      "Ġthats": 1930,
      "Ġrece": 1931,
      "Ġnose": 1932,
      "wered": 1933,
      "Ġstra": 1934,
      "fort": 1935,
      "ately": 1936,
      "Ġphone": 1937,
      "Ġwhatever": 1938,
      "Ġlived": 1939,
      "Ġyork": 1940,
      "Ġfre": 1941,
      "Ġforget": 1942,
      "Ġkids": 1943,
      "child": 1944,
      "bert": 1945,
      "Ġpound": 1946,
      "Ġafraid": 1947,
      "Ġanswered": 1948,
      "Ġfrank": 1949,
      "Ġchick": 1950,
      "ale": 1951,
      "ued": 1952,
      "Ġest": 1953,
      "Ġexact": 1954,
      "Ġfig": 1955,
      "ler": 1956,
      "Ġkiss": 1957,
      "Ġconst": 1958,
      "Ġdece": 1959,
      "Ġow": 1960,
      "Ġuniversity": 1961,
      "Ġnamed": 1962,
      "Ġfur": 1963,
      "mas": 1964,
      "Ġprofess": 1965,
      "Ġeasy": 1966,
      "ering": 1967,
      "teen": 1968,
      "irt": 1969,
      "Ġseems": 1970,
      "Ġbow": 1971,
      "Ġcop": 1972,
      "band": 1973,
      "Ġmarried": 1974,
      "Ġcos": 1975,
      "fic": 1976,
      "zy": 1977,
      "Ġaug": 1978,
      "Ġacross": 1979,
      "Ġregion": 1980,
      "vered": 1981,
      "Ġarm": 1982,
      "Ġjune": 1983,
      "Ġreleased": 1984,
      "imed": 1985,
      "Ġapr": 1986,
      "Ġlangu": 1987,
      "ached": 1988,
      "Ġalbum": 1989,
      "Ġrunning": 1990,
      "ality": 1991,
      "Ġintern": 1992,
      "Ġattack": 1993,
      "Ġquiet": 1994,
      "eed": 1995,
      "Ġtoys": 1996,
      "oof": 1997,
      "Ġdisc": 1998,
      "ead": 1999,
      "ains": 2000,
      "Ġchurch": 2001,
      "Ġsummer": 2002,
      "Ġpress": 2003,
      "ically": 2004,
      "Ġdream": 2005,
      "Ġbird": 2006,
      "Ġ16": 2007,
      "ained": 2008,
      "Ġreport": 2009,
      "read": 2010,
      "Ġgeor": 2011,
      "alth": 2012,
      "Ġdepartment": 2013,
      "Ġring": 2014,
      "itten": 2015,
      "Ġcra": 2016,
      "Ġcommun": 2017,
      "Ġuncle": 2018,
      "Ġluck": 2019,
      "Ġsca": 2020,
      "ĠErm": 2021,
      "Ġdaughter": 2022,
      "vision": 2023,
      "Ġdet": 2024,
      "tom": 2025,
      "Ġfit": 2026,
      "Ġport": 2027,
      "Ġanswer": 2028,
      "Ġcontro": 2029,
      "avy": 2030,
      "port": 2031,
      "unk": 2032,
      "Ġspec": 2033,
      "Ġletter": 2034,
      "Ġknows": 2035,
      "ude": 2036,
      "Ġjim": 2037,
      "Ġaugust": 2038,
      "iving": 2039,
      "Ġlovely": 2040,
      "Ġhus": 2041,
      "Ġgard": 2042,
      "Ġtur": 2043,
      "velop": 2044,
      "Ġcareful": 2045,
      "Ġlives": 2046,
      "ived": 2047,
      "Ġhop": 2048,
      "ober": 2049,
      "inning": 2050,
      "ural": 2051,
      "Ġsud": 2052,
      "Ġsurpr": 2053,
      "Ġeur": 2054,
      "Ġexper": 2055,
      "Ġtired": 2056,
      "ility": 2057,
      "Ġchamp": 2058,
      "bs": 2059,
      "Ġmember": 2060,
      "hen": 2061,
      "Ġcareer": 2062,
      "Ġsitting": 2063,
      "oth": 2064,
      "Ġevent": 2065,
      "Ġsus": 2066,
      "Ġ193": 2067,
      "Ġwhether": 2068,
      "Ġclim": 2069,
      "Ġhours": 2070,
      "Ġrad": 2071,
      "Ġaunt": 2072,
      "Ġval": 2073,
      "aced": 2074,
      "Ġshoes": 2075,
      "Ġduck": 2076,
      "ding": 2077,
      "igin": 2078,
      "Ġclothes": 2079,
      "Ġheld": 2080,
      "Ġcommon": 2081,
      "Ġship": 2082,
      "Ġoper": 2083,
      "Ġdem": 2084,
      "vember": 2085,
      "ked": 2086,
      "Ġooh": 2087,
      "Ġsnow": 2088,
      "Ġoctober": 2089,
      "Ġcoun": 2090,
      "ograp": 2091,
      "Ġmonths": 2092,
      "Ġsept": 2093,
      "Ġcast": 2094,
      "Ġchildes": 2095,
      "childes": 2096,
      "Ġchildeschildes": 2097,
      "Ġstreet": 2098,
      "Ġknock": 2099,
      "Ġshar": 2100,
      "Ġkept": 2101,
      "Ġproper": 2102,
      "Ġreco": 2103,
      "ract": 2104,
      "Ġapril": 2105,
      "Ġengine": 2106,
      "Ġhen": 2107,
      "Ġain": 2108,
      "Ġjuice": 2109,
      "Ġcannot": 2110,
      "Ġlord": 2111,
      "Ġsilly": 2112,
      "Ġcoup": 2113,
      "Ġexcuse": 2114,
      "Ġhors": 2115,
      "ping": 2116,
      "Ġmajor": 2117,
      "king": 2118,
      "Ġdistrict": 2119,
      "Ġ11": 2120,
      "Ġabs": 2121,
      "Ġeye": 2122,
      "Ġprin": 2123,
      "cent": 2124,
      "Ġfield": 2125,
      "ulation": 2126,
      "Ġresp": 2127,
      "Ġgar": 2128,
      "Ġlow": 2129,
      "Ġwindow": 2130,
      "Ġsudden": 2131,
      "Ġdevelop": 2132,
      "Ġtelevision": 2133,
      "Ġnovember": 2134,
      "Ġcool": 2135,
      "Ġeh": 2136,
      "Ġworked": 2137,
      "Ġgentle": 2138,
      "eared": 2139,
      "erv": 2140,
      "ye": 2141,
      "Ġhol": 2142,
      "owers": 2143,
      "Ġjuly": 2144,
      "ship": 2145,
      "ov": 2146,
      "000": 2147,
      "Ġherself": 2148,
      "Ġmama": 2149,
      "ien": 2150,
      "Ġoffice": 2151,
      "ĠRight": 2152,
      "Ġstraight": 2153,
      "Ġav": 2154,
      "gue": 2155,
      "ob": 2156,
      "Ġhusband": 2157,
      "aser": 2158,
      "Ġsingle": 2159,
      "bruary": 2160,
      "Ġorange": 2161,
      "Ġsecret": 2162,
      "Ġvar": 2163,
      "Ġcharac": 2164,
      "aged": 2165,
      "Ġdecember": 2166,
      "Ġseptember": 2167,
      "iff": 2168,
      "Ġexactly": 2169,
      "Ġeveryone": 2170,
      "asure": 2171,
      "Ġeating": 2172,
      "Ġmist": 2173,
      "Ġwithin": 2174,
      "Ġtreat": 2175,
      "ared": 2176,
      "ional": 2177,
      "Ġeast": 2178,
      "Ġorigin": 2179,
      "Ġhuman": 2180,
      "Ġdrive": 2181,
      "hern": 2182,
      "ardon": 2183,
      "Ġcam": 2184,
      "Ġcommand": 2185,
      "Ġinstead": 2186,
      "Ġorgan": 2187,
      "Ġang": 2188,
      "Ġneeds": 2189,
      "Ġx": 2190,
      "Ġvict": 2191,
      "rop": 2192,
      "Ġhoney": 2193,
      "ĠHe": 2194,
      "Ġdav": 2195,
      "Ġpublic": 2196,
      "let": 2197,
      "Ġdev": 2198,
      "Ġformer": 2199,
      "Ġworry": 2200,
      "Ġsad": 2201,
      "uce": 2202,
      "hip": 2203,
      "ging": 2204,
      "Ġfort": 2205,
      "Ġshot": 2206,
      "Ġindeed": 2207,
      "Ġmaster": 2208,
      "Ġthird": 2209,
      "Ġfebruary": 2210,
      "Ġmor": 2211,
      "Ġcost": 2212,
      "Ġce": 2213,
      "Ġdest": 2214,
      "Ġdoub": 2215,
      "Ġfavor": 2216,
      "Ġappear": 2217,
      "Ġcouple": 2218,
      "Ġtest": 2219,
      "Ġdeep": 2220,
      "Ġwaiting": 2221,
      "Ġsick": 2222,
      "ĠWe": 2223,
      "Ġsafe": 2224,
      "Ġcause": 2225,
      "Ġtick": 2226,
      "Ġsucc": 2227,
      "Ġted": 2228,
      "Ġmillion": 2229,
      "Ġstation": 2230,
      "Ġbes": 2231,
      "Ġforgot": 2232,
      "more": 2233,
      "terday": 2234,
      "Ġpet": 2235,
      "Ġmart": 2236,
      "Ġplayer": 2237,
      "stairs": 2238,
      "Ġnobody": 2239,
      "Ġmoved": 2240,
      "Ġhy": 2241,
      "Ġbroken": 2242,
      "though": 2243,
      "con": 2244,
      "gram": 2245,
      "Ġslow": 2246,
      "Ġequ": 2247,
      "Ġdi": 2248,
      "Ġpossible": 2249,
      "Ġmiddle": 2250,
      "sy": 2251,
      "iday": 2252,
      "ert": 2253,
      "Ġputting": 2254,
      "Ġanyone": 2255,
      "Ġhill": 2256,
      "Ġ14": 2257,
      "Ġyesterday": 2258,
      "Ġdanger": 2259,
      "Ġhosp": 2260,
      "Ġhungry": 2261,
      "Ġbuilding": 2262,
      "ara": 2263,
      "Ġjud": 2264,
      "Ġsoft": 2265,
      "Ġpush": 2266,
      "Ġbell": 2267,
      "Ġpal": 2268,
      "Ġru": 2269,
      "uit": 2270,
      "Ġba": 2271,
      "Ġshoot": 2272,
      "Ġbritish": 2273,
      "Ġstri": 2274,
      "bye": 2275,
      "ato": 2276,
      "Ġ13": 2277,
      "la": 2278,
      "Ġwhose": 2279,
      "Ġgas": 2280,
      "itch": 2281,
      "Ġboard": 2282,
      "Ġcake": 2283,
      "Ġgames": 2284,
      "lex": 2285,
      "Ġparent": 2286,
      "Ġbutter": 2287,
      "Ġcla": 2288,
      "Ġsuccess": 2289,
      "Ġseat": 2290,
      "Ġseem": 2291,
      "Ġsave": 2292,
      "Ġsail": 2293,
      "Ġgarden": 2294,
      "joy": 2295,
      "Ġseason": 2296,
      "gest": 2297,
      "rat": 2298,
      "Ġengland": 2299,
      "par": 2300,
      "ample": 2301,
      "eng": 2302,
      "Ġdiffic": 2303,
      "phan": 2304,
      "kay": 2305,
      "Ġsupport": 2306,
      "Ġride": 2307,
      "Ġglass": 2308,
      "Ġcertainly": 2309,
      "Ġthemselves": 2310,
      "Ġpretend": 2311,
      "Ġalthough": 2312,
      "Ġdut": 2313,
      "Ġfraser": 2314,
      "Ġjoe": 2315,
      "Ġcre": 2316,
      "gen": 2317,
      "yn": 2318,
      "Ġwel": 2319,
      "Ġsmo": 2320,
      "mbers": 2321,
      "come": 2322,
      "Ġital": 2323,
      "fast": 2324,
      "Ġswim": 2325,
      "Ġbank": 2326,
      "Ġeurope": 2327,
      "Ġlonger": 2328,
      "Ġbud": 2329,
      ".'": 2330,
      "ior": 2331,
      "Ġant": 2332,
      "Ġblow": 2333,
      "Ġyep": 2334,
      "lo": 2335,
      "Ġworks": 2336,
      "Ġdisco": 2337,
      "claimed": 2338,
      "ager": 2339,
      "Ġtelling": 2340,
      "Ġchanged": 2341,
      "Ġpardon": 2342,
      "Ġrab": 2343,
      "Ġhall": 2344,
      "Ġteacher": 2345,
      "Ġchristmas": 2346,
      "Ġnearly": 2347,
      "Ġarmy": 2348,
      "Ġahead": 2349,
      "Ġperfect": 2350,
      "Ġmis": 2351,
      "Ġmary": 2352,
      "Ġtrave": 2353,
      "Ġpage": 2354,
      "Ġhelen": 2355,
      "Ġbeat": 2356,
      "Ġtrack": 2357,
      "Ġwild": 2358,
      "Ġburn": 2359,
      "work": 2360,
      "ott": 2361,
      "Ġwhoo": 2362,
      "ances": 2363,
      "Ġnoise": 2364,
      "Ġenjoy": 2365,
      "Ġwritten": 2366,
      "Ġservice": 2367,
      "ology": 2368,
      "Ġblock": 2369,
      "Ġshout": 2370,
      "Ġsupposed": 2371,
      "Ġexcept": 2372,
      "aint": 2373,
      "Ġwat": 2374,
      "Ġprotect": 2375,
      "Ġkit": 2376,
      "Ġfeeling": 2377,
      "Ġprogram": 2378,
      "Ġbroke": 2379,
      "Ġbuilt": 2380,
      "Ġtot": 2381,
      "ole": 2382,
      "ned": 2383,
      "Ġanybody": 2384,
      "ops": 2385,
      "Ġesc": 2386,
      "Ġcand": 2387,
      "Ġquickly": 2388,
      "ene": 2389,
      "Ġbread": 2390,
      "Ġtor": 2391,
      "Ġhappens": 2392,
      "Ġconcer": 2393,
      "Ġsugg": 2394,
      "omin": 2395,
      "Ġusing": 2396,
      "Ġvillage": 2397,
      "Ġver": 2398,
      "Ġsuggest": 2399,
      "Ġmun": 2400,
      "rible": 2401,
      "ĠThey": 2402,
      "gar": 2403,
      "iny": 2404,
      "Ġlat": 2405,
      "Ġlou": 2406,
      "Ġchief": 2407,
      "Ġadded": 2408,
      "Ġappro": 2409,
      "Ġaustral": 2410,
      "Ġtrust": 2411,
      "Ġfarm": 2412,
      "Ġfinish": 2413,
      "Ġpink": 2414,
      "Ġbreakfast": 2415,
      "Ġef": 2416,
      "Ġfill": 2417,
      "Ġden": 2418,
      "Ġexclaimed": 2419,
      "Ġbull": 2420,
      "Ġbought": 2421,
      "Ġvi": 2422,
      "Ġsell": 2423,
      "Ġmeant": 2424,
      "Ġ30": 2425,
      "Ġvisit": 2426,
      "Ġmass": 2427,
      "Ġ192": 2428,
      "Ġmiles": 2429,
      "Ġmembers": 2430,
      "Ġhospital": 2431,
      "Ġfat": 2432,
      "Ġinform": 2433,
      "Ġhig": 2434,
      "Ġcho": 2435,
      "Ġwarm": 2436,
      "Ġfear": 2437,
      "uced": 2438,
      "Ġcaught": 2439,
      "ently": 2440,
      "Ġlab": 2441,
      "Ġstuck": 2442,
      "Ġnet": 2443,
      "go": 2444,
      "iger": 2445,
      "Ġthou": 2446,
      "Ġstood": 2447,
      "ula": 2448,
      "Ġabove": 2449,
      "Ġsomewhere": 2450,
      "Ġcheese": 2451,
      "Ġweeks": 2452,
      "Ġtruth": 2453,
      "Ġevening": 2454,
      "cially": 2455,
      "Ġprison": 2456,
      "Ġdin": 2457,
      "Ġspace": 2458,
      "ising": 2459,
      "Ġrob": 2460,
      "die": 2461,
      "Ġprop": 2462,
      "lect": 2463,
      "Ġhasn": 2464,
      "Ġvol": 2465,
      "Ġham": 2466,
      "ndon": 2467,
      "Ġbang": 2468,
      "Ġworth": 2469,
      "Ġexample": 2470,
      "Ġfollowing": 2471,
      "Ġarms": 2472,
      "chen": 2473,
      "Ġbottom": 2474,
      "Ġsounds": 2475,
      "Ġincluding": 2476,
      "Ġcard": 2477,
      "Ġstrange": 2478,
      "Ġvan": 2479,
      "Ġtrees": 2480,
      "omb": 2481,
      "Ġwrote": 2482,
      "que": 2483,
      "oint": 2484,
      "Ġlanguage": 2485,
      "Ġrub": 2486,
      "Ġcolle": 2487,
      "aur": 2488,
      "Ġange": 2489,
      "Ġparticular": 2490,
      "Ġsex": 2491,
      "Ġconn": 2492,
      "Ġreturned": 2493,
      "Ġruss": 2494,
      "Ġpassed": 2495,
      "Ġrepres": 2496,
      "Ġye": 2497,
      "Ġtast": 2498,
      "Ġur": 2499,
      "aff": 2500,
      "Ġthirty": 2501,
      "Ġpack": 2502,
      "Ġpictures": 2503,
      "Ġcover": 2504,
      "Ġii": 2505,
      "Ġstu": 2506,
      "Ġtakes": 2507,
      "Ġpoo": 2508,
      "cher": 2509,
      "Ġhun": 2510,
      "rod": 2511,
      "Ġpeter": 2512,
      "Ġbright": 2513,
      "fer": 2514,
      "Ġstanding": 2515,
      "uel": 2516,
      "Ġshit": 2517,
      "ron": 2518,
      "Ġrequ": 2519,
      "Ġdecided": 2520,
      "Ġbreat": 2521,
      "ston": 2522,
      "Ġcommune": 2523,
      "amb": 2524,
      "idence": 2525,
      "Ġcomplete": 2526,
      "Ġchicken": 2527,
      "Ġmach": 2528,
      "Ġled": 2529,
      "ored": 2530,
      "Ġwash": 2531,
      "Ġpopulation": 2532,
      "hael": 2533,
      "emy": 2534,
      "Ġmal": 2535,
      "bur": 2536,
      "Ġelephan": 2537,
      "Ġforward": 2538,
      "Ġauth": 2539,
      "Ġdesc": 2540,
      "Ġarri": 2541,
      "Ġfilm": 2542,
      "icip": 2543,
      "Ġpract": 2544,
      "Ġet": 2545,
      "Ġdig": 2546,
      "Ġlock": 2547,
      "Ġeffect": 2548,
      "Ġchoc": 2549,
      "Ġwhom": 2550,
      "Ġheavy": 2551,
      "ician": 2552,
      "Ġanymore": 2553,
      "Ġcirc": 2554,
      "Ġdavid": 2555,
      "Ġcoffe": 2556,
      "Ġlondon": 2557,
      "Ġindian": 2558,
      "Ġfifty": 2559,
      "Ġstat": 2560,
      "19": 2561,
      "Ġwhis": 2562,
      "Ġquar": 2563,
      "Ġfucking": 2564,
      "Ġmoon": 2565,
      "Ġtail": 2566,
      "Ġgeorge": 2567,
      "Ġgiving": 2568,
      "Ġhurry": 2569,
      "Ġought": 2570,
      "ement": 2571,
      "Ġbelong": 2572,
      "mon": 2573,
      "Ġapple": 2574,
      "Ġell": 2575,
      "Ġdeb": 2576,
      "dom": 2577,
      "Ġlegs": 2578,
      "Ġminister": 2579,
      "Ġaftern": 2580,
      "ka": 2581,
      "oul": 2582,
      "Ġbon": 2583,
      "Ġlunch": 2584,
      "com": 2585,
      "Ġcourt": 2586,
      "Ġlevel": 2587,
      "Ġsight": 2588,
      "ummy": 2589,
      "Ġvie": 2590,
      "Ġobject": 2591,
      "Ġcurrent": 2592,
      "Ġkitt": 2593,
      "ĠTh": 2594,
      "Ġ25": 2595,
      "ef": 2596,
      "Ġdisapp": 2597,
      "Ġplaces": 2598,
      "Ġvide": 2599,
      "ature": 2600,
      "Ġinternational": 2601,
      "Ġstopped": 2602,
      "Ġcompet": 2603,
      "Ġdesign": 2604,
      "sc": 2605,
      "ror": 2606,
      "Ġnort": 2607,
      "Ġnone": 2608,
      "Ġdry": 2609,
      "Ġdoubt": 2610,
      "Ġcoffee": 2611,
      "Ġimag": 2612,
      "Ġpieces": 2613,
      "Ġcentury": 2614,
      "Ġcarl": 2615,
      "Ġreached": 2616,
      "Ġmix": 2617,
      "Ġspir": 2618,
      "Ġbunny": 2619,
      "ky": 2620,
      "Ġnorm": 2621,
      "Ġagre": 2622,
      "Ġparents": 2623,
      "Ġleague": 2624,
      "Ġep": 2625,
      "Ġmod": 2626,
      "Ġrose": 2627,
      "Ġafternoon": 2628,
      "Ġmel": 2629,
      "Ġweren": 2630,
      "Ġhealth": 2631,
      "Ġrul": 2632,
      "Ġdefe": 2633,
      "rit": 2634,
      "Ġneck": 2635,
      "Ġclos": 2636,
      "Ġaccord": 2637,
      "Ġric": 2638,
      "nday": 2639,
      "Ġflowers": 2640,
      "Ġclimb": 2641,
      "Ġopened": 2642,
      "Ġcollege": 2643,
      "Ġrace": 2644,
      "ipe": 2645,
      "Ġcas": 2646,
      "Ġcharacter": 2647,
      "lie": 2648,
      "Ġpopular": 2649,
      "board": 2650,
      "Ġlikes": 2651,
      "Ġauthor": 2652,
      "Ġview": 2653,
      "Ġtit": 2654,
      "Ġ2018": 2655,
      "Ġuhoh": 2656,
      "Ġsmell": 2657,
      "Ġchampions": 2658,
      "Ġlim": 2659,
      "Ġneigh": 2660,
      "Ġcab": 2661,
      "Ġspot": 2662,
      "ura": 2663,
      "Ġdan": 2664,
      "gu": 2665,
      "Ġsense": 2666,
      "Ġposition": 2667,
      "ala": 2668,
      "Ġhan": 2669,
      "Ġteeth": 2670,
      "Ġrid": 2671,
      "Ġfail": 2672,
      "Ġwet": 2673,
      "Ġjer": 2674,
      "Ġcars": 2675,
      "Ġbased": 2676,
      "Ġcell": 2677,
      "Ġhu": 2678,
      "Ġpriv": 2679,
      "you": 2680,
      "Ġcanad": 2681,
      "Ġcapital": 2682,
      "Ġsen": 2683,
      "Ġtype": 2684,
      "gie": 2685,
      "Ġwal": 2686,
      "Ġfle": 2687,
      "Ġhole": 2688,
      "hel": 2689,
      "za": 2690,
      "Ġtour": 2691,
      "Ġpaul": 2692,
      "Ġcollect": 2693,
      "Ġresult": 2694,
      "Ġpounds": 2695,
      "Ġaward": 2696,
      "Ġmam": 2697,
      "ified": 2698,
      "Ġdifficult": 2699,
      "Ġconsider": 2700,
      "Ġdance": 2701,
      "Ġbusy": 2702,
      "ny": 2703,
      "Ġsna": 2704,
      "Ġqueen": 2705,
      "old": 2706,
      "Ġgrandma": 2707,
      "lin": 2708,
      "Ġeduc": 2709,
      "Ġrepresent": 2710,
      "view": 2711,
      "Ġvers": 2712,
      "Ġros": 2713,
      "Ġhast": 2714,
      "Ġterm": 2715,
      "Ġforce": 2716,
      "Ġleaving": 2717,
      "Ġaut": 2718,
      "Ġcontrol": 2719,
      "itted": 2720,
      "Ġsar": 2721,
      "Ġcreated": 2722,
      "mie": 2723,
      "Ġtrad": 2724,
      "Ġdir": 2725,
      "Ġcrazy": 2726,
      "Ġwelcome": 2727,
      "Ġtwel": 2728,
      "estern": 2729,
      "Ġlose": 2730,
      "ishing": 2731,
      "Ġwatching": 2732,
      "Ġsport": 2733,
      "pecially": 2734,
      "Ġkick": 2735,
      "Ġfeed": 2736,
      "Ġmunicip": 2737,
      "Ġwed": 2738,
      "Ġroman": 2739,
      "Ġwashing": 2740,
      "Ġkitchen": 2741,
      "Ġcream": 2742,
      "Ġdogg": 2743,
      "Ġ2021": 2744,
      "Ġtape": 2745,
      "Ġseeing": 2746,
      "Ġanimal": 2747,
      "iers": 2748,
      "Ġboo": 2749,
      "Ġrev": 2750,
      "Ġord": 2751,
      "Ġamerica": 2752,
      "Ġbridge": 2753,
      "Ġtall": 2754,
      "Ġsuddenly": 2755,
      "Ġrac": 2756,
      "ceed": 2757,
      "ancy": 2758,
      "ket": 2759,
      "anny": 2760,
      "Ġmc": 2761,
      "Ġate": 2762,
      "isc": 2763,
      "ya": 2764,
      "Ġcomput": 2765,
      "pes": 2766,
      "Ġjour": 2767,
      "Ġstore": 2768,
      "Ġstudy": 2769,
      "Ġdrop": 2770,
      "Ġfut": 2771,
      "Ġsuff": 2772,
      "Ġsout": 2773,
      "Ġspend": 2774,
      "Ġlos": 2775,
      "phone": 2776,
      "Ġlocal": 2777,
      "Ġinformation": 2778,
      "Ġreceived": 2779,
      "Ġobs": 2780,
      "Ġwhoa": 2781,
      "yal": 2782,
      "time": 2783,
      "Ġmoving": 2784,
      "Ġsky": 2785,
      "Ġuk": 2786,
      "olate": 2787,
      "Ġconnect": 2788,
      "Ġmem": 2789,
      "Ġneighb": 2790,
      "ray": 2791,
      "Ġspan": 2792,
      "Ġteddy": 2793,
      "Ġtv": 2794,
      "Ġpolic": 2795,
      "Ġcong": 2796,
      "Ġstone": 2797,
      "Ġallowed": 2798,
      "Ġtowards": 2799,
      "ino": 2800,
      "Ġmeeting": 2801,
      "Ġshouldn": 2802,
      "well": 2803,
      "Ġinn": 2804,
      "Ġhate": 2805,
      "Ġ21": 2806,
      "chan": 2807,
      "Ġmir": 2808,
      "roy": 2809,
      "Ġharry": 2810,
      "Ġearl": 2811,
      "Ġcontinued": 2812,
      "Ġmichael": 2813,
      "Ġbeginning": 2814,
      "Ġperio": 2815,
      "Ġfavorite": 2816,
      "Ġespecially": 2817,
      "Ġreach": 2818,
      "Ġrecogn": 2819,
      "olute": 2820,
      "Ġafr": 2821,
      "Ġfamous": 2822,
      "Ġdu": 2823,
      "Ġfurther": 2824,
      "Ġdanc": 2825,
      "Ġannoun": 2826,
      "Ġcy": 2827,
      "Ġtech": 2828,
      "Ġwilliam": 2829,
      "Ġjames": 2830,
      "Ġnic": 2831,
      "Ġstars": 2832,
      "fr": 2833,
      "Ġmatch": 2834,
      "net": 2835,
      "Ġwalking": 2836,
      "Ġthee": 2837,
      "Ġlift": 2838,
      "ilar": 2839,
      "Ġfinally": 2840,
      "pend": 2841,
      "Ġ24": 2842,
      "Ġkey": 2843,
      "Ġcro": 2844,
      "nes": 2845,
      "Ġhide": 2846,
      "Ġdor": 2847,
      "Ġperfor": 2848,
      "Ġinteresting": 2849,
      "Ġeggs": 2850,
      "Ġaccording": 2851,
      "Ġlake": 2852,
      "acy": 2853,
      "Ġphot": 2854,
      "Ġletters": 2855,
      "Ġbottle": 2856,
      "Ġfem": 2857,
      "Ġgro": 2858,
      "itions": 2859,
      "Ġgrass": 2860,
      "ires": 2861,
      "Ġself": 2862,
      "Ġsheep": 2863,
      "Ġkitty": 2864,
      "Ġspl": 2865,
      "Ġban": 2866,
      "Ġofficer": 2867,
      "Ġwonderful": 2868,
      "Ġhes": 2869,
      "Ġnames": 2870,
      "ushed": 2871,
      "Ġparts": 2872,
      "Ġaccept": 2873,
      "Ġpray": 2874,
      "Ġjwww": 2875,
      "agon": 2876,
      "iled": 2877,
      "Ġfigure": 2878,
      "Ġ2019": 2879,
      "Ġexpress": 2880,
      "Ġvideo": 2881,
      "Ġwriting": 2882,
      "Ġcrying": 2883,
      "het": 2884,
      "ipped": 2885,
      "Ġciv": 2886,
      "Ġgermany": 2887,
      "vin": 2888,
      "Ġhorses": 2889,
      "Ġfollowed": 2890,
      "Ġ100": 2891,
      "aves": 2892,
      "Ġmonkey": 2893,
      "Ġbase": 2894,
      "olved": 2895,
      "Ġscared": 2896,
      "Ġcomfort": 2897,
      "Ġsan": 2898,
      "Ġbigger": 2899,
      "Ġbattle": 2900,
      "resh": 2901,
      "Ġcrow": 2902,
      "ination": 2903,
      "Ġfool": 2904,
      "Ġalive": 2905,
      "Ġpeace": 2906,
      "Ġremark": 2907,
      "uation": 2908,
      "tered": 2909,
      "itive": 2910,
      ",'": 2911,
      "Ġaccount": 2912,
      "Ġclever": 2913,
      "Ġrespect": 2914,
      "Ġwinter": 2915,
      "por": 2916,
      "Ġze": 2917,
      "ĠThere": 2918,
      "bers": 2919,
      "Ġrabbit": 2920,
      "Ġrich": 2921,
      "Ġiss": 2922,
      "clock": 2923,
      "enny": 2924,
      "Ġlaughing": 2925,
      "ida": 2926,
      "ille": 2927,
      "Ġtwelve": 2928,
      "Ġfuture": 2929,
      "ift": 2930,
      "rian": 2931,
      "Ġtoy": 2932,
      "Ġbirds": 2933,
      "ec": 2934,
      "ius": 2935,
      "oose": 2936,
      "Ġhous": 2937,
      "Ġplant": 2938,
      "Ġproblems": 2939,
      "Ġrail": 2940,
      "Ġfinger": 2941,
      "Ġplate": 2942,
      "yle": 2943,
      "Ġinvest": 2944,
      "Ġviol": 2945,
      "ugg": 2946,
      "iling": 2947,
      "Ġ2017": 2948,
      "ission": 2949,
      "Ġdirty": 2950,
      "Ġbilly": 2951,
      "riage": 2952,
      "Ġspecies": 2953,
      "Ġut": 2954,
      "ume": 2955,
      "ids": 2956,
      "Ġmention": 2957,
      "Ġelephant": 2958,
      "Ġears": 2959,
      "Ġdue": 2960,
      "ript": 2961,
      "ĠShe": 2962,
      "ning": 2963,
      "Ġliked": 2964,
      "anor": 2965,
      "Ġ23": 2966,
      "Ġentire": 2967,
      "dd": 2968,
      "how": 2969,
      "Ġluc": 2970,
      "Ġkingdom": 2971,
      "Ġmoder": 2972,
      "Ġlu": 2973,
      "viously": 2974,
      "Ġchocolate": 2975,
      "uts": 2976,
      "Ġjoin": 2977,
      "Ġnar": 2978,
      "Ġstup": 2979,
      "Ġunless": 2980,
      "Ġplays": 2981,
      "Ġbal": 2982,
      "lt": 2983,
      "Ġlion": 2984,
      "Ġcountries": 2985,
      "Ġ22": 2986,
      "Ġchin": 2987,
      "Ġitself": 2988,
      "iced": 2989,
      "Ġchi": 2990,
      "soci": 2991,
      "Ġcarried": 2992,
      "Ġscr": 2993,
      "ax": 2994,
      "Ġperiod": 2995,
      "Ġfol": 2996,
      "Ġrap": 2997,
      "Ġsocial": 2998,
      "Ġtechn": 2999,
      "Ġpan": 3000,
      "ival": 3001,
      "Ġserious": 3002,
      "Ġrepubl": 3003,
      "Ġwide": 3004,
      "Ġpock": 3005,
      "icks": 3006,
      "Ġtear": 3007,
      "Ġthy": 3008,
      "Ġcouncil": 3009,
      "Ġcomb": 3010,
      "Ġdropped": 3011,
      "Ġfed": 3012,
      "ĠDo": 3013,
      "Ġincre": 3014,
      "Ġrese": 3015,
      "Ġfaith": 3016,
      "Ġpaid": 3017,
      "Ġbroad": 3018,
      "Ġspoke": 3019,
      "Ġsuit": 3020,
      "Ġcharge": 3021,
      "Ġnaught": 3022,
      "Ġcivil": 3023,
      "Ġphys": 3024,
      "Ġappeared": 3025,
      "ĠNow": 3026,
      "Ġholding": 3027,
      "Ġinfl": 3028,
      "Ġhost": 3029,
      "name": 3030,
      "Ġguard": 3031,
      "Ġjes": 3032,
      "Ġsevent": 3033,
      "ply": 3034,
      "Ġshare": 3035,
      "Ġdogs": 3036,
      "Ġpromise": 3037,
      "Ġspring": 3038,
      "Ġsleeping": 3039,
      "Ġmas": 3040,
      "wood": 3041,
      "Ġabsolute": 3042,
      "Ġbasket": 3043,
      "Ġcult": 3044,
      "Ġforty": 3045,
      "Ġjul": 3046,
      "itary": 3047,
      "Ġsant": 3048,
      "Ġscar": 3049,
      "Ġcant": 3050,
      "lymp": 3051,
      "iforn": 3052,
      "dered": 3053,
      "Ġnecess": 3054,
      "Ġquestions": 3055,
      "ises": 3056,
      "Ġprovince": 3057,
      "uk": 3058,
      "eral": 3059,
      "Ġaccident": 3060,
      "Ġsoci": 3061,
      "Ġwheel": 3062,
      "Ġinterested": 3063,
      "ird": 3064,
      "Ġchuck": 3065,
      "Ġjew": 3066,
      "Ġreading": 3067,
      "Ġcorner": 3068,
      "Ġsquare": 3069,
      "Ġneeded": 3070,
      "Ġpun": 3071,
      "Ġassoci": 3072,
      "Ġcaliforn": 3073,
      "Ġoops": 3074,
      "Ġtrip": 3075,
      "Ġunion": 3076,
      "Ġradio": 3077,
      "Ġstupid": 3078,
      "ument": 3079,
      "Ġeff": 3080,
      "Ġmountain": 3081,
      "Ġolymp": 3082,
      "Ġforest": 3083,
      "Ġmac": 3084,
      "Ġwake": 3085,
      "Ġinclude": 3086,
      "cell": 3087,
      "Ġvir": 3088,
      "Ġspeed": 3089,
      "uted": 3090,
      "Ġhenry": 3091,
      "Ġexam": 3092,
      "Ġpolitician": 3093,
      "hin": 3094,
      "Ġloved": 3095,
      "Ġsimilar": 3096,
      "hard": 3097,
      "conom": 3098,
      "Ġbi": 3099,
      "ades": 3100,
      "Ġamy": 3101,
      "Ġmedic": 3102,
      "Ġ2022": 3103,
      "Ġol": 3104,
      "field": 3105,
      "Ġbite": 3106,
      "Ġfer": 3107,
      "Ġstage": 3108,
      "Ġrelig": 3109,
      "Ġtiger": 3110,
      "Ġwol": 3111,
      "omes": 3112,
      "str": 3113,
      "Ġ2010": 3114,
      "Ġcalifornia": 3115,
      "Ġaff": 3116,
      "Ġlaug": 3117,
      "Ġcentral": 3118,
      "Ġindia": 3119,
      "Ġmouse": 3120,
      "iel": 3121,
      "Ġmov": 3122,
      "Ġsmile": 3123,
      "Ġterrible": 3124,
      "Ġive": 3125,
      "Ġcontain": 3126,
      "aper": 3127,
      "Ġalex": 3128,
      "Ġsubject": 3129,
      "olution": 3130,
      "cks": 3131,
      "ergy": 3132,
      "Ġextra": 3133,
      "Ġcamer": 3134,
      "Ġdefin": 3135,
      "line": 3136,
      "asant": 3137,
      "Ġcens": 3138,
      "Ġmachine": 3139,
      "Ġaud": 3140,
      "Ġlaughed": 3141,
      "Ġpuzz": 3142,
      "Ġdick": 3143,
      "Ġlying": 3144,
      "ĠMr": 3145,
      "Ġcrack": 3146,
      "Ġsmart": 3147,
      "Ġsepar": 3148,
      "Ġscream": 3149,
      "Ġcapt": 3150,
      "Ġeconom": 3151,
      "Ġasking": 3152,
      "Ġattention": 3153,
      "Ġjapanese": 3154,
      "Ġprep": 3155,
      "Ġpupp": 3156,
      "Ġleader": 3157,
      "Ġfresh": 3158,
      "ĠIs": 3159,
      "Ġstraw": 3160,
      "Ġnatural": 3161,
      "uction": 3162,
      "Ġwha": 3163,
      "Ġserved": 3164,
      "Ġpil": 3165,
      "Ġmeat": 3166,
      "wise": 3167,
      "Ġcust": 3168,
      "Ġscient": 3169,
      "hood": 3170,
      "Ġprocess": 3171,
      "Ġwestern": 3172,
      "Ġgrew": 3173,
      "Ġeleanor": 3174,
      "Ġmovies": 3175,
      "zer": 3176,
      "Ġsle": 3177,
      "Ġwalked": 3178,
      "Ġdidnt": 3179,
      "Ġjoy": 3180,
      "Ġprince": 3181,
      "Ġamount": 3182,
      "Ġloud": 3183,
      "Ġspoon": 3184,
      "Ġfinal": 3185,
      "Ġrobert": 3186,
      "Ġbuck": 3187,
      "Ġways": 3188,
      "don": 3189,
      ".,": 3190,
      "Ġclosed": 3191,
      "Ġfamil": 3192,
      "Ġbetty": 3193,
      "Ġolder": 3194,
      "Ġtal": 3195,
      "Ġdirector": 3196,
      "Ġupstairs": 3197,
      "Ġbobby": 3198,
      "Ġdestroy": 3199,
      "Ġnaughty": 3200,
      "Ġcrit": 3201,
      "aven": 3202,
      "rel": 3203,
      "iment": 3204,
      "off": 3205,
      "Ġcenter": 3206,
      "Ġworse": 3207,
      "Ġfred": 3208,
      "Ġsurprise": 3209,
      "empt": 3210,
      "Ġhelped": 3211,
      "Ġ26": 3212,
      "ils": 3213,
      "Ġque": 3214,
      "Ġdamn": 3215,
      "Ġcoast": 3216,
      "Ġarch": 3217,
      "Ġtax": 3218,
      "Ġmax": 3219,
      "isy": 3220,
      "like": 3221,
      "Ġ2011": 3222,
      "Ġbeha": 3223,
      "Ġhonest": 3224,
      "Ġrole": 3225,
      "Ġcous": 3226,
      "Ġlikely": 3227,
      "Ġasleep": 3228,
      "Ġstories": 3229,
      "Ġris": 3230,
      "Ġbless": 3231,
      "bed": 3232,
      "Ġcomputer": 3233,
      "Ġgoin": 3234,
      "set": 3235,
      "anda": 3236,
      "Ġpersonal": 3237,
      "Ġcensus": 3238,
      "hr": 3239,
      "Ġdecla": 3240,
      "va": 3241,
      "isted": 3242,
      "Ġshows": 3243,
      "ites": 3244,
      "Ġgoodbye": 3245,
      "medi": 3246,
      "Ġder": 3247,
      "Ġsandw": 3248,
      "Ġlucky": 3249,
      "Ġbabies": 3250,
      "Ġnap": 3251,
      "Ġflat": 3252,
      "ĠIf": 3253,
      "Ġamaz": 3254,
      "astic": 3255,
      "rect": 3256,
      "Ġdelight": 3257,
      "Ġrow": 3258,
      "ization": 3259,
      "Ġneg": 3260,
      "cious": 3261,
      "Ġsize": 3262,
      "Ġchap": 3263,
      "Ġdriving": 3264,
      "Ġleaves": 3265,
      "Ġanne": 3266,
      "Ġ27": 3267,
      "Ġspeaking": 3268,
      "Ġlargest": 3269,
      "Ġshowed": 3270,
      "Ġaction": 3271,
      "Ġrat": 3272,
      "Ġtap": 3273,
      "Ġrepe": 3274,
      "Ġpolitical": 3275,
      "Ġmarket": 3276,
      "Ġfingers": 3277,
      "Ġarr": 3278,
      "Ġcoat": 3279,
      "ency": 3280,
      "Ġcalling": 3281,
      "Ġpurp": 3282,
      "Ġdollars": 3283,
      "Ġ2016": 3284,
      "what": 3285,
      "Ġgall": 3286,
      "Ġgoodness": 3287,
      "epend": 3288,
      "Ġprofessional": 3289,
      "ration": 3290,
      "Ġtiny": 3291,
      "20": 3292,
      "Ġcircle": 3293,
      "Ġdeclared": 3294,
      "oop": 3295,
      "kin": 3296,
      "Ġspread": 3297,
      "Ġmissing": 3298,
      "Ġjoined": 3299,
      "Ġactor": 3300,
      "Ġclock": 3301,
      "Ġindust": 3302,
      "Ġmodern": 3303,
      "do": 3304,
      "Ġyo": 3305,
      "Ġpin": 3306,
      "Ġpossib": 3307,
      "Ġfighting": 3308,
      "Ġtherefore": 3309,
      "Ġspirit": 3310,
      "Ġexplain": 3311,
      "Ġsinging": 3312,
      "Ġaustralia": 3313,
      "ai": 3314,
      "Ġrespons": 3315,
      "Ġhappening": 3316,
      "Ġmunicipality": 3317,
      "Ġactiv": 3318,
      "erve": 3319,
      "Ġhiding": 3320,
      "Ġhardly": 3321,
      "Ġ28": 3322,
      "Ġdolly": 3323,
      "Ġload": 3324,
      "Ġadam": 3325,
      "nam": 3326,
      "Ġsongs": 3327,
      "Ġthus": 3328,
      "eas": 3329,
      "Ġspent": 3330,
      "Ġmanage": 3331,
      "Ġtalked": 3332,
      "Ġbelow": 3333,
      "val": 3334,
      "Ġcaused": 3335,
      "urday": 3336,
      "Ġdistance": 3337,
      "Ġnumbers": 3338,
      "light": 3339,
      "ode": 3340,
      "Ġanx": 3341,
      "Ġhaha": 3342,
      "ĠK": 3343,
      "Ġcart": 3344,
      "Ġamb": 3345,
      "Ġneedta": 3346,
      "Ġsimple": 3347,
      "Ġfright": 3348,
      "Ġpicked": 3349,
      "Ġbeach": 3350,
      "Ġsituation": 3351,
      "ĠMhm": 3352,
      "Ġdrug": 3353,
      "Ġnurs": 3354,
      "Ġhug": 3355,
      "pa": 3356,
      "Ġstarting": 3357,
      "ti": 3358,
      "Ġdepend": 3359,
      "ounded": 3360,
      "aker": 3361,
      "Ġmilitary": 3362,
      "order": 3363,
      "Ġlower": 3364,
      "Ġdirected": 3365,
      "Ġox": 3366,
      "Ġtoward": 3367,
      "Ġwit": 3368,
      "Ġ191": 3369,
      "cip": 3370,
      "Ġpaint": 3371,
      "Ġturning": 3372,
      "Ġheaven": 3373,
      "Ġtaste": 3374,
      "Ġremain": 3375,
      "orm": 3376,
      "Ġinf": 3377,
      "Ġbesides": 3378,
      "Ġapart": 3379,
      "Ġproject": 3380,
      "Ġroyal": 3381,
      "Ġcarol": 3382,
      "Ġshr": 3383,
      "Ġnon": 3384,
      "Ġble": 3385,
      "reek": 3386,
      "Ġiron": 3387,
      "Ġspanish": 3388,
      "Ġgrad": 3389,
      "Ġlem": 3390,
      "Ġbay": 3391,
      "inary": 3392,
      "Ġlearned": 3393,
      "Ġpocket": 3394,
      "ĠOkay": 3395,
      "edy": 3396,
      "ico": 3397,
      "Ġanywhere": 3398,
      "Ġdriver": 3399,
      "Ġladies": 3400,
      "Ġdifference": 3401,
      "Ġdinos": 3402,
      "Ġenergy": 3403,
      "Ġmeaning": 3404,
      "Ġspell": 3405,
      "Ġabsolutely": 3406,
      "Ġthinks": 3407,
      "Ġnorthern": 3408,
      "house": 3409,
      "Ġhero": 3410,
      "Ġimmedi": 3411,
      "uses": 3412,
      "Ġdra": 3413,
      "iant": 3414,
      "Ġplann": 3415,
      "Ġsurv": 3416,
      "Ġagreed": 3417,
      "Ġacad": 3418,
      "Ġeducation": 3419,
      "ography": 3420,
      "ashed": 3421,
      "ength": 3422,
      "Ġintrod": 3423,
      "Ġparis": 3424,
      "Ġangry": 3425,
      "Ġpill": 3426,
      "Ġnote": 3427,
      "ims": 3428,
      "Ġmissed": 3429,
      "Ġoriginal": 3430,
      "Ġ2014": 3431,
      "Ġgives": 3432,
      "Ġchem": 3433,
      "Ġhonor": 3434,
      "Ġtemper": 3435,
      "Ġholiday": 3436,
      "Ġdate": 3437,
      "Ġarg": 3438,
      "Ġsearch": 3439,
      "ground": 3440,
      "Ġfox": 3441,
      "Ġdangerous": 3442,
      "Ġna": 3443,
      "Ġwearing": 3444,
      "Ġflying": 3445,
      "Ġindepend": 3446,
      "Ġbomb": 3447,
      "Ġtar": 3448,
      "sidered": 3449,
      "Ġconsidered": 3450,
      "loy": 3451,
      "Ġlee": 3452,
      "Ġmater": 3453,
      "Ġbey": 3454,
      "itor": 3455,
      "Ġpurple": 3456,
      "Ġpit": 3457,
      "Ġray": 3458,
      "Ġmex": 3459,
      "Ġwhoops": 3460,
      "Ġregular": 3461,
      "Ġprivate": 3462,
      "cul": 3463,
      "isf": 3464,
      "Ġnature": 3465,
      "itely": 3466,
      "Ġsue": 3467,
      "cient": 3468,
      "no": 3469,
      "Ġtight": 3470,
      "Ġtower": 3471,
      "Ġchristian": 3472,
      "Ġslowly": 3473,
      "iar": 3474,
      "reme": 3475,
      "Ġrelation": 3476,
      "hold": 3477,
      "Ġcovered": 3478,
      "Ġoce": 3479,
      "Ġsugar": 3480,
      "Ġshoe": 3481,
      "Ġnick": 3482,
      "jo": 3483,
      "Ġcere": 3484,
      "Ġweather": 3485,
      "Ġ2013": 3486,
      "ially": 3487,
      "Ġ2012": 3488,
      "Ġdemand": 3489,
      "Ġtotal": 3490,
      "Ġshirt": 3491,
      "nel": 3492,
      "Ġsac": 3493,
      "Ġaddress": 3494,
      "ories": 3495,
      "Ġbor": 3496,
      "ano": 3497,
      "Ġwindows": 3498,
      "Ġgovernor": 3499,
      "Ġsens": 3500,
      "ference": 3501,
      "Ġsoldiers": 3502,
      "Ġgate": 3503,
      "ests": 3504,
      "Ġmagic": 3505,
      "Ġ29": 3506,
      "Ġblank": 3507,
      "af": 3508,
      "icious": 3509,
      "Ġinflu": 3510,
      "gin": 3511,
      "ĠSt": 3512,
      "Ġdust": 3513,
      "Ġund": 3514,
      "Ġproud": 3515,
      "atic": 3516,
      "Ġflower": 3517,
      "ago": 3518,
      "Ġfault": 3519,
      "Ġarrest": 3520,
      "Ġsigh": 3521,
      "oles": 3522,
      "Ġprim": 3523,
      "Ġ2015": 3524,
      "Ġvarious": 3525,
      "Ġcarr": 3526,
      "gl": 3527,
      "Ġcookie": 3528,
      "Ġdemo": 3529,
      "Ġsnake": 3530,
      "Ġweap": 3531,
      "Ġmostly": 3532,
      "Ġsilver": 3533,
      "ville": 3534,
      "hal": 3535,
      "Ġcharles": 3536,
      "Ġoccas": 3537,
      "inct": 3538,
      "Ġinstr": 3539,
      "Ġimagine": 3540,
      "Ġdressed": 3541,
      "Ġboss": 3542,
      "Ġattend": 3543,
      "Ġnur": 3544,
      "Ġstren": 3545,
      "iest": 3546,
      "hic": 3547,
      "Ġ2008": 3548,
      "Ġfruit": 3549,
      "Ġjane": 3550,
      "Ġsarah": 3551,
      "Ġskin": 3552,
      "gs": 3553,
      "kn": 3554,
      "Ġbound": 3555,
      "erved": 3556,
      "ails": 3557,
      "Ġjesus": 3558,
      "Ġstock": 3559,
      "Ġagree": 3560,
      "Ġrough": 3561,
      "Ġplane": 3562,
      "Ġmotor": 3563,
      "Ġemploy": 3564,
      "Ġsociety": 3565,
      "ita": 3566,
      "oe": 3567,
      "Ġinj": 3568,
      "Ġtheres": 3569,
      "Ġspr": 3570,
      "bre": 3571,
      "ns": 3572,
      "asons": 3573,
      "mit": 3574,
      "Ġaccom": 3575,
      "Ġannounced": 3576,
      "Ġcath": 3577,
      "ivid": 3578,
      "Ġcheer": 3579,
      "ining": 3580,
      "ensive": 3581,
      "rupt": 3582,
      "elly": 3583,
      "pping": 3584,
      "ees": 3585,
      "yer": 3586,
      "Ġhouses": 3587,
      "ses": 3588,
      "Ġpath": 3589,
      "Ġ50": 3590,
      "Ġforth": 3591,
      "Ġcompletely": 3592,
      "Ġsimply": 3593,
      "Ġoo": 3594,
      "vi": 3595,
      "Ġmoo": 3596,
      "Ġfac": 3597,
      "hem": 3598,
      "Ġbeyond": 3599,
      "Ġparl": 3600,
      "uten": 3601,
      "Ġfeat": 3602,
      "Ġjam": 3603,
      "Ġsharp": 3604,
      "Ġneither": 3605,
      "Ġarab": 3606,
      "Ġpleasure": 3607,
      "Ġsteven": 3608,
      "Ġsoul": 3609,
      "eg": 3610,
      "antic": 3611,
      "Ġmicro": 3612,
      "Ġdiscuss": 3613,
      "Ġprincess": 3614,
      "Ġepis": 3615,
      "Ġswimming": 3616,
      "Ġshape": 3617,
      "Ġcolors": 3618,
      "nded": 3619,
      "Ġthreat": 3620,
      "Ġsunday": 3621,
      "Ġprofessor": 3622,
      "Ġended": 3623,
      "heart": 3624,
      "Ġbeep": 3625,
      "Ġident": 3626,
      "Ġenc": 3627,
      "Ġcalm": 3628,
      "Ġquarter": 3629,
      "oming": 3630,
      "oted": 3631,
      "Ġimm": 3632,
      "Ġ2007": 3633,
      "Ġlines": 3634,
      "Ġbegin": 3635,
      "Ġhotel": 3636,
      "Ġchina": 3637,
      "Ġdisp": 3638,
      "Ġstreng": 3639,
      "Ġawful": 3640,
      "Ġcheek": 3641,
      "Ġpotato": 3642,
      "Ġancient": 3643,
      "Ġdeg": 3644,
      "Ġformed": 3645,
      "Ġcustom": 3646,
      "hah": 3647,
      "eds": 3648,
      "Ġprice": 3649,
      "Ġsouthern": 3650,
      "zen": 3651,
      "illa": 3652,
      "istan": 3653,
      "Ġpiz": 3654,
      "ushing": 3655,
      "Ġdoc": 3656,
      "Ġmurder": 3657,
      "sey": 3658,
      "Ġlaura": 3659,
      "Ġpainting": 3660,
      "Ġlength": 3661,
      "Ġ2009": 3662,
      "rer": 3663,
      "Ġdeter": 3664,
      "orth": 3665,
      "essie": 3666,
      "ables": 3667,
      "Ġsettle": 3668,
      "Ġadvent": 3669,
      "Ġcommunity": 3670,
      "ki": 3671,
      "Ġfalling": 3672,
      "Ġlights": 3673,
      "ga": 3674,
      "Ġtow": 3675,
      "Ġbrush": 3676,
      "Ġanna": 3677,
      "antly": 3678,
      "Ġ2006": 3679,
      "asc": 3680,
      "Ġstorm": 3681,
      "Ġdemoc": 3682,
      "Ġenv": 3683,
      "Ġmonster": 3684,
      "Ġtri": 3685,
      "Ġpoints": 3686,
      "itude": 3687,
      "Ġchoice": 3688,
      "iot": 3689,
      "oups": 3690,
      "ĠU": 3691,
      "cast": 3692,
      "Ġhigher": 3693,
      "pan": 3694,
      "Ġplenty": 3695,
      "ĠHow": 3696,
      "Ġoppos": 3697,
      "Ġcrowd": 3698,
      "Ġtwice": 3699,
      "Ġbee": 3700,
      "11": 3701,
      "Ġsatisf": 3702,
      "Ġdim": 3703,
      "Ġtrick": 3704,
      "Ġeasily": 3705,
      "Ġpurdie": 3706,
      "inist": 3707,
      "Ġescape": 3708,
      "under": 3709,
      "Ġmult": 3710,
      "Ġrefer": 3711,
      "Ġdiscovered": 3712,
      "da": 3713,
      "inc": 3714,
      "Ġocean": 3715,
      "Ġenemy": 3716,
      "reen": 3717,
      "Ġelection": 3718,
      "Ġdetect": 3719,
      "Ġbrain": 3720,
      "Ġlouis": 3721,
      "Ġexperience": 3722,
      "Ġbarb": 3723,
      "Ġsurf": 3724,
      "ander": 3725,
      "Ġyum": 3726,
      "Ġmaggie": 3727,
      "Ġdere": 3728,
      "Ġyoure": 3729,
      "Ġcharlie": 3730,
      "Ġliter": 3731,
      "Ġbloody": 3732,
      "Ġchat": 3733,
      "Ġempty": 3734,
      "Ġslight": 3735,
      "Ġfemale": 3736,
      "Ġitalian": 3737,
      "Ġcastle": 3738,
      "Ġterms": 3739,
      "Ġscience": 3740,
      "Ġareas": 3741,
      "Ġdesp": 3742,
      "Ġbrothers": 3743,
      "erson": 3744,
      "hest": 3745,
      "night": 3746,
      "Ġtex": 3747,
      "Ġoffe": 3748,
      "aps": 3749,
      "Ġdouble": 3750,
      "Ġhistor": 3751,
      "Ġhuge": 3752,
      "Ġattempt": 3753,
      "Ġproduced": 3754,
      "Ġearlier": 3755,
      "nie": 3756,
      "Ġexist": 3757,
      "Ġpublished": 3758,
      "Ġchoose": 3759,
      "Ġlaid": 3760,
      "Ġbowl": 3761,
      "ours": 3762,
      "Ġevidence": 3763,
      "inal": 3764,
      "Ġcrew": 3765,
      "Ġfranc": 3766,
      "nal": 3767,
      "wa": 3768,
      "Ġjun": 3769,
      "Ġcentre": 3770,
      "Ġtony": 3771,
      "Ġnotice": 3772,
      "Ġhid": 3773,
      "Ġvall": 3774,
      "Ġcousin": 3775,
      "Ġregard": 3776,
      "ĠIn": 3777,
      "Ġuhuh": 3778,
      "Ġflight": 3779,
      "Ġmedicine": 3780,
      "Ġrule": 3781,
      "Ġscott": 3782,
      "Ġprime": 3783,
      "Ġproduct": 3784,
      "ria": 3785,
      "Ġyouth": 3786,
      "Ġshake": 3787,
      "Ġraised": 3788,
      "Ġconvers": 3789,
      "Ġdirection": 3790,
      "Ġduty": 3791,
      "Ġgrown": 3792,
      "Ġeleven": 3793,
      "Ġtong": 3794,
      "Ġentered": 3795,
      "anch": 3796,
      "Ġrichard": 3797,
      "Ġflag": 3798,
      "Ġsurprised": 3799,
      "Ġbreath": 3800,
      "Ġach": 3801,
      "Ġoffer": 3802,
      "Ġfounded": 3803,
      "Ġjudge": 3804,
      "Ġsett": 3805,
      "Ġobviously": 3806,
      "Ġrussian": 3807,
      "Ġsour": 3808,
      "Ġbelieved": 3809,
      "Ġbeck": 3810,
      "Ġgroups": 3811,
      "ĠAh": 3812,
      "Ġemb": 3813,
      "utenant": 3814,
      "Ġsinger": 3815,
      "Ġhorn": 3816,
      "Ġjose": 3817,
      "Ġbutton": 3818,
      "Ġelectric": 3819,
      "Ġthrew": 3820,
      "istics": 3821,
      "Ġswing": 3822,
      "Ġpic": 3823,
      "mar": 3824,
      "Ġimpro": 3825,
      "Ġestab": 3826,
      "Ġfellows": 3827,
      "Ġactress": 3828,
      "yy": 3829,
      "Ġmarry": 3830,
      "Ġfifteen": 3831,
      "Ġdrawing": 3832,
      "Ġpurpose": 3833,
      "vere": 3834,
      "action": 3835,
      "ashion": 3836,
      "Ġsaved": 3837,
      "urity": 3838,
      "Ġnormal": 3839,
      "ette": 3840,
      "Ġcanada": 3841,
      "Ġopport": 3842,
      "Ġsymp": 3843,
      "Ġspider": 3844,
      "Ġbert": 3845,
      "lla": 3846,
      "Ġbraz": 3847,
      "Ġplants": 3848,
      "Ġnurse": 3849,
      "Ġfourth": 3850,
      "Ġassist": 3851,
      "Ġinvolved": 3852,
      "Ġaye": 3853,
      "rey": 3854,
      "Ġindivid": 3855,
      "Ġemer": 3856,
      "Ġmut": 3857,
      "Ġbrave": 3858,
      "lend": 3859,
      "Ġmistake": 3860,
      "Ġsmoke": 3861,
      "Ġexec": 3862,
      "burg": 3863,
      "Ġroof": 3864,
      "Ġteach": 3865,
      "Ġpulled": 3866,
      "Ġbump": 3867,
      "Ġmountains": 3868,
      "Ġhadn": 3869,
      "mother": 3870,
      "Ġarrived": 3871,
      "Ġscene": 3872,
      "Ġheads": 3873,
      "Ġwoods": 3874,
      "Ġotherwise": 3875,
      "ators": 3876,
      "Ġresearch": 3877,
      "ols": 3878,
      "llen": 3879,
      "Ġthick": 3880,
      "iles": 3881,
      "Ġshore": 3882,
      "Ġsteps": 3883,
      "Ġrepublic": 3884,
      "Ġheat": 3885,
      "Ġopportun": 3886,
      "Ġitaly": 3887,
      "ingly": 3888,
      "ena": 3889,
      "Ġtrade": 3890,
      "Ġscot": 3891,
      "Ġdownstairs": 3892,
      "Ġtitle": 3893,
      "Ġpizza": 3894,
      "Ġaged": 3895,
      "Ġnewsp": 3896,
      "Ġmagaz": 3897,
      "ique": 3898,
      "Ġflor": 3899,
      "Ġeld": 3900,
      "Ġwrest": 3901,
      "Ġeuropean": 3902,
      "Ġlieutenant": 3903,
      "ously": 3904,
      "Ġknife": 3905,
      "Ġbother": 3906,
      "Ġpleased": 3907,
      "Ġbedroom": 3908,
      "Ġgrave": 3909,
      "tles": 3910,
      "Ġweight": 3911,
      "Ġtraining": 3912,
      "ointed": 3913,
      "Ġimmediately": 3914,
      "bon": 3915,
      "Ġproduc": 3916,
      "Ġplat": 3917,
      "lebr": 3918,
      "Ġremind": 3919,
      "ker": 3920,
      "Ġdancing": 3921,
      "Ġchampionship": 3922,
      "Ġversion": 3923,
      "Ġmessage": 3924,
      "Ġprincip": 3925,
      "Ġplain": 3926,
      "Ġstudio": 3927,
      "Ġalice": 3928,
      "pered": 3929,
      "Ġpsy": 3930,
      "ggy": 3931,
      "Ġves": 3932,
      "Ġreb": 3933,
      "Ġchinese": 3934,
      "Ġmuse": 3935,
      "mond": 3936,
      "Ġdevelopment": 3937,
      "Ġnecessary": 3938,
      "Ġpleasant": 3939,
      "Ġpromised": 3940,
      "Ġdeterm": 3941,
      "Ġsanta": 3942,
      "Ġoil": 3943,
      "Ġrights": 3944,
      "Ġscrew": 3945,
      "Ġmission": 3946,
      "gress": 3947,
      "kins": 3948,
      "Ġtone": 3949,
      "Ġimpress": 3950,
      "Ġlistening": 3951,
      "hered": 3952,
      "Ġweak": 3953,
      "Ġtrail": 3954,
      "Ġeve": 3955,
      "abel": 3956,
      "Ġdescrib": 3957,
      "Ġnope": 3958,
      "Ġninety": 3959,
      "icated": 3960,
      "Ġ31": 3961,
      "west": 3962,
      "onel": 3963,
      "Ġgolden": 3964,
      "Ġcabin": 3965,
      "Ġtaught": 3966,
      "bout": 3967,
      "ify": 3968,
      "Ġappl": 3969,
      "Ġslide": 3970,
      "Ġpants": 3971,
      "Ġguns": 3972,
      "Ġpossess": 3973,
      "iction": 3974,
      "lands": 3975,
      "Ġcelebr": 3976,
      "Ġlocated": 3977,
      "Ġvac": 3978,
      "Ġninet": 3979,
      "ero": 3980,
      "Ġloves": 3981,
      "Ġtoast": 3982,
      "Ġcorrect": 3983,
      "father": 3984,
      "Ġeverywhere": 3985,
      "Ġinvestig": 3986,
      "Ġgrab": 3987,
      "Ġbum": 3988,
      "Ġexcell": 3989,
      "lv": 3990,
      "Ġbrazil": 3991,
      "but": 3992,
      "Ġmovement": 3993,
      "ays": 3994,
      "Ġonto": 3995,
      "ittee": 3996,
      "oops": 3997,
      "ris": 3998,
      "Ġdare": 3999,
      "Ġrules": 4000,
      "ja": 4001,
      "Ġrout": 4002,
      "ledge": 4003,
      "Ġcred": 4004,
      "Ġgrowing": 4005,
      "Ġcrime": 4006,
      "Ġdrew": 4007,
      "Ġq": 4008,
      "Ġworried": 4009,
      "Ġwatched": 4010,
      "Ġtract": 4011,
      "wh": 4012,
      "Ġofficers": 4013,
      "Ġgrace": 4014,
      "Ġenter": 4015,
      "Ġdefinitely": 4016,
      "ram": 4017,
      "Ġsupper": 4018,
      "igg": 4019,
      "Ġtou": 4020,
      "Ġduh": 4021,
      "Ġtells": 4022,
      "Ġglo": 4023,
      "Ġzoo": 4024,
      "Ġtradition": 4025,
      "Ġeastern": 4026,
      "Ġrank": 4027,
      "Ġbin": 4028,
      "Ġsixty": 4029,
      "Ġartist": 4030,
      "Ġpir": 4031,
      "Ġpeas": 4032,
      "Ġsandwich": 4033,
      "Ġplaced": 4034,
      "Ġfallen": 4035,
      "Ġordered": 4036,
      "ex": 4037,
      "Ġtie": 4038,
      "Ġash": 4039,
      "Ġsaf": 4040,
      "Ġblind": 4041,
      "Ġtexas": 4042,
      "Ġliber": 4043,
      "Ġwont": 4044,
      "Ġgentlemen": 4045,
      "roll": 4046,
      "sta": 4047,
      "Ġyup": 4048,
      "Ġexpected": 4049,
      "Ġkeeping": 4050,
      "Ġstream": 4051,
      "Ġdivision": 4052,
      "Ġwashington": 4053,
      "Ġ190": 4054,
      "Ġattract": 4055,
      "Ġprize": 4056,
      "ba": 4057,
      "Ġwil": 4058,
      "Ġpapa": 4059,
      "Ġformula": 4060,
      "Ġyyy": 4061,
      "Ġstrawber": 4062,
      "aked": 4063,
      "50": 4064,
      "Ġstan": 4065,
      "ums": 4066,
      "Ġharm": 4067,
      "Ġstudents": 4068,
      "Ġfilled": 4069,
      "Ġeffort": 4070,
      "Ġshad": 4071,
      "tering": 4072,
      "Ġtheyre": 4073,
      "Ġsports": 4074,
      "Ġchanges": 4075,
      "Ġtelephone": 4076,
      "Ġimposs": 4077,
      "shire": 4078,
      "usion": 4079,
      "Ġmartin": 4080,
      "Ġmister": 4081,
      "Ġpad": 4082,
      "ech": 4083,
      "Ġrecords": 4084,
      "Ġcases": 4085,
      "Ġjourney": 4086,
      "Ġbrand": 4087,
      "Ġdomin": 4088,
      "Ġpercent": 4089,
      "Ġearn": 4090,
      "Ġstrength": 4091,
      "Ġpair": 4092,
      "Ġsmaller": 4093,
      "Ġbark": 4094,
      "arm": 4095,
      "host": 4096,
      "aret": 4097,
      "Ġcamera": 4098,
      "Ġsaturday": 4099,
      "Ġawards": 4100,
      "ples": 4101,
      "ores": 4102,
      "Ġcards": 4103,
      "Ġexcited": 4104,
      "Ġmale": 4105,
      "Ġmarriage": 4106,
      "Ġ2005": 4107,
      "Ġgrant": 4108,
      "ruction": 4109,
      "gypt": 4110,
      "Ġpool": 4111,
      "Ġram": 4112,
      "Ġ2000": 4113,
      "Ġopening": 4114,
      "Ġbits": 4115,
      "Ġnineteen": 4116,
      "Ġmanner": 4117,
      "Ġcrash": 4118,
      "Ġ2004": 4119,
      "Ġiv": 4120,
      "Ġinqu": 4121,
      "Ġshell": 4122,
      "Ġcrown": 4123,
      "Ġsalt": 4124,
      "Ġgentleman": 4125,
      "Ġorders": 4126,
      "olic": 4127,
      "Ġshown": 4128,
      "Ġevil": 4129,
      "Ġpeek": 4130,
      "iament": 4131,
      "Ġhay": 4132,
      "Ġedge": 4133,
      "Ġ40": 4134,
      "rain": 4135,
      "Ġsecurity": 4136,
      "Ġpuzzle": 4137,
      "Ġpor": 4138,
      "Ġcontract": 4139,
      "Ġdoin": 4140,
      "Ġspain": 4141,
      "Ġpoet": 4142,
      "Ġkar": 4143,
      "eman": 4144,
      "Ġkinds": 4145,
      "osh": 4146,
      "Ġmike": 4147,
      "Ġcalls": 4148,
      "Ġhmm": 4149,
      "Ġbeside": 4150,
      "Ġtears": 4151,
      "Ġcu": 4152,
      "Ġsteam": 4153,
      "Ġbeauty": 4154,
      "Ġcit": 4155,
      "Ġmyster": 4156,
      "Ġhind": 4157,
      "Ġpsych": 4158,
      "Ġcoach": 4159,
      "Ġgenerally": 4160,
      "Ġnoticed": 4161,
      "Ġmanager": 4162,
      "Ġadminist": 4163,
      "Ġhandle": 4164,
      "Ġgrap": 4165,
      "ental": 4166,
      "cles": 4167,
      "Ġofficial": 4168,
      "Ġkore": 4169,
      "Ġoccur": 4170,
      "Ġempire": 4171,
      "Ġvessel": 4172,
      "cing": 4173,
      "Ġimpossible": 4174,
      "Ġpour": 4175,
      "Ġairport": 4176,
      "back": 4177,
      "Ġnovel": 4178,
      "Ġuses": 4179,
      "fly": 4180,
      "lected": 4181,
      "Ġaver": 4182,
      "ett": 4183,
      "Ġ2001": 4184,
      "Ġrate": 4185,
      "Ġwheels": 4186,
      "Ġbyebye": 4187,
      "Ġbac": 4188,
      "atives": 4189,
      "Ġusual": 4190,
      "Ġeager": 4191,
      "ĠV": 4192,
      "Ġpump": 4193,
      "Ġross": 4194,
      "Ġwolf": 4195,
      "wr": 4196,
      "Ġhook": 4197,
      "Ġfund": 4198,
      "Ġafrica": 4199,
      "Ġolympics": 4200,
      "Ġmud": 4201,
      "Ġschools": 4202,
      "Ġcher": 4203,
      "ication": 4204,
      "bered": 4205,
      "Ġtravel": 4206,
      "Ġservices": 4207,
      "Ġloss": 4208,
      "Ġmodel": 4209,
      "Ġsword": 4210,
      "Ġsuggested": 4211,
      "Ġbike": 4212,
      "Ġswed": 4213,
      "Ġspoken": 4214,
      "Ġly": 4215,
      "Ġrange": 4216,
      "aching": 4217,
      "iron": 4218,
      "Ġegypt": 4219,
      "Ġappre": 4220,
      "Ġnative": 4221,
      "Ġbathroom": 4222,
      "Ġpractice": 4223,
      "Ġnea": 4224,
      "Ġourselves": 4225,
      "Ġblocks": 4226,
      "ox": 4227,
      "eal": 4228,
      "Ġreck": 4229,
      "Ġyay": 4230,
      "Ġcock": 4231,
      "Ġwis": 4232,
      "lyn": 4233,
      "igs": 4234,
      "Ġentertain": 4235,
      "Ġfixed": 4236,
      "ening": 4237,
      "eless": 4238,
      "ĠNot": 4239,
      "ipper": 4240,
      "Ġmail": 4241,
      "Ġgord": 4242,
      "Ġintend": 4243,
      "dies": 4244,
      "Ġevents": 4245,
      "Ġapparent": 4246,
      "Ġfinding": 4247,
      "Ġstairs": 4248,
      "Ġsurely": 4249,
      "bor": 4250,
      "Ġsake": 4251,
      "Ġkat": 4252,
      "Ġperm": 4253,
      "vious": 4254,
      "Ġstyle": 4255,
      "Ġcontact": 4256,
      "Ġeasier": 4257,
      "Ġdeck": 4258,
      "isa": 4259,
      "Ġinstit": 4260,
      "Ġdrag": 4261,
      "Ġsom": 4262,
      "Ġbiggest": 4263,
      "aded": 4264,
      "Ġbrill": 4265,
      "Ġcommander": 4266,
      "Ġsides": 4267,
      "itar": 4268,
      "ij": 4269,
      "Ġbisc": 4270,
      "ences": 4271,
      "Ġrang": 4272,
      "Ġparliament": 4273,
      "Ġwine": 4274,
      "Ġacqu": 4275,
      "Ġbatter": 4276,
      "Ġshouted": 4277,
      "ively": 4278,
      "ios": 4279,
      "Ġkinda": 4280,
      "Ġtank": 4281,
      "Ġmamma": 4282,
      "Ġplans": 4283,
      "Ġshopping": 4284,
      "Ġghost": 4285,
      "Ġcities": 4286,
      "Ġdecision": 4287,
      "Ġgy": 4288,
      "using": 4289,
      "Ġtrib": 4290,
      "ĠCan": 4291,
      "Ġplayers": 4292,
      "Ġforces": 4293,
      "Ġremem": 4294,
      "Ġcats": 4295,
      "Ġnetwork": 4296,
      "Ġairpl": 4297,
      "Ġkim": 4298,
      "Ġopin": 4299,
      "Ġgray": 4300,
      "Ġswit": 4301,
      "Ġteams": 4302,
      "Ġtongue": 4303,
      "Ġgra": 4304,
      "Ġgor": 4305,
      "Ġstayed": 4306,
      "Ġballoon": 4307,
      "Ġsmith": 4308,
      "ease": 4309,
      "Ġcute": 4310,
      "Ġign": 4311,
      "Ġavail": 4312,
      "Ġcater": 4313,
      "Ġchannel": 4314,
      "Ġacademy": 4315,
      "note": 4316,
      "Ġholy": 4317,
      "Ġcolonel": 4318,
      "Ġ1990": 4319,
      "Ġdrinking": 4320,
      "Ġchic": 4321,
      "30": 4322,
      "Ġcancer": 4323,
      "Ġfirm": 4324,
      "Ġupset": 4325,
      "nds": 4326,
      "Ġcub": 4327,
      "Ġstret": 4328,
      "Ġtip": 4329,
      "Ġstaff": 4330,
      "Ġforeign": 4331,
      "Ġpossibly": 4332,
      "ĠAl": 4333,
      "Ġconstit": 4334,
      "Ġthro": 4335,
      "oid": 4336,
      "Ġlibr": 4337,
      "Ġislands": 4338,
      "Ġforgotten": 4339,
      "ola": 4340,
      "Ġpenn": 4341,
      "Ġsurr": 4342,
      "Ġideas": 4343,
      "Ġcoo": 4344,
      "Ġperforman": 4345,
      "Ġmeal": 4346,
      "year": 4347,
      "pper": 4348,
      "Ġhelping": 4349,
      "Ġoccup": 4350,
      "Ġdutch": 4351,
      "Ġnan": 4352,
      "Ġwedding": 4353,
      "min": 4354,
      "Ġsuspect": 4355,
      "Ġriding": 4356,
      "Ġaddition": 4357,
      "sha": 4358,
      "Ġtid": 4359,
      "Ġles": 4360,
      "Ġlawyer": 4361,
      "Ġincluded": 4362,
      "Ġga": 4363,
      "Ġmanaged": 4364,
      "Ġbutt": 4365,
      "ĠThan": 4366,
      "Ġmate": 4367,
      "vey": 4368,
      "Ġhorsie": 4369,
      "Ġnest": 4370,
      "Ġintell": 4371,
      "Ġfootnote": 4372,
      "Ġ0": 4373,
      "Ġtas": 4374,
      "itation": 4375,
      "Ġtext": 4376,
      "Ġcarefully": 4377,
      "Ġrocks": 4378,
      "Ġdoors": 4379,
      "Ġali": 4380,
      "ĠThis": 4381,
      "ost": 4382,
      "Ġships": 4383,
      "Ġgay": 4384,
      "Ġpra": 4385,
      "ĠDid": 4386,
      "Ġcray": 4387,
      "Ġven": 4388,
      "box": 4389,
      "Ġturns": 4390,
      "Ġfest": 4391,
      "Ġcondition": 4392,
      "Ġgreatest": 4393,
      "Ġrod": 4394,
      "Ġextreme": 4395,
      "Ġruth": 4396,
      "ograph": 4397,
      "Ġlt": 4398,
      "Ġaffect": 4399,
      "Ġnomin": 4400,
      "Ġsteal": 4401,
      "Ġmetal": 4402,
      "Ġmummie": 4403,
      "of": 4404,
      "Ġned": 4405,
      "Ġkeeps": 4406,
      "Ġobl": 4407,
      "Ġweird": 4408,
      "ĠCos": 4409,
      "Ġmedical": 4410,
      "Ġtub": 4411,
      "Ġretired": 4412,
      "Ġast": 4413,
      "rif": 4414,
      "Ġfreed": 4415,
      "Ġtent": 4416,
      "oved": 4417,
      "Ġdeveloped": 4418,
      "rid": 4419,
      "Ġvictor": 4420,
      "Ġfeels": 4421,
      "Ġprevent": 4422,
      "oured": 4423,
      "Ġcontinue": 4424,
      "Ġcraw": 4425,
      "Ġfashion": 4426,
      "Ġresc": 4427,
      "Ġshh": 4428,
      "Ġmuseum": 4429,
      "Ġvote": 4430,
      "anced": 4431,
      "Ġrisk": 4432,
      "inger": 4433,
      "bl": 4434,
      "Ġartic": 4435,
      "Ġstruct": 4436,
      "Ġstarts": 4437,
      "Ġfancy": 4438,
      "Ġwriter": 4439,
      "Ġjumped": 4440,
      "Ġsite": 4441,
      "Ġyounger": 4442,
      "Ġsuccessful": 4443,
      "Ġdisease": 4444,
      "Ġ189": 4445,
      "Ġopportunity": 4446,
      "10": 4447,
      "Ġeliz": 4448,
      "Ġsees": 4449,
      "Ġboots": 4450,
      "Ġdistrib": 4451,
      "12": 4452,
      "Ġdecide": 4453,
      "Ġeighty": 4454,
      "play": 4455,
      "ials": 4456,
      "ashing": 4457,
      "Ġafterwards": 4458,
      "Ġstruck": 4459,
      "Ġknee": 4460,
      "Ġvalley": 4461,
      "over": 4462,
      "Ġshock": 4463,
      "Ġruns": 4464,
      "Ġpow": 4465,
      "Ġeaten": 4466,
      "Ġpred": 4467,
      "pill": 4468,
      "Ġmort": 4469,
      "icate": 4470,
      "Ġfarmer": 4471,
      "Ġsposta": 4472,
      "Ġstrugg": 4473,
      "Ġoccasion": 4474,
      "Ġkeys": 4475,
      "Ġsaint": 4476,
      "Ġpuss": 4477,
      "Ġproperly": 4478,
      "Ġlets": 4479,
      "Ġemper": 4480,
      "Ġtypes": 4481,
      "Ġrib": 4482,
      "abeth": 4483,
      "Ġforever": 4484,
      "Ġprepared": 4485,
      "Ġsurface": 4486,
      "aries": 4487,
      "Ġstudied": 4488,
      "Ġfavour": 4489,
      "Ġknight": 4490,
      "Ġremarked": 4491,
      "Ġbrilliant": 4492,
      "Ġyell": 4493,
      "that": 4494,
      "Ġmemory": 4495,
      "Ġdinosaur": 4496,
      "Ġillust": 4497,
      "ification": 4498,
      "Ġgaz": 4499,
      "Ġamp": 4500,
      "Ġparticularly": 4501,
      "Ġterrit": 4502,
      "Ġbonnet": 4503,
      "Ġdoggie": 4504,
      "Ġneighbor": 4505,
      "ulous": 4506,
      "Ġshowing": 4507,
      "Ġnah": 4508,
      "Ġlips": 4509,
      "Ġsigned": 4510,
      "wo": 4511,
      "Ġnursery": 4512,
      "Ġgordon": 4513,
      "Ġweeke": 4514,
      "ĠChr": 4515,
      "Ġangel": 4516,
      "Ġasse": 4517,
      "Ġprove": 4518,
      "Ġleading": 4519,
      "Ġ1980": 4520,
      "known": 4521,
      "cise": 4522,
      "Ġadult": 4523,
      "Ġmentioned": 4524,
      "Ġboom": 4525,
      "Ġfrancis": 4526,
      "Ġplanet": 4527,
      "Ġvirgin": 4528,
      "berg": 4529,
      "Ġ2003": 4530,
      "ieve": 4531,
      "mn": 4532,
      "Ġry": 4533,
      "Ġdump": 4534,
      "Ġdread": 4535,
      "Ġsafety": 4536,
      "Ġprint": 4537,
      "reg": 4538,
      "Ġjeff": 4539,
      "Ġfoc": 4540,
      "jam": 4541,
      "Ġfriday": 4542,
      "Ġelected": 4543,
      "Ġepisode": 4544,
      "Ġsav": 4545,
      "Ġfairy": 4546,
      "aly": 4547,
      "Ġpatient": 4548,
      "Ġay": 4549,
      "Ġcarrying": 4550,
      "uits": 4551,
      "Ġjoseph": 4552,
      "Ġboun": 4553,
      "Ġdada": 4554,
      "Ġcommittee": 4555,
      "ckey": 4556,
      "Ġhighest": 4557,
      "Ġtummy": 4558,
      "Ġwhispered": 4559,
      "Ġworst": 4560,
      "raft": 4561,
      "ĠBe": 4562,
      "wing": 4563,
      "Ġellie": 4564,
      "ndered": 4565,
      "lor": 4566,
      "Ġgiant": 4567,
      "cream": 4568,
      "pet": 4569,
      "iety": 4570,
      "Ġenviron": 4571,
      "Ġexcellent": 4572,
      "Ġbuddy": 4573,
      "Ġgoal": 4574,
      "Ġlara": 4575,
      "Ġcris": 4576,
      "Ġacting": 4577,
      "Ġmont": 4578,
      "Ġcaterpill": 4579,
      "worth": 4580,
      "ern": 4581,
      "Ġrelease": 4582,
      "sp": 4583,
      "ige": 4584,
      "Ġglasses": 4585,
      "Ġdemocrat": 4586,
      "Ġtractor": 4587,
      "asty": 4588,
      "Ġamazing": 4589,
      "Ġwise": 4590,
      "urb": 4591,
      "Ġwhist": 4592,
      "Ġahhah": 4593,
      "Ġwilling": 4594,
      "Ġ2002": 4595,
      "Ġpapers": 4596,
      "Ġsin": 4597,
      "hab": 4598,
      "nding": 4599,
      "Ġperfectly": 4600,
      "Ġpressure": 4601,
      "Ġspeech": 4602,
      "Ġrome": 4603,
      "Ġtheory": 4604,
      "etch": 4605,
      "Ġinvent": 4606,
      "Ġcopy": 4607,
      "Ġmetho": 4608,
      "ems": 4609,
      "rael": 4610,
      "ners": 4611,
      "Ġbessie": 4612,
      "Ġpant": 4613,
      "vert": 4614,
      "atory": 4615,
      "Ġfal": 4616,
      "Ġwaste": 4617,
      "cel": 4618,
      "Ġsoup": 4619,
      "Ġtoil": 4620,
      "Ġpean": 4621,
      "Ġcru": 4622,
      "Ġaverage": 4623,
      "Ġlind": 4624,
      "Ġoffered": 4625,
      "Ġbare": 4626,
      "Ġsecretary": 4627,
      "Ġstir": 4628,
      "Ġbid": 4629,
      "Ġsusp": 4630,
      "Ġstatistics": 4631,
      "Ġ188": 4632,
      "Ġquack": 4633,
      "Ġshoulder": 4634,
      "Ġfaster": 4635,
      "eta": 4636,
      "Ġrelationship": 4637,
      "ada": 4638,
      "illed": 4639,
      "Ġneat": 4640,
      "boy": 4641,
      "Ġrot": 4642,
      "Ġqual": 4643,
      "Ġveget": 4644,
      "Ġbaseball": 4645,
      "arily": 4646,
      "Ġicecream": 4647,
      "Ġsoldier": 4648,
      "Ġconversation": 4649,
      "Ġbringing": 4650,
      "ini": 4651,
      "Ġsocks": 4652,
      "Ġtransport": 4653,
      "Ġappreci": 4654,
      "Ġ186": 4655,
      "Ġlanguages": 4656,
      "book": 4657,
      "Ġmagazine": 4658,
      "met": 4659,
      "Ġpositive": 4660,
      "ache": 4661,
      "isions": 4662,
      "Ġwoo": 4663,
      "Ġdunn": 4664,
      "bles": 4665,
      "Ġess": 4666,
      "Ġknowledge": 4667,
      "uments": 4668,
      "Ġgreek": 4669,
      "Ġdiam": 4670,
      "Ġcomfortable": 4671,
      "Ġtha": 4672,
      "aled": 4673,
      "fection": 4674,
      "Ġrelated": 4675,
      "iana": 4676,
      "Ġgreater": 4677,
      "Ġwings": 4678,
      "Ġwid": 4679,
      "Ġserve": 4680,
      "Ġcircum": 4681,
      "Ġwipe": 4682,
      "Ġos": 4683,
      "Ġboats": 4684,
      "Ġsaus": 4685,
      "Ġmedal": 4686,
      "Ġrapid": 4687,
      "can": 4688,
      "Ġchicago": 4689,
      "ads": 4690,
      "ipping": 4691,
      "Ġbarn": 4692,
      "Ġkings": 4693,
      "Ġknowing": 4694,
      "Ġrealize": 4695,
      "Ġtotally": 4696,
      "arr": 4697,
      "aches": 4698,
      "Ġwalls": 4699,
      "Ġmedia": 4700,
      "ients": 4701,
      "Ġbitch": 4702,
      "Ġpalace": 4703,
      "Ġsher": 4704,
      "Ġappearance": 4705,
      "Ġupper": 4706,
      "lle": 4707,
      "Ġexplained": 4708,
      "opher": 4709,
      "Ġrevolution": 4710,
      "Ġassociation": 4711,
      "donald": 4712,
      "Ġforced": 4713,
      "ona": 4714,
      "Ġcongress": 4715,
      "Ġlog": 4716,
      "Ġcrim": 4717,
      "Ġcooking": 4718,
      "Ġpooh": 4719,
      "ko": 4720,
      "Ġjustice": 4721,
      "Ġchest": 4722,
      "hib": 4723,
      "ension": 4724,
      "Ġpowerful": 4725,
      "Ġbenef": 4726,
      "Ġhanging": 4727,
      "Ġcurrently": 4728,
      "Ġcompos": 4729,
      "bel": 4730,
      "Ġbeast": 4731,
      "izing": 4732,
      "Ġfrightened": 4733,
      "chester": 4734,
      "heast": 4735,
      "Ġbart": 4736,
      "'.": 4737,
      "Ġsweetheart": 4738,
      "Ġavailable": 4739,
      "Ġproperty": 4740,
      "Ġgosh": 4741,
      "Ġdecl": 4742,
      "Ġpear": 4743,
      "Ġaustralian": 4744,
      "Ġseriously": 4745,
      "Ġ1999": 4746,
      "Ġballs": 4747,
      "aign": 4748,
      "oph": 4749,
      "ĠDon": 4750,
      "Ġforgive": 4751,
      "Ġconv": 4752,
      "Ġpier": 4753,
      "Ġzzz": 4754,
      "ales": 4755,
      "Ġbrook": 4756,
      "Ġflorida": 4757,
      "Ġconcerned": 4758,
      "Ġmexico": 4759,
      "dad": 4760,
      "Ġyummy": 4761,
      "Ġrare": 4762,
      "Ġprefer": 4763,
      "Ġunc": 4764,
      "ĠWhy": 4765,
      "Ġassemb": 4766,
      "Ġpak": 4767,
      "Ġgrandpa": 4768,
      "ware": 4769,
      "ological": 4770,
      "Ġpolicy": 4771,
      "Ġconfir": 4772,
      "war": 4773,
      "Ġkm": 4774,
      "Ġsuc": 4775,
      "Ġtrains": 4776,
      "Ġexer": 4777,
      "ania": 4778,
      "Ġvalue": 4779,
      "mark": 4780,
      "rated": 4781,
      "char": 4782,
      "Ġmagn": 4783,
      "bey": 4784,
      "Ġgang": 4785,
      "Ġnation": 4786,
      "rs": 4787,
      "Ġpian": 4788,
      "viet": 4789,
      "Ġshan": 4790,
      "Ġagent": 4791,
      "fortun": 4792,
      "law": 4793,
      "Ġlid": 4794,
      "Ġhockey": 4795,
      "Ġbutterfly": 4796,
      "Ġscreen": 4797,
      "Ġpencil": 4798,
      "Ġinit": 4799,
      "Ġmotion": 4800,
      "Ġwinn": 4801,
      "Ġenvironment": 4802,
      "Ġbunch": 4803,
      "Ġdying": 4804,
      "sequ": 4805,
      "Ġafford": 4806,
      "Ġshel": 4807,
      "Ġfolks": 4808,
      "Ġdoo": 4809,
      "Ġhom": 4810,
      "Ġlarger": 4811,
      "Ġwitness": 4812,
      "dge": 4813,
      "Ġscout": 4814,
      "eted": 4815,
      "Ġmaid": 4816,
      "Ġaah": 4817,
      "reland": 4818,
      "icked": 4819,
      "Ġreview": 4820,
      "Ġtraff": 4821,
      "Ġbrief": 4822,
      "Ġafrican": 4823,
      "Ġemperor": 4824,
      "ingu": 4825,
      "Ġrepeated": 4826,
      "yl": 4827,
      "Ġhearing": 4828,
      "Ġadmir": 4829,
      "iation": 4830,
      "rant": 4831,
      "Ġnav": 4832,
      "apt": 4833,
      "Ġrope": 4834,
      "Ġcampaign": 4835,
      "isher": 4836,
      "rick": 4837,
      "Ġtoes": 4838,
      "Ġtru": 4839,
      "Ġfought": 4840,
      "Ġfaces": 4841,
      "Ġstro": 4842,
      "Ġsmiling": 4843,
      "Ġdrama": 4844,
      "Ġfairly": 4845,
      "Ġopinion": 4846,
      "icans": 4847,
      "Ġstaying": 4848,
      "Ġcookies": 4849,
      "Ġdoggy": 4850,
      "Ġhaw": 4851,
      "ented": 4852,
      "Ġshame": 4853,
      "Ġknocked": 4854,
      "craft": 4855,
      "Ġdata": 4856,
      "Ġmatters": 4857,
      "Ġgrandmother": 4858,
      "Ġseconds": 4859,
      "Ġsilence": 4860,
      "Ġrussia": 4861,
      "Ġkilling": 4862,
      "Ġproduction": 4863,
      "Ġfant": 4864,
      "Ġtough": 4865,
      "Ġtransl": 4866,
      "Ġfence": 4867,
      "Ġincludes": 4868,
      "pir": 4869,
      "Ġproceed": 4870,
      "Ġjimmy": 4871,
      "Ġ1970": 4872,
      "Ġisrael": 4873,
      "sters": 4874,
      "Ġdyn": 4875,
      "Ġdoct": 4876,
      "Ġpuppy": 4877,
      "mend": 4878,
      "ropical": 4879,
      "Ġmere": 4880,
      "ulf": 4881,
      "ata": 4882,
      "Ġgab": 4883,
      "Ġhonour": 4884,
      "Ġjones": 4885,
      "Ġatl": 4886,
      "Ġrush": 4887,
      "Ġjoke": 4888,
      "rol": 4889,
      "Ġapparently": 4890,
      "Ġmixed": 4891,
      "Ġweekend": 4892,
      "Ġmaterial": 4893,
      "bra": 4894,
      "Ġnerv": 4895,
      "Ġcloser": 4896,
      "Ġopt": 4897,
      "born": 4898,
      "Ġkr": 4899,
      "Ġremained": 4900,
      "Ġnormally": 4901,
      "Ġestabl": 4902,
      "Ġhills": 4903,
      "Ġfamilies": 4904,
      "Ġlibrary": 4905,
      "Ġfreedom": 4906,
      "ilities": 4907,
      "Ġfeelings": 4908,
      "Ġbubb": 4909,
      "nce": 4910,
      "Ġcash": 4911,
      "ado": 4912,
      "Ġron": 4913,
      "ota": 4914,
      "Ġvehic": 4915,
      "oned": 4916,
      "Ġbern": 4917,
      "Ġthroat": 4918,
      "Ġfishing": 4919,
      "Ġsighs": 4920,
      "icient": 4921,
      "ste": 4922,
      "Ġescap": 4923,
      "thur": 4924,
      "Ġreported": 4925,
      "ription": 4926,
      "Ġgrun": 4927,
      "Ġowl": 4928,
      "Ġgift": 4929,
      "Ġplus": 4930,
      "Ġug": 4931,
      "Ġsink": 4932,
      "Ġevident": 4933,
      "Ġsymb": 4934,
      "Ġsettled": 4935,
      "Ġsubst": 4936,
      "Ġdamage": 4937,
      "othy": 4938,
      "Ġbears": 4939,
      "Ġmatches": 4940,
      "Ġprogress": 4941,
      "Ġfurn": 4942,
      "lled": 4943,
      "Ġoriginally": 4944,
      "Ġairplane": 4945,
      "Ġjumping": 4946,
      "Ġflew": 4947,
      "Ġaware": 4948,
      "rison": 4949,
      "andy": 4950,
      "Ġsweetie": 4951,
      "Ġaccess": 4952,
      "Ġopposite": 4953,
      "Ġtommy": 4954,
      "Ġroger": 4955,
      "Ġsomehow": 4956,
      "Ġsucceed": 4957,
      "Ġthoughts": 4958,
      "ĠThank": 4959,
      "bow": 4960,
      "tr": 4961,
      "ential": 4962,
      "ibility": 4963,
      "Ġvent": 4964,
      "Ġhorrible": 4965,
      "Ġconduct": 4966,
      "Ġpostman": 4967,
      "Ġkenn": 4968,
      "hi": 4969,
      "Ġyard": 4970,
      "ills": 4971,
      "Ġlies": 4972,
      "Ġcharacters": 4973,
      "eping": 4974,
      "Ġinnoc": 4975,
      "Ġquietly": 4976,
      "uf": 4977,
      "Ġreve": 4978,
      "Ġwhee": 4979,
      "Ġblo": 4980,
      "Ġlaws": 4981,
      "Ġculture": 4982,
      "look": 4983,
      "Ġmainly": 4984,
      "Ġthrowing": 4985,
      "Ġdirectly": 4986,
      "Ġbuzz": 4987,
      "Ġindividual": 4988,
      "Ġcanadian": 4989,
      "Ġcaterpillar": 4990,
      "Ġstom": 4991,
      "Ġperform": 4992,
      "Ġhal": 4993,
      "Ġpee": 4994,
      "Ġmultip": 4995,
      "Ġnewspaper": 4996,
      "Ġmarg": 4997,
      "ĠJust": 4998,
      "ule": 4999,
      "Ġrice": 5000,
      "ucky": 5001,
      "Ġwave": 5002,
      "Ġpurs": 5003,
      "Ġtickle": 5004,
      "Ġarrange": 5005,
      "Ġindians": 5006,
      "Ġbast": 5007,
      "Ġgodd": 5008,
      "Ġgram": 5009,
      "ĠWhere": 5010,
      "Ġshooting": 5011,
      "Ġelizabeth": 5012,
      "Ġperformance": 5013,
      "Ġchallen": 5014,
      "Ġburied": 5015,
      "cod": 5016,
      "Ġbul": 5017,
      "Ġdun": 5018,
      "Ġfifth": 5019,
      "Ġmap": 5020,
      "Ġrecently": 5021,
      "Ġwondering": 5022,
      "Ġlone": 5023,
      "Ġtroops": 5024,
      "esty": 5025,
      "Ġbecoming": 5026,
      "Ġscientists": 5027,
      "Ġcomment": 5028,
      "istic": 5029,
      "Ġtreasure": 5030,
      "Ġfired": 5031,
      "Ġsang": 5032,
      "Ġtooth": 5033,
      "Ġstring": 5034,
      "Ġcandy": 5035,
      "gle": 5036,
      "Ġcommission": 5037,
      "ties": 5038,
      "Ġpartner": 5039,
      "ulations": 5040,
      "ĠHave": 5041,
      "Ġreasons": 5042,
      "Ġcitiz": 5043,
      "oot": 5044,
      "Ġjail": 5045,
      "Ġdragon": 5046,
      "nic": 5047,
      "Ġodd": 5048,
      "Ġnarrow": 5049,
      "Ġsection": 5050,
      "Ġallah": 5051,
      "Ġmadam": 5052,
      "sing": 5053,
      "Ġireland": 5054,
      "Ġforms": 5055,
      "Ġ1960": 5056,
      "Ġmeas": 5057,
      "ulty": 5058,
      "Ġrespond": 5059,
      "Ġgradu": 5060,
      "Ġdescribed": 5061,
      "Ġcot": 5062,
      "Ġloose": 5063,
      "Ġ2023": 5064,
      "Ġindependent": 5065,
      "rance": 5066,
      "Ġlatin": 5067,
      "just": 5068,
      "Ġdepart": 5069,
      "Ġdegree": 5070,
      "asing": 5071,
      "aland": 5072,
      "Ġrecorded": 5073,
      "lam": 5074,
      "Ġindustry": 5075,
      "Ġgrandfather": 5076,
      "icy": 5077,
      "elle": 5078,
      "Ġot": 5079,
      "iverse": 5080,
      "Ġstudent": 5081,
      "Ġlamb": 5082,
      "sa": 5083,
      "Ġthin": 5084,
      "Ġthroughout": 5085,
      "Ġpresently": 5086,
      "Ġdunno": 5087,
      "Ġcutting": 5088,
      "Ġkang": 5089,
      "Ġreply": 5090,
      "18": 5091,
      "Ġours": 5092,
      "Ġpaying": 5093,
      "Ġsomewhat": 5094,
      "Ġrobb": 5095,
      "Ġclearly": 5096,
      "Ġstones": 5097,
      "Ġtra": 5098,
      "Ġ1992": 5099,
      "Ġaer": 5100,
      "Ġjon": 5101,
      "Ġissue": 5102,
      "Ġprotest": 5103,
      "Ġfrogs": 5104,
      "Ġsoviet": 5105,
      "road": 5106,
      "Ġunfortun": 5107,
      "Ġdrum": 5108,
      "Ġedward": 5109,
      "Ġrelax": 5110,
      "ability": 5111,
      "fall": 5112,
      "Ġ1996": 5113,
      "Ġadvant": 5114,
      "Ġserge": 5115,
      "Ġpenny": 5116,
      "ias": 5117,
      "Ġdom": 5118,
      "Ġthor": 5119,
      "!'": 5120,
      "uesday": 5121,
      "Ġeventually": 5122,
      "rees": 5123,
      "chief": 5124,
      "Ġfrequ": 5125,
      "Ġfolk": 5126,
      "Ġsisters": 5127,
      "any": 5128,
      "Ġtel": 5129,
      "Ġalp": 5130,
      "Ġstrike": 5131,
      "Ġmob": 5132,
      "Ġnana": 5133,
      "ucle": 5134,
      "Ġtenn": 5135,
      "Ġguitar": 5136,
      "Ġchop": 5137,
      "Ġfailed": 5138,
      "Ġlam": 5139,
      "Ġdestroyed": 5140,
      "Ġpushed": 5141,
      "Ġfeather": 5142,
      "ases": 5143,
      "otion": 5144,
      "Ġrise": 5145,
      "ux": 5146,
      "kee": 5147,
      "Ġbones": 5148,
      "bury": 5149,
      "Ġ187": 5150,
      "ĠGod": 5151,
      "Ġgrey": 5152,
      "Ġclaim": 5153,
      "Ġseparate": 5154,
      "Ġmile": 5155,
      "Ġ1998": 5156,
      "Ġwound": 5157,
      "Ġfireman": 5158,
      "Ġdreams": 5159,
      "Ġpussy": 5160,
      "Ġclou": 5161,
      "Ġhyd": 5162,
      "Ġfederal": 5163,
      "Ġlocked": 5164,
      "Ġreligion": 5165,
      "Ġmonday": 5166,
      "Ġturkey": 5167,
      "bour": 5168,
      "Ġgri": 5169,
      "Ġbone": 5170,
      "Ġwouldnt": 5171,
      "Ġsore": 5172,
      "Ġcompanies": 5173,
      "ĠAre": 5174,
      "Ġstandard": 5175,
      "Ġgarage": 5176,
      "Ġanxious": 5177,
      "Ġblame": 5178,
      "Ġdemocratic": 5179,
      "lling": 5180,
      "Ġcomedy": 5181,
      "Ġpac": 5182,
      "Ġren": 5183,
      "Ġfirstname": 5184,
      "Ġchris": 5185,
      "Ġgently": 5186,
      "Ġ1995": 5187,
      "Ġtheat": 5188,
      "Ġswear": 5189,
      "Ġmerry": 5190,
      "Ġbanana": 5191,
      "Ġborder": 5192,
      "Ġconfess": 5193,
      "Ġgather": 5194,
      "Ġfriendly": 5195,
      "Ġcloth": 5196,
      "Ġangeles": 5197,
      "Ġspecific": 5198,
      "ĠChrist": 5199,
      "Ġlink": 5200,
      "Ġfalls": 5201,
      "Ġtarget": 5202,
      "Ġwhenever": 5203,
      "Ġowned": 5204,
      "Ġestablished": 5205,
      "ari": 5206,
      "Ġauntie": 5207,
      "hl": 5208,
      "mes": 5209,
      "isha": 5210,
      "Ġbreaking": 5211,
      "iance": 5212,
      "att": 5213,
      "Ġhunting": 5214,
      "Ġremembered": 5215,
      "Ġleaf": 5216,
      "Ġblanket": 5217,
      "sed": 5218,
      "Ġgoat": 5219,
      "Ġcrick": 5220,
      "ursday": 5221,
      "Ġseventy": 5222,
      "Ġtied": 5223,
      "Ġchips": 5224,
      "Ġfond": 5225,
      "sec": 5226,
      "Ġintellig": 5227,
      "place": 5228,
      "Ġjournal": 5229,
      "Ġisnt": 5230,
      "Ġthunder": 5231,
      "Ġpros": 5232,
      "Ġwoof": 5233,
      "Ġadvice": 5234,
      "Ġjobs": 5235,
      "Ġrestaur": 5236,
      "Ġactive": 5237,
      "bits": 5238,
      "Ġpassing": 5239,
      "Ġtraffic": 5240,
      "Ġbeer": 5241,
      "quar": 5242,
      "Ġbene": 5243,
      "Ġlearning": 5244,
      "?'": 5245,
      "Ġandy": 5246,
      "Ġboston": 5247,
      "Ġrailway": 5248,
      "Ġdrunk": 5249,
      "Ġsilent": 5250,
      "Ġmirror": 5251,
      "Ġcredit": 5252,
      "Ġhath": 5253,
      "Ġcreate": 5254,
      "Ġhammer": 5255,
      "Ġguil": 5256,
      "Ġsid": 5257,
      "Ġloo": 5258,
      "aging": 5259,
      "zerland": 5260,
      "Ġplanning": 5261,
      "ohn": 5262,
      "Ġcompeted": 5263,
      "friend": 5264,
      "ications": 5265,
      "Ġtab": 5266,
      "Ġrubb": 5267,
      "ishop": 5268,
      "Ġreckon": 5269,
      "Ġ1994": 5270,
      "Ġinterview": 5271,
      "Ġmeasure": 5272,
      "Ġuseful": 5273,
      "Ġcompetition": 5274,
      "ban": 5275,
      "win": 5276,
      "aning": 5277,
      "Ġtig": 5278,
      "Ġsons": 5279,
      "Ġbuildings": 5280,
      "Ġtoilet": 5281,
      "Ġscore": 5282,
      "Ġweapons": 5283,
      "Ġterror": 5284,
      "rate": 5285,
      "15": 5286,
      "fa": 5287,
      "Ġbranch": 5288,
      "Ġgain": 5289,
      "igsaw": 5290,
      "Ġpakistan": 5291,
      "Ġthrown": 5292,
      "owed": 5293,
      "Ġlaughs": 5294,
      "Ġresults": 5295,
      "Ġholes": 5296,
      "Ġreligious": 5297,
      "Ġrent": 5298,
      "Ġcode": 5299,
      "Ġcommer": 5300,
      "uch": 5301,
      "Ġbegg": 5302,
      "Ġcoal": 5303,
      "Ġcows": 5304,
      "Ġpulling": 5305,
      "oll": 5306,
      "Ġjum": 5307,
      "Ġtunn": 5308,
      "Ġcontr": 5309,
      "Ġfully": 5310,
      "Ġnicole": 5311,
      "Ġfamiliar": 5312,
      "Ġjung": 5313,
      "Ġleaders": 5314,
      "Ġraise": 5315,
      "Ġbol": 5316,
      "ishment": 5317,
      "Ġperformed": 5318,
      "Ġtrial": 5319,
      "Ġdism": 5320,
      "Ġbush": 5321,
      "Ġkidding": 5322,
      "Ġhasta": 5323,
      "Ġquit": 5324,
      "Ġends": 5325,
      "Ġkir": 5326,
      "ansas": 5327,
      "Ġfeatures": 5328,
      "Ġrings": 5329,
      "Ġtomato": 5330,
      "Ġreceive": 5331,
      "Ġlorry": 5332,
      "Ġresponsible": 5333,
      "Ġtrous": 5334,
      "Ġnucle": 5335,
      "Ġnotes": 5336,
      "Ġ1997": 5337,
      "Ġward": 5338,
      "Ġsoap": 5339,
      "Ġbuff": 5340,
      "neath": 5341,
      "Ġjelly": 5342,
      "tin": 5343,
      "Ġlack": 5344,
      "Ġentirely": 5345,
      "Ġhabit": 5346,
      "Ġjigsaw": 5347,
      "Ġlif": 5348,
      "ĠWhen": 5349,
      "Ġracing": 5350,
      "sty": 5351,
      "Ġclimate": 5352,
      "ila": 5353,
      "Ġchase": 5354,
      "urance": 5355,
      "Ġfortune": 5356,
      "down": 5357,
      "Ġdeer": 5358,
      "Ġtowns": 5359,
      "nesday": 5360,
      "ĠOne": 5361,
      "Ġautom": 5362,
      "oons": 5363,
      "Ġswitzerland": 5364,
      "Ġcircumst": 5365,
      "Ġcorpor": 5366,
      "Ġscotland": 5367,
      "Ġclown": 5368,
      "Ġadop": 5369,
      "Ġlisa": 5370,
      "Ġdeliver": 5371,
      "Ġbags": 5372,
      "Ġsystems": 5373,
      "oma": 5374,
      "Ġmos": 5375,
      "Ġjerry": 5376,
      "Ġmi": 5377,
      "Ġdrove": 5378,
      "uries": 5379,
      "Ġunderstood": 5380,
      "Ġbrad": 5381,
      "Ġdisappeared": 5382,
      "Ġlit": 5383,
      "oms": 5384,
      "Ġphilos": 5385,
      "Ġcrocod": 5386,
      "Ġmusical": 5387,
      "Ġcloud": 5388,
      "des": 5389,
      "Ġfold": 5390,
      "Ġparticip": 5391,
      "igan": 5392,
      "Ġprepar": 5393,
      "Ġowner": 5394,
      "Ġsignal": 5395,
      "li": 5396,
      "Ġpresence": 5397,
      "Ġdiamond": 5398,
      "Ġdesire": 5399,
      "Ġobserved": 5400,
      "Ġmayor": 5401,
      "Ġpolly": 5402,
      "Ġscarce": 5403,
      "Ġdivided": 5404,
      "Ġinfluence": 5405,
      "Ġborrow": 5406,
      "Ġunderneath": 5407,
      "Ġhurts": 5408,
      "Ġoperation": 5409,
      "ateg": 5410,
      "Ġstranger": 5411,
      "igned": 5412,
      "Ġirish": 5413,
      "enced": 5414,
      "ĠCoun": 5415,
      "Ġsquir": 5416,
      "Ġdish": 5417,
      "Ġpony": 5418,
      "Ġdetective": 5419,
      "Ġald": 5420,
      "Ġsmiled": 5421,
      "Ġcatholic": 5422,
      "Ġhidden": 5423,
      "Ġwitch": 5424,
      "Ġcandid": 5425,
      "ok": 5426,
      "Ġwhats": 5427,
      "Ġkil": 5428,
      "Ġcourage": 5429,
      "Ġbecomes": 5430,
      "Ġwaited": 5431,
      "Ġgil": 5432,
      "urt": 5433,
      "riend": 5434,
      "ressed": 5435,
      "Ġpity": 5436,
      "Ġjean": 5437,
      "Ġbent": 5438,
      "Ġnervous": 5439,
      "Ġguilty": 5440,
      "Ġburning": 5441,
      "ribe": 5442,
      "Ġrolling": 5443,
      "Ġpoison": 5444,
      "Ġlosing": 5445,
      "Ġknees": 5446,
      "Ġbodies": 5447,
      "Ġdozen": 5448,
      "Ġspare": 5449,
      "Ġvictory": 5450,
      "Ġcolour": 5451,
      "Ġsplit": 5452,
      "Ġorganization": 5453,
      "Ġheight": 5454,
      "Ġetc": 5455,
      "Ġnep": 5456,
      "Ġteaching": 5457,
      "Ġgal": 5458,
      "Ġiii": 5459,
      "Ġfart": 5460,
      "stand": 5461,
      "Ġequal": 5462,
      "Ġqueer": 5463,
      "Ġtam": 5464,
      "Ġmans": 5465,
      "Ġchuckles": 5466,
      "Ġwinning": 5467,
      "Ġbecky": 5468,
      "Ġshower": 5469,
      "Ġthousands": 5470,
      "Ġmighty": 5471,
      "Ġpure": 5472,
      "Ġtouched": 5473,
      "Ġtruly": 5474,
      "Ġarthur": 5475,
      "Ġdivor": 5476,
      "ua": 5477,
      "Ġrealized": 5478,
      "Ġencour": 5479,
      "ez": 5480,
      "Ġchim": 5481,
      "Ġnut": 5482,
      "Ġscary": 5483,
      "Ġauthority": 5484,
      "Ġuseta": 5485,
      "Ġreact": 5486,
      "Ġjess": 5487,
      "Ġhearts": 5488,
      "Ġouch": 5489,
      "Ġsorts": 5490,
      "Ġburst": 5491,
      "Ġhipp": 5492,
      "Ġresist": 5493,
      "Ġfestival": 5494,
      "Ġprem": 5495,
      "bec": 5496,
      "Ġstreets": 5497,
      "umn": 5498,
      "Ġcritic": 5499,
      "Ġsource": 5500,
      "Ġ1988": 5501,
      "Ġrequest": 5502,
      "14": 5503,
      "Ġ32": 5504,
      "rom": 5505,
      "Ġdrugs": 5506,
      "Ġdrawn": 5507,
      "Ġlegal": 5508,
      "Ġpengu": 5509,
      "Ġadmit": 5510,
      "Ġconserv": 5511,
      "Ġsteve": 5512,
      "hips": 5513,
      "Ġpy": 5514,
      "Ġken": 5515,
      "tained": 5516,
      "Ġchanging": 5517,
      "thew": 5518,
      "Ġhomes": 5519,
      "Ġfields": 5520,
      "Ġding": 5521,
      "Ġzealand": 5522,
      "istry": 5523,
      "Ġrecording": 5524,
      "Ġod": 5525,
      "inting": 5526,
      "Ġamericans": 5527,
      "oring": 5528,
      "Ġexchan": 5529,
      "Ġsixteen": 5530,
      "Ġfigures": 5531,
      "Ġjeann": 5532,
      "Ġtrousers": 5533,
      "17": 5534,
      "Ġgat": 5535,
      "Ġlap": 5536,
      "arian": 5537,
      "Ġ1991": 5538,
      "Ġexciting": 5539,
      "Ġcurious": 5540,
      "Ġhumans": 5541,
      "Ġjac": 5542,
      "Ġ60": 5543,
      "Ġinspect": 5544,
      "gency": 5545,
      "Ġmcdonald": 5546,
      "Ġtemperature": 5547,
      "Ġec": 5548,
      "umber": 5549,
      "Ġbricks": 5550,
      "Ġjacket": 5551,
      "bble": 5552,
      "Ġdip": 5553,
      "Ġexpensive": 5554,
      "Ġchairman": 5555,
      "Ġwished": 5556,
      "py": 5557,
      "Ġcough": 5558,
      "Ġextend": 5559,
      "Ġhunt": 5560,
      "ador": 5561,
      "gers": 5562,
      "Ġlege": 5563,
      "Ġreplaced": 5564,
      "Ġtale": 5565,
      "hol": 5566,
      "Ġrecom": 5567,
      "Ġpresents": 5568,
      "Ġapples": 5569,
      "Ġ1993": 5570,
      "Ġdetermined": 5571,
      "Ġtrunk": 5572,
      "Ġuniverse": 5573,
      "iber": 5574,
      "Ġtend": 5575,
      "Ġdebut": 5576,
      "Ġflash": 5577,
      "Ġpiano": 5578,
      "Ġcarriage": 5579,
      "Ġvic": 5580,
      "Ġcaroline": 5581,
      "Ġpoliceman": 5582,
      "Ġmechan": 5583,
      "Ġsplend": 5584,
      "Ġdecor": 5585,
      "Ġtemple": 5586,
      "Ġeighteen": 5587,
      "Ġwashed": 5588,
      "ĠWh": 5589,
      "Ġbra": 5590,
      "Ġquality": 5591,
      "Ġstomach": 5592,
      "Ġhandsome": 5593,
      "Ġbeans": 5594,
      "Ġdelicious": 5595,
      "eding": 5596,
      "Ġugly": 5597,
      "Ġfu": 5598,
      "Ġpud": 5599,
      "itan": 5600,
      "Ġtropical": 5601,
      "Ġeric": 5602,
      "Ġclouds": 5603,
      "13": 5604,
      "Ġwire": 5605,
      "Ġvot": 5606,
      "Ġprisoners": 5607,
      "Ġpilot": 5608,
      "Ġtin": 5609,
      "ĠWho": 5610,
      "Ġwaters": 5611,
      "Ġts": 5612,
      "Ġinvited": 5613,
      "Ġunit": 5614,
      "Ġtu": 5615,
      "Ġwing": 5616,
      "Ġka": 5617,
      "Ġapolog": 5618,
      "enth": 5619,
      "now": 5620,
      "Ġtechnology": 5621,
      "Ġconcent": 5622,
      "Ġdesigned": 5623,
      "Ġdoctors": 5624,
      "Ġrug": 5625,
      "Ġjulia": 5626,
      "Ġsole": 5627,
      "Ġpicnic": 5628,
      "Ġaid": 5629,
      "Ġturtle": 5630,
      "ault": 5631,
      "imate": 5632,
      "Ġliqu": 5633,
      "Ġfan": 5634,
      "Ġinha": 5635,
      "Ġax": 5636,
      "Ġhadta": 5637,
      "Ġcreature": 5638,
      "Ġdemanded": 5639,
      "Ġinvol": 5640,
      "Ġbasically": 5641,
      "Ġfortun": 5642,
      "Ġelder": 5643,
      "aboo": 5644,
      "..?": 5645,
      "Ġdesper": 5646,
      "Ġawww": 5647,
      "Ġdawn": 5648,
      "Ġcooper": 5649,
      "col": 5650,
      "Ġdum": 5651,
      "Ġpattern": 5652,
      "Ġgeorg": 5653,
      "osen": 5654,
      "Ġpicking": 5655,
      "Ġscreaming": 5656,
      "Ġll": 5657,
      "Ġfourteen": 5658,
      "Ġsignific": 5659,
      "affe": 5660,
      "Ġdude": 5661,
      "cture": 5662,
      "Ġages": 5663,
      "Ġawake": 5664,
      "Ġadventure": 5665,
      "Ġdaisy": 5666,
      "Ġfunction": 5667,
      "Ġchairs": 5668,
      "Ġtreated": 5669,
      "Ġbelongs": 5670,
      "Ġlonely": 5671,
      "Ġalarm": 5672,
      "Ġboxes": 5673,
      "Ġslept": 5674,
      "Ġheav": 5675,
      "ĠOoh": 5676,
      "Ġswitch": 5677,
      "ima": 5678,
      "Ġapartment": 5679,
      "Ġnights": 5680,
      "Ġshadow": 5681,
      "Ġshouting": 5682,
      "Ġinterrupt": 5683,
      "Ġarts": 5684,
      "ĠJohn": 5685,
      "Ġterritory": 5686,
      "Ġsoph": 5687,
      "Ġsteady": 5688,
      "Ġminor": 5689,
      "Ġ1989": 5690,
      "Ġchampion": 5691,
      "Ġscratch": 5692,
      "Ġcord": 5693,
      "lfriend": 5694,
      "Ġprovide": 5695,
      "Ġmajesty": 5696,
      "Ġpowers": 5697,
      "bc": 5698,
      "Ġugh": 5699,
      "Ġladder": 5700,
      "Ġjar": 5701,
      "apped": 5702,
      "ppy": 5703,
      "Ġcolon": 5704,
      "rences": 5705,
      "Ġchemical": 5706,
      "Ġanton": 5707,
      "Ġsem": 5708,
      "Ġordinary": 5709,
      "Ġwhisper": 5710,
      "',": 5711,
      "fish": 5712,
      "Ġbrian": 5713,
      "Ġroles": 5714,
      "Ġpriest": 5715,
      "Ġcharl": 5716,
      "Ġlatter": 5717,
      "hand": 5718,
      "Ġsuck": 5719,
      "bled": 5720,
      "Ġrum": 5721,
      "Ġpregn": 5722,
      "Ġjimmie": 5723,
      "Ġguest": 5724,
      "Ġmaria": 5725,
      "Ġactual": 5726,
      "Ġmolly": 5727,
      "Ġcruel": 5728,
      "ji": 5729,
      "Ġrag": 5730,
      "Ġrejo": 5731,
      "Ġdonald": 5732,
      "ĠGo": 5733,
      "ito": 5734,
      "Ġdaniel": 5735,
      "Ġwrestling": 5736,
      "itz": 5737,
      "Ġconditions": 5738,
      "Ġwore": 5739,
      "Ġped": 5740,
      "Ġexpression": 5741,
      "Ġcounter": 5742,
      "Ġplot": 5743,
      "lers": 5744,
      "Ġcave": 5745,
      "Ġpages": 5746,
      "Ġshook": 5747,
      "lim": 5748,
      "Ġpurse": 5749,
      "Ġwaves": 5750,
      "Ġmole": 5751,
      "Ġdaily": 5752,
      "case": 5753,
      "Ġgods": 5754,
      "Ġbasketball": 5755,
      "Ġdesert": 5756,
      "Ġhelps": 5757,
      "Ġdemon": 5758,
      "hetti": 5759,
      "Ġdey": 5760,
      "40": 5761,
      "Ġpigs": 5762,
      "Ġenjoyed": 5763,
      "stein": 5764,
      "aming": 5765,
      "Ġstructure": 5766,
      "Ġjenn": 5767,
      "nah": 5768,
      "gery": 5769,
      "Ġdorothy": 5770,
      "Ġoblig": 5771,
      "Ġreven": 5772,
      "Ġpeanut": 5773,
      "ulated": 5774,
      "Ġaside": 5775,
      "Ġadvantage": 5776,
      "water": 5777,
      "Ġchosen": 5778,
      "Ġprevious": 5779,
      "Ġschol": 5780,
      "Ġsquee": 5781,
      "Ġpha": 5782,
      "Ġgiraffe": 5783,
      "Ġbadly": 5784,
      "ĠBecause": 5785,
      "Ġsexual": 5786,
      "Ġslave": 5787,
      "Ġducks": 5788,
      "Ġintroduced": 5789,
      "Ġconqu": 5790,
      "Ġremoved": 5791,
      "engers": 5792,
      "Ġphysical": 5793,
      "utive": 5794,
      "Ġsaving": 5795,
      "Ġoldest": 5796,
      "Ġpunch": 5797,
      "Ġplastic": 5798,
      "Ġcontrib": 5799,
      "Ġstudies": 5800,
      "Ġtransfer": 5801,
      "nda": 5802,
      "Ġtreatment": 5803,
      "Ġmicrophone": 5804,
      "utions": 5805,
      "asp": 5806,
      "Ġpoorly": 5807,
      "Ġfel": 5808,
      "Ġunif": 5809,
      "Ġalto": 5810,
      "Ġhoping": 5811,
      "ception": 5812,
      "Ġsuffe": 5813,
      "Ġaffairs": 5814,
      "Ġwand": 5815,
      "Ġarrow": 5816,
      "Ġduke": 5817,
      "Ġambul": 5818,
      "Ġassembly": 5819,
      "dh": 5820,
      "Ġpip": 5821,
      "Ġattacked": 5822,
      "Ġincrease": 5823,
      "Ġexperien": 5824,
      "Ġplanned": 5825,
      "Ġflore": 5826,
      "Ġdarkness": 5827,
      "Ġunus": 5828,
      "icted": 5829,
      "Ġlucy": 5830,
      "Ġnons": 5831,
      "esh": 5832,
      "Ġsenior": 5833,
      "tar": 5834,
      "Ġmatt": 5835,
      "Ġrachel": 5836,
      "Ġupside": 5837,
      "see": 5838,
      "Ġincred": 5839,
      "Ġpropos": 5840,
      "Ġnoble": 5841,
      "Ġspag": 5842,
      "Ġsigns": 5843,
      "Ġselling": 5844,
      "Ġpeekaboo": 5845,
      "Ġdot": 5846,
      "Ġparties": 5847,
      "Ġtun": 5848,
      "Ġconference": 5849,
      "Ġshops": 5850,
      "Ġtunnel": 5851,
      "ello": 5852,
      "Ġhee": 5853,
      "Ġtender": 5854,
      "Ġpale": 5855,
      "Ġmarks": 5856,
      "Ġcraft": 5857,
      "Ġstrawberry": 5858,
      "Ġappointed": 5859,
      "Ġbubbles": 5860,
      "Ġshed": 5861,
      "Ġteen": 5862,
      "Ġdesk": 5863,
      "Ġappears": 5864,
      "Ġsequ": 5865,
      "ĠAny": 5866,
      "Ġgim": 5867,
      "Ġproduce": 5868,
      "Ġscare": 5869,
      "Ġharder": 5870,
      "Ġenem": 5871,
      "Ġlaught": 5872,
      "isl": 5873,
      "Ġholly": 5874,
      "Ġtiss": 5875,
      "Ġclap": 5876,
      "Ġwoke": 5877,
      "Ġgranddad": 5878,
      "Ġavoid": 5879,
      "acle": 5880,
      "Ġthirteen": 5881,
      "Ġsup": 5882,
      "Ġeats": 5883,
      "Ġincident": 5884,
      "Ġhoo": 5885,
      "Ġwondered": 5886,
      "Ġchain": 5887,
      "Ġsmooth": 5888,
      "opter": 5889,
      "Ġcircus": 5890,
      "16": 5891,
      "Ġvictim": 5892,
      "car": 5893,
      "onse": 5894,
      "Ġrooms": 5895,
      "Ġmickey": 5896,
      "Ġmistress": 5897,
      "Ġnations": 5898,
      "Ġcouldnt": 5899,
      "Ġtyp": 5900,
      "ching": 5901,
      "Ġsomethin": 5902,
      "Ġbreast": 5903,
      "Ġsetting": 5904,
      "Ġsergeant": 5905,
      "Ġmak": 5906,
      "Ġhers": 5907,
      "usted": 5908,
      "Ġproducer": 5909,
      "bi": 5910,
      "Ġpeggy": 5911,
      "Ġcontent": 5912,
      "Ġinnocent": 5913,
      "Ġwars": 5914,
      "Ġhut": 5915,
      "Ġemergency": 5916,
      "Ġfier": 5917,
      "Ġlanded": 5918,
      "Ġlin": 5919,
      "Ġsupply": 5920,
      "Ġcud": 5921,
      "Ġgina": 5922,
      "Ġrescue": 5923,
      "Ġwalter": 5924,
      "Ġroute": 5925,
      "Ġanth": 5926,
      "Ġcompanion": 5927,
      "Ġdocument": 5928,
      "Ġsevere": 5929,
      "Ġgirlfriend": 5930,
      "Ġremains": 5931,
      "ĠAye": 5932,
      "Ġmatthew": 5933,
      "Ġrobin": 5934,
      "ele": 5935,
      "Ġcheap": 5936,
      "writer": 5937,
      "Ġlaughter": 5938,
      "Ġridic": 5939,
      "Ġbrick": 5940,
      "inned": 5941,
      "Ġrif": 5942,
      "Ġkiller": 5943,
      "Ġspark": 5944,
      "anches": 5945,
      "Ġbelief": 5946,
      "Ġmarie": 5947,
      "Ġhousehold": 5948,
      "Ġrecognize": 5949,
      "Ġ1984": 5950,
      "Ġcells": 5951,
      "reck": 5952,
      "Ġcliff": 5953,
      "Ġtournam": 5954,
      "aring": 5955,
      "Ġrhy": 5956,
      "Ġexplos": 5957,
      "Ġdefend": 5958,
      "Ġsweden": 5959,
      "Ġchess": 5960,
      "formed": 5961,
      "Ġbuying": 5962,
      "Ġwounded": 5963,
      "Ġjackson": 5964,
      "Ġfleet": 5965,
      "Ġ1950": 5966,
      "Ġnether": 5967,
      "Ġmyth": 5968,
      "Ġbackground": 5969,
      "Ġlic": 5970,
      "Ġaccepted": 5971,
      "Ġmig": 5972,
      "Ġshoulders": 5973,
      "Ġcongrat": 5974,
      "Ġfate": 5975,
      "Ġflow": 5976,
      "Ġweapon": 5977,
      "Ġcollection": 5978,
      "Ġlessons": 5979,
      "Ġsnap": 5980,
      "Ġgrapes": 5981,
      "alled": 5982,
      "Ġ500": 5983,
      "otte": 5984,
      "Ġcomplex": 5985,
      "Ġlesson": 5986,
      "Ġappreciate": 5987,
      "orter": 5988,
      "Ġseek": 5989,
      "Ġmomma": 5990,
      "Ġdisney": 5991,
      "ointment": 5992,
      "Ġsneak": 5993,
      "Ġjunior": 5994,
      "Ġpas": 5995,
      "Ġadvance": 5996,
      "Ġconnected": 5997,
      "Ġmars": 5998,
      "Ġconstant": 5999,
      "Ġaltern": 6000,
      "Ġprovided": 6001,
      "Ġcaptured": 6002,
      "Ġteachers": 6003,
      "Ġarrested": 6004,
      "Ġputs": 6005,
      "Ġhelic": 6006,
      "Ġspaghetti": 6007,
      "hs": 6008,
      "Ġsooner": 6009,
      "ture": 6010,
      "emic": 6011,
      "Ġmustn": 6012,
      "Ġissues": 6013,
      "Ġfinan": 6014,
      "Ġstands": 6015,
      "erves": 6016,
      "Ġselected": 6017,
      "Ġdol": 6018,
      "cho": 6019,
      "Ġbron": 6020,
      "Ġdiss": 6021,
      "Ġpiggy": 6022,
      "alous": 6023,
      "Ġbass": 6024,
      "Ġcircumstances": 6025,
      "has": 6026,
      "Ġidiot": 6027,
      "Ġhurried": 6028,
      "Ġcurtain": 6029,
      "Ġrequired": 6030,
      "Ġscrap": 6031,
      "Ġbaba": 6032,
      "Ġtracks": 6033,
      "ani": 6034,
      "Ġconsequ": 6035,
      "Ġoliver": 6036,
      "Ġtrump": 6037,
      "Ġnavy": 6038,
      "Ġforb": 6039,
      "ams": 6040,
      "Ġarmed": 6041,
      "Ġslip": 6042,
      "Ġportug": 6043,
      "Ġlabor": 6044,
      "Ġsolid": 6045,
      "Ġalas": 6046,
      "Ġextremely": 6047,
      "with": 6048,
      "Ġrising": 6049,
      "Ġunlike": 6050,
      "Ġpride": 6051,
      "Ġsusan": 6052,
      "Ġweb": 6053,
      "Ġsale": 6054,
      "Ġslightly": 6055,
      "Ġtrian": 6056,
      "acks": 6057,
      "Ġvoices": 6058,
      "Ġarchite": 6059,
      "enger": 6060,
      "Ġalf": 6061,
      "Ġgotten": 6062,
      "Ġdrown": 6063,
      "Ġraining": 6064,
      "Ġtrucks": 6065,
      "Ġ1987": 6066,
      "Ġfork": 6067,
      "Ġbrid": 6068,
      "aren": 6069,
      "keys": 6070,
      "Ġhighly": 6071,
      "Ġentertainment": 6072,
      "Ġsally": 6073,
      "Ġmethod": 6074,
      "Ġwealth": 6075,
      "ague": 6076,
      "Ġscen": 6077,
      "ieved": 6078,
      "Ġrecent": 6079,
      "Ġtask": 6080,
      "Ġeconomic": 6081,
      "Ġcups": 6082,
      "Ġ1972": 6083,
      "Ġimprove": 6084,
      "iece": 6085,
      "Ġworkers": 6086,
      "Ġeddie": 6087,
      "illing": 6088,
      "Ġexcit": 6089,
      "Ġale": 6090,
      "Ġwarning": 6091,
      "Ġbroadcast": 6092,
      "Ġstad": 6093,
      "Ġginger": 6094,
      "Ġprotection": 6095,
      "Ġambulance": 6096,
      "umed": 6097,
      "inky": 6098,
      "zo": 6099,
      "Ġmathem": 6100,
      "iw": 6101,
      "ĠOr": 6102,
      "Ġrefused": 6103,
      "Ġdolls": 6104,
      "Ġdanny": 6105,
      "rial": 6106,
      "Ġboot": 6107,
      "Ġpoll": 6108,
      "ĠAn": 6109,
      "Ġ185": 6110,
      "hus": 6111,
      "Ġrequire": 6112,
      "Ġowe": 6113,
      "Ġgoods": 6114,
      "icide": 6115,
      "Ġflood": 6116,
      "Ġmothers": 6117,
      "Ġiran": 6118,
      "Ġhump": 6119,
      "Ġchamber": 6120,
      "Ġpond": 6121,
      "Ġrand": 6122,
      "Ġspots": 6123,
      "Ġbelt": 6124,
      "Ġpointed": 6125,
      "Ġ1986": 6126,
      "Ġaccompan": 6127,
      "Ġwag": 6128,
      "Ġsplash": 6129,
      "Ġtraditional": 6130,
      "Ġbuttons": 6131,
      "ili": 6132,
      "Ġspect": 6133,
      "Ġbund": 6134,
      "Ġsplendid": 6135,
      "Ġbegins": 6136,
      "Ġ35": 6137,
      "Ġoop": 6138,
      "ĠGood": 6139,
      "Ġpillow": 6140,
      "Ġgoals": 6141,
      "athy": 6142,
      "Ġengaged": 6143,
      "Ġringing": 6144,
      "uous": 6145,
      "Ġwarren": 6146,
      "Ġinstant": 6147,
      "bar": 6148,
      "Ġproved": 6149,
      "Ġswall": 6150,
      "Ġsche": 6151,
      "Ġdesce": 6152,
      "Ġsunsh": 6153,
      "issa": 6154,
      "Ġvirginia": 6155,
      "Ġeffects": 6156,
      "Ġaffair": 6157,
      "Ġnetherlands": 6158,
      "Ġgathered": 6159,
      "iqu": 6160,
      "Ġee": 6161,
      "Ġcauses": 6162,
      "Ġgrandad": 6163,
      "Ġpotatoes": 6164,
      "Ġarrang": 6165,
      "Ġms": 6166,
      "erable": 6167,
      "onia": 6168,
      "Ġjr": 6169,
      "hamed": 6170,
      "Ġuns": 6171,
      "Ġgreatly": 6172,
      "Ġaudience": 6173,
      "Ġjeannine": 6174,
      "omed": 6175,
      "inson": 6176,
      "Ġwooden": 6177,
      "vid": 6178,
      "Ġpipe": 6179,
      "Ġelectron": 6180,
      "Ġdifficulty": 6181,
      "Ġryan": 6182,
      "hew": 6183,
      "keep": 6184,
      "Ġded": 6185,
      "Ġgrate": 6186,
      "Ġrecognized": 6187,
      "Ġaltogether": 6188,
      "rative": 6189,
      "Ġtan": 6190,
      "Ġcig": 6191,
      "Ġlick": 6192,
      "Ġasia": 6193,
      "Ġhundreds": 6194,
      "Ġticket": 6195,
      "Ġyards": 6196,
      "Ġsending": 6197,
      "Ġoven": 6198,
      "Ġsuppl": 6199,
      "Ġguide": 6200,
      "ruct": 6201,
      "Ġbann": 6202,
      "Ġsuffered": 6203,
      "Ġholl": 6204,
      "Ġburned": 6205,
      "Ġflorence": 6206,
      "'?": 6207,
      "ading": 6208,
      "Ġdelay": 6209,
      "wald": 6210,
      "Ġescaped": 6211,
      "Ġmood": 6212,
      "Ġclay": 6213,
      "Ġmanagement": 6214,
      "Ġstole": 6215,
      "Ġja": 6216,
      "Ġprisoner": 6217,
      "Ġcereal": 6218,
      "Ġchart": 6219,
      "Ġnonsense": 6220,
      "Ġbord": 6221,
      "aine": 6222,
      "Ġunf": 6223,
      "Ġweve": 6224,
      "Ġdisappear": 6225,
      "Ġmmhm": 6226,
      "Ġjohnny": 6227,
      "Ġinterp": 6228,
      "Ġbritain": 6229,
      "Ġdies": 6230,
      "Ġpushing": 6231,
      "iev": 6232,
      "Ġrelief": 6233,
      "Ġdeput": 6234,
      "Ġbishop": 6235,
      "Ġspite": 6236,
      "ĠAs": 6237,
      "Ġstatement": 6238,
      "Ġapproach": 6239,
      "Ġenemies": 6240,
      "Ġbranches": 6241,
      "Ġshark": 6242,
      "Ġbitter": 6243,
      "Ġannie": 6244,
      "Ġcontinues": 6245,
      "Ġdetails": 6246,
      "Ġtag": 6247,
      "Ġcass": 6248,
      "Ġfile": 6249,
      "Ġlately": 6250,
      "Ġcrocodile": 6251,
      "Ġbelg": 6252,
      "Ġdea": 6253,
      "Ġaustria": 6254,
      "Ġpeak": 6255,
      "Ġtuck": 6256,
      "iture": 6257,
      "Ġinhabit": 6258,
      "Ġtuesday": 6259,
      "Ġchampionships": 6260,
      "ev": 6261,
      "Ġstol": 6262,
      "Ġbrig": 6263,
      "Ġdepends": 6264,
      "Ġinstruct": 6265,
      "Ġsymbol": 6266,
      "Ġwhoever": 6267,
      "Ġspin": 6268,
      "rier": 6269,
      "Ġexha": 6270,
      "Ġnoisy": 6271,
      "Ġrick": 6272,
      "Ġ1976": 6273,
      "Ġresponse": 6274,
      "xy": 6275,
      "urally": 6276,
      "22": 6277,
      "Ġbible": 6278,
      "Ġmerchan": 6279,
      "Ġclimbing": 6280,
      "Ġtowel": 6281,
      "Ġ1981": 6282,
      "hum": 6283,
      "Ġpron": 6284,
      "Ġmarc": 6285,
      "Ġbeneath": 6286,
      "Ġmeow": 6287,
      "Ġproof": 6288,
      "Ġhydro": 6289,
      "60": 6290,
      "Ġbun": 6291,
      "Ġlemon": 6292,
      "Ġbackwards": 6293,
      "Ġsuffer": 6294,
      "Ġscarcely": 6295,
      "Ġconce": 6296,
      "cala": 6297,
      "Ġelement": 6298,
      "Ġdevil": 6299,
      "Ġanc": 6300,
      "Ġmabel": 6301,
      "rose": 6302,
      "Ġrestaurant": 6303,
      "Ġnancy": 6304,
      "ĠCouncil": 6305,
      "bage": 6306,
      "Ġcott": 6307,
      "elled": 6308,
      "Ġsausage": 6309,
      "Ġalexander": 6310,
      "Ġexcitement": 6311,
      "Ġcolumb": 6312,
      "Ġsyd": 6313,
      "Ġfailure": 6314,
      "Ġparish": 6315,
      "Ġak": 6316,
      "Ġdisg": 6317,
      "Ġsylv": 6318,
      "ĠAll": 6319,
      "Ġflu": 6320,
      "bin": 6321,
      "Ġjason": 6322,
      "Ġpainted": 6323,
      "Ġopera": 6324,
      "tis": 6325,
      "Ġrivers": 6326,
      "Ġpassengers": 6327,
      "Ġdiscover": 6328,
      "cies": 6329,
      "rr": 6330,
      "yard": 6331,
      "Ġandrew": 6332,
      "Ġexercise": 6333,
      "opl": 6334,
      "Ġwarri": 6335,
      "Ġclar": 6336,
      "Ġslipp": 6337,
      "stone": 6338,
      "Ġmurm": 6339,
      "Ġsenate": 6340,
      "Ġintended": 6341,
      "Ġletting": 6342,
      "Ġpope": 6343,
      "Ġfathers": 6344,
      "Ġkissed": 6345,
      "Ġkorea": 6346,
      "Ġnominated": 6347,
      "Ġsunshine": 6348,
      "Ġvii": 6349,
      "Ġadvert": 6350,
      "Ġcricket": 6351,
      "Ġcad": 6352,
      "Ġexhib": 6353,
      "Ġbug": 6354,
      "Ġslaves": 6355,
      "Ġannoy": 6356,
      "Ġsorrow": 6357,
      "Ġcann": 6358,
      "chest": 6359,
      "Ġ1979": 6360,
      "rican": 6361,
      "Ġlane": 6362,
      "Ġvice": 6363,
      "Ġcomr": 6364,
      "Ġdoesnt": 6365,
      "Ġmoments": 6366,
      "Ġincreased": 6367,
      "sect": 6368,
      "Ġbrings": 6369,
      "Ġeconomy": 6370,
      "Ġchip": 6371,
      "Ġpole": 6372,
      "Ġ80": 6373,
      "Ġfalse": 6374,
      "Ġphilipp": 6375,
      "Ġresponsibility": 6376,
      "Ġwra": 6377,
      "Ġalm": 6378,
      "five": 6379,
      "Ġcage": 6380,
      "Ġ1985": 6381,
      "Ġshining": 6382,
      "aph": 6383,
      "Ġromantic": 6384,
      "Ġsales": 6385,
      "Ġker": 6386,
      "Ġmurd": 6387,
      "Ġchew": 6388,
      "Ġlads": 6389,
      "Ġrode": 6390,
      "Ġstadium": 6391,
      "Ġpolitics": 6392,
      "Ġanyhow": 6393,
      "Ġstrang": 6394,
      "Ġmunicipal": 6395,
      "Ġcarrots": 6396,
      "lock": 6397,
      "Ġchose": 6398,
      "Ġhappiness": 6399,
      "Ġbaa": 6400,
      "Ġsleepy": 6401,
      "Ġoy": 6402,
      "Ġhurrican": 6403,
      "Ġcents": 6404,
      "Ġko": 6405,
      "Ġplates": 6406,
      "iy": 6407,
      "Ġaz": 6408,
      "Ġkent": 6409,
      "Ġability": 6410,
      "Ġpays": 6411,
      "Ġgree": 6412,
      "Ġquant": 6413,
      "Ġprecious": 6414,
      "Ġsteel": 6415,
      "Ġlocation": 6416,
      "while": 6417,
      "Ġseats": 6418,
      "Ġunits": 6419,
      "ailed": 6420,
      "Ġbold": 6421,
      "Ġdollar": 6422,
      "Ġwagon": 6423,
      "Ġoak": 6424,
      "Ġresour": 6425,
      "Ġjealous": 6426,
      "Ġsatisfied": 6427,
      "Ġwww": 6428,
      "Ġfinds": 6429,
      "Ġequip": 6430,
      "quarters": 6431,
      "tes": 6432,
      "Ġislam": 6433,
      "Ġdishes": 6434,
      "Ġevidently": 6435,
      "aws": 6436,
      "Ġturk": 6437,
      "Ġridiculous": 6438,
      "Ġbasic": 6439,
      "ression": 6440,
      "orted": 6441,
      "Ġsched": 6442,
      "Ġcontest": 6443,
      "Ġcrab": 6444,
      "izes": 6445,
      "Ġau": 6446,
      "Ġwicked": 6447,
      "Ġhavent": 6448,
      "Ġpul": 6449,
      "Ġroads": 6450,
      "Ġcrossed": 6451,
      "Ġthorough": 6452,
      "Ġgained": 6453,
      "Ġearnest": 6454,
      "Ġgreg": 6455,
      "Ġnearer": 6456,
      "Ġ1983": 6457,
      "Ġsentence": 6458,
      "Ġtak": 6459,
      "Ġpolish": 6460,
      "eration": 6461,
      "Ġregret": 6462,
      "Ġassistant": 6463,
      "Ġarticle": 6464,
      "Ġrelative": 6465,
      "Ġunknown": 6466,
      "Ġrene": 6467,
      "Ġconstitution": 6468,
      "Ġboyfriend": 6469,
      "Ġens": 6470,
      "ounds": 6471,
      "Ġclosely": 6472,
      "Ġnapp": 6473,
      "Ġoccurred": 6474,
      "Ġanal": 6475,
      "Ġsticks": 6476,
      "Ġpirate": 6477,
      "Ġabe": 6478,
      "ships": 6479,
      "Ġbudget": 6480,
      "mers": 6481,
      "omy": 6482,
      "iders": 6483,
      "Ġliz": 6484,
      "Ġcoco": 6485,
      "Ġfactory": 6486,
      "Ġlifted": 6487,
      "Ġsock": 6488,
      "Ġglor": 6489,
      "Ġthursday": 6490,
      "Ġmoves": 6491,
      "Ġsixth": 6492,
      "Ġsandy": 6493,
      "Ġcommonly": 6494,
      "Ġcontains": 6495,
      "Ġfab": 6496,
      "Ġkate": 6497,
      "Ġbees": 6498,
      "Ġrust": 6499,
      "Ġdisplay": 6500,
      "bird": 6501,
      "Ġstepped": 6502,
      "Ġsettlement": 6503,
      "rot": 6504,
      "Ġpile": 6505,
      "Ġdespite": 6506,
      "Ġmathemat": 6507,
      "Ġmadame": 6508,
      "Ġaven": 6509,
      "Ġbelly": 6510,
      "Ġartists": 6511,
      "Ġlimited": 6512,
      "Ġmagnet": 6513,
      "Ġbastard": 6514,
      "Ġyoull": 6515,
      "45": 6516,
      "chair": 6517,
      "Ġmarked": 6518,
      "Ġconfl": 6519,
      "aurs": 6520,
      "bell": 6521,
      "amer": 6522,
      "Ġcou": 6523,
      "Ġlemme": 6524,
      "Ġsel": 6525,
      "Ġvoc": 6526,
      "Ġblowing": 6527,
      "calais": 6528,
      "Ġwrit": 6529,
      "Ġelectr": 6530,
      "Ġseas": 6531,
      "Ġjoint": 6532,
      "Ġmerc": 6533,
      "Ġstronger": 6534,
      "Ġmystery": 6535,
      "ira": 6536,
      "Ġengines": 6537,
      "decalais": 6538,
      "Ġnuclear": 6539,
      "athan": 6540,
      "Ġath": 6541,
      "Ġpointing": 6542,
      "Ġbarbara": 6543,
      "Ġkindly": 6544,
      "Ġlistened": 6545,
      "ologist": 6546,
      "ami": 6547,
      "Ġsalad": 6548,
      "Ġwilliams": 6549,
      "Ġconfirmed": 6550,
      "Ġreality": 6551,
      "Ġexamples": 6552,
      "Ġwinds": 6553,
      "po": 6554,
      "Ġwinnie": 6555,
      "Ġfits": 6556,
      "Ġsauce": 6557,
      "Ġprimary": 6558,
      "Ġtidy": 6559,
      "Ġwasnt": 6560,
      "Ġcreatures": 6561,
      "Ġmajority": 6562,
      "Ġglory": 6563,
      "Ġ1982": 6564,
      "Ġtheatre": 6565,
      "ulate": 6566,
      "Ġ1974": 6567,
      "org": 6568,
      "Ġdirt": 6569,
      "Ġrude": 6570,
      "Ġcompared": 6571,
      "Ġpassion": 6572,
      "mouth": 6573,
      "Ġchristopher": 6574,
      "ridge": 6575,
      "Ġwales": 6576,
      "Ġadmitted": 6577,
      "inated": 6578,
      "Ġcreek": 6579,
      "alo": 6580,
      "Ġlett": 6581,
      "Ġpitch": 6582,
      "Ġky": 6583,
      "eable": 6584,
      "ufact": 6585,
      "Ġrubbish": 6586,
      "Ġbos": 6587,
      "Ġtools": 6588,
      "Ġseasons": 6589,
      "Ġtorn": 6590,
      "Ġpermission": 6591,
      "Ġmcdonalds": 6592,
      "Ġgimme": 6593,
      "Ġbillion": 6594,
      "Ġjewish": 6595,
      "Ġcitizens": 6596,
      "burgh": 6597,
      "Ġinstitute": 6598,
      "ctions": 6599,
      "rie": 6600,
      "Ġthumb": 6601,
      "Ġinstance": 6602,
      "agan": 6603,
      "was": 6604,
      "Ġashamed": 6605,
      "Ġnorthwest": 6606,
      "Ġgeography": 6607,
      "Ġcouch": 6608,
      "apers": 6609,
      "Ġchilds": 6610,
      "Ġrocket": 6611,
      "Ġ90": 6612,
      "Ġdistributed": 6613,
      "Ġhoped": 6614,
      "Ġancest": 6615,
      "kel": 6616,
      "Ġzero": 6617,
      "Ġproposed": 6618,
      "Ġeagerly": 6619,
      "Ġark": 6620,
      "Ġfever": 6621,
      "Ġexperiment": 6622,
      "Ġdiag": 6623,
      "aid": 6624,
      "oard": 6625,
      "Ġbea": 6626,
      "Ġcarbon": 6627,
      "Ġofficially": 6628,
      "Ġsuffering": 6629,
      "Ġsailor": 6630,
      "Ġtournament": 6631,
      "Ġanch": 6632,
      "azz": 6633,
      "Ġinquired": 6634,
      "Ġaircraft": 6635,
      "Ġrepublican": 6636,
      "Ġnab": 6637,
      "Ġcleaning": 6638,
      "Ġprincipal": 6639,
      "Ġsquad": 6640,
      "Ġmath": 6641,
      "Ġhelicopter": 6642,
      "Ġpersons": 6643,
      "Ġmanufact": 6644,
      "Ġhealthy": 6645,
      "Ġphotograph": 6646,
      "Ġnuts": 6647,
      "aria": 6648,
      "Ġcanton": 6649,
      "eps": 6650,
      "Ġelev": 6651,
      "Ġphilip": 6652,
      "Ġsoftly": 6653,
      "Ġunusual": 6654,
      "Ġfinancial": 6655,
      "Ġaston": 6656,
      "Ġcwww": 6657,
      "Ġconsult": 6658,
      "Ġdumb": 6659,
      "Ġpoly": 6660,
      "Ġreward": 6661,
      "Ġconfidence": 6662,
      "pot": 6663,
      "Ġcomplain": 6664,
      "Ġalbums": 6665,
      "Ġequipment": 6666,
      "Ġcarpet": 6667,
      "Ġprior": 6668,
      "Ġnaz": 6669,
      "Ġworn": 6670,
      "Ġpepper": 6671,
      "Ġ1978": 6672,
      "Ġneighborhood": 6673,
      "ishes": 6674,
      "Ġreports": 6675,
      "Ġcosts": 6676,
      "Ġprogramme": 6677,
      "ĠAlright": 6678,
      "Ġmobile": 6679,
      "pers": 6680,
      "chool": 6681,
      "Ġguests": 6682,
      "Ġlegend": 6683,
      "Ġwherever": 6684,
      "Ġmuff": 6685,
      "Ġdescription": 6686,
      "Ġconnection": 6687,
      "Ġprovin": 6688,
      "Ġcompleted": 6689,
      "lines": 6690,
      "Ġinsurance": 6691,
      "Ġdescribe": 6692,
      "Ġspirits": 6693,
      "Ġvolume": 6694,
      "Ġachieve": 6695,
      "Ġembarr": 6696,
      "Ġsylvia": 6697,
      "tie": 6698,
      "hair": 6699,
      "geous": 6700,
      "Ġpassage": 6701,
      "Ġfoolish": 6702,
      "Ġinhabitants": 6703,
      "Ġfaint": 6704,
      "Ġservant": 6705,
      "Ġtribe": 6706,
      "Ġcakes": 6707,
      "atherine": 6708,
      "Ġlands": 6709,
      "Ġwebs": 6710,
      "Ġclient": 6711,
      "Ġpresented": 6712,
      "Ġindependence": 6713,
      "Ġrear": 6714,
      "Ġpurcha": 6715,
      "Ġ1968": 6716,
      "Ġ300": 6717,
      "Ġcycl": 6718,
      "Ġaccompl": 6719,
      "uals": 6720,
      "wide": 6721,
      "Ġvirt": 6722,
      "Ġembarrass": 6723,
      "Ġ1975": 6724,
      "Ġ1977": 6725,
      "Ġstolen": 6726,
      "Ġwinner": 6727,
      "Ġkeen": 6728,
      "Ġnaturally": 6729,
      "Ġbalance": 6730,
      "Ġnag": 6731,
      "Ġelephants": 6732,
      "Ġjersey": 6733,
      "Ġasian": 6734,
      "ros": 6735,
      "Ġmercy": 6736,
      "Ġgeneration": 6737,
      "Ġinternet": 6738,
      "Ġpregnant": 6739,
      "Ġsed": 6740,
      "Ġholds": 6741,
      "Ġjohnson": 6742,
      "sex": 6743,
      "ella": 6744,
      "Ġdriven": 6745,
      "Ġrefe": 6746,
      "Ġdee": 6747,
      "Ġ1969": 6748,
      "Ġwip": 6749,
      "Ġwreck": 6750,
      "Ġgoo": 6751,
      "Ġspy": 6752,
      "Ġ70": 6753,
      "Ġfilms": 6754,
      "Ġtalks": 6755,
      "Ġ45": 6756,
      "Ġdraft": 6757,
      "Ġexchange": 6758,
      "anas": 6759,
      "Ġwednesday": 6760,
      "Ġpowder": 6761,
      "ali": 6762,
      "Ġnowhere": 6763,
      "Ġoink": 6764,
      "etts": 6765,
      "Ġfarther": 6766,
      "rd": 6767,
      "Ġfame": 6768,
      "Ġacid": 6769,
      "ĠCome": 6770,
      "Ġimage": 6771,
      "uing": 6772,
      "Ġretire": 6773,
      "ika": 6774,
      "Ġcovid": 6775,
      "Ġopens": 6776,
      "Ġgee": 6777,
      "Ġ1973": 6778,
      "Ġobserv": 6779,
      "zing": 6780,
      "Ġimper": 6781,
      "eau": 6782,
      "Ġclasses": 6783,
      "Ġprepare": 6784,
      "Ġviet": 6785,
      "Ġcheers": 6786,
      "Ġloving": 6787,
      "hh": 6788,
      "umes": 6789,
      "about": 6790,
      "Ġlaun": 6791,
      "Ġunfortunately": 6792,
      "Ġobey": 6793,
      "Ġnord": 6794,
      "Ġstarring": 6795,
      "Ġchapter": 6796,
      "Ġbald": 6797,
      "Ġjake": 6798,
      "low": 6799,
      "ati": 6800,
      "Ġstern": 6801,
      "Ġcalcul": 6802,
      "Ġgum": 6803,
      "Ġsis": 6804,
      "Ġlux": 6805,
      "Ġarmen": 6806,
      "Ġdonkey": 6807,
      "Ġentrance": 6808,
      "Ġscientific": 6809,
      "Ġatlantic": 6810,
      "ora": 6811,
      "Ġincl": 6812,
      "Ġlew": 6813,
      "Ġjolly": 6814,
      "Ġcriminal": 6815,
      "Ġsydney": 6816,
      "Ġpreviously": 6817,
      "Ġearned": 6818,
      "Ġobjects": 6819,
      "Ġslipped": 6820,
      "Ġawarded": 6821,
      "Ġseal": 6822,
      "Ġheadquarters": 6823,
      "Ġlun": 6824,
      "Ġmemor": 6825,
      "Ġrus": 6826,
      "Ġresident": 6827,
      "Ġlouise": 6828,
      "Ġeag": 6829,
      "Ġsig": 6830,
      "ĠYork": 6831,
      "Ġcompanions": 6832,
      "Ġbiscuits": 6833,
      "Ġarranged": 6834,
      "aned": 6835,
      "Ġscored": 6836,
      "Ġult": 6837,
      "Ġchecked": 6838,
      "mont": 6839,
      "Ġgranny": 6840,
      "Ġceased": 6841,
      "Ġstroke": 6842,
      "Ġcotton": 6843,
      "Ġdefense": 6844,
      "Ġaim": 6845,
      "Ġrig": 6846,
      "Ġtissue": 6847,
      "rich": 6848,
      "Ġford": 6849,
      "Ġumbre": 6850,
      "Ġargent": 6851,
      "Ġpacific": 6852,
      "Ġgif": 6853,
      "Ġincome": 6854,
      "acing": 6855,
      "Ġcovers": 6856,
      "Ġsupported": 6857,
      "Ġdelighted": 6858,
      "Ġnom": 6859,
      "Ġfrag": 6860,
      "Ġharv": 6861,
      "Ġsung": 6862,
      "Ġpercy": 6863,
      "Ġnicely": 6864,
      "Ġuniform": 6865,
      "23": 6866,
      "Ġshortly": 6867,
      "Ġgoose": 6868,
      "Ġconcert": 6869,
      "Ġbenefit": 6870,
      "Ġtay": 6871,
      "Ġtoe": 6872,
      "lection": 6873,
      "Ġconvin": 6874,
      "odes": 6875,
      "Ġdefeated": 6876,
      "Ġsou": 6877,
      "Ġalbert": 6878,
      "Ġgrim": 6879,
      "ĠOn": 6880,
      "Ġmurdered": 6881,
      "acher": 6882,
      "Ġalco": 6883,
      "onic": 6884,
      "ivered": 6885,
      "Ġvoy": 6886,
      "Ġbullet": 6887,
      "Ġellen": 6888,
      "rific": 6889,
      "Ġhonestly": 6890,
      "Ġsurround": 6891,
      "iser": 6892,
      "Ġclimbed": 6893,
      "ĠUn": 6894,
      "Ġfocus": 6895,
      "Ġmmhmm": 6896,
      "oln": 6897,
      "Ġflour": 6898,
      "Ġbucket": 6899,
      "Ġlob": 6900,
      "Ġunable": 6901,
      "Ġbuilder": 6902,
      "Ġstiff": 6903,
      "oli": 6904,
      "gain": 6905,
      "rets": 6906,
      "Ġconvent": 6907,
      "Ġbeds": 6908,
      "Ġlegisl": 6909,
      "icycle": 6910,
      "Ġsounded": 6911,
      "Ġsecure": 6912,
      "anes": 6913,
      "Ġglance": 6914,
      "Ġlily": 6915,
      "Ġscale": 6916,
      "Ġactivity": 6917,
      "Ġexecutive": 6918,
      "aron": 6919,
      "Ġleon": 6920,
      "rene": 6921,
      "Ġreign": 6922,
      "urd": 6923,
      "hetic": 6924,
      "Ġsurgery": 6925,
      "Ġestate": 6926,
      "Ġcarolina": 6927,
      "Ġhurricane": 6928,
      "80": 6929,
      "Ġcav": 6930,
      "Ġblew": 6931,
      "Ġrapidly": 6932,
      "tub": 6933,
      "Ġvel": 6934,
      "Ġseeds": 6935,
      "aki": 6936,
      "Ġbanks": 6937,
      "Ġpanda": 6938,
      "Ġcupboard": 6939,
      "Ġ1967": 6940,
      "Ġyouve": 6941,
      "Ġinsect": 6942,
      "asy": 6943,
      "Ġstations": 6944,
      "Ġtrap": 6945,
      "Ġ33": 6946,
      "Ġsufficient": 6947,
      "Ġrho": 6948,
      "ifer": 6949,
      "Ġrolled": 6950,
      "Ġbib": 6951,
      "Ġrushed": 6952,
      "Ġyeh": 6953,
      "inlaw": 6954,
      "Ġscript": 6955,
      "Ġwhale": 6956,
      "Ġconc": 6957,
      "Ġprayer": 6958,
      "Ġvalu": 6959,
      "Ġpup": 6960,
      "25": 6961,
      "rator": 6962,
      "Ġroo": 6963,
      "Ġolympic": 6964,
      "Ġwishes": 6965,
      "Ġpiss": 6966,
      "Ġserving": 6967,
      "Ġvehicle": 6968,
      "ĠBrit": 6969,
      "Ġexped": 6970,
      "Ġcryst": 6971,
      "imum": 6972,
      "Ġpartners": 6973,
      "mel": 6974,
      "Ġfasc": 6975,
      "Ġ34": 6976,
      "phy": 6977,
      "Ġabd": 6978,
      "Ġaboard": 6979,
      "Ġgeorgia": 6980,
      "Ġjenny": 6981,
      "Ġvon": 6982,
      "Ġroy": 6983,
      "Ġ1971": 6984,
      "ĠFr": 6985,
      "Ġhamb": 6986,
      "Ġaband": 6987,
      "eme": 6988,
      "Ġbiscuit": 6989,
      "Ġmultiple": 6990,
      "iments": 6991,
      "Ġsoil": 6992,
      "Ġexplan": 6993,
      "Ġwithd": 6994,
      "Ġpeep": 6995,
      "Ġadventures": 6996,
      "Ġlamp": 6997,
      "Ġdegrees": 6998,
      "rog": 6999,
      "Ġske": 7000,
      "Ġinnit": 7001,
      "heim": 7002,
      "Ġlanding": 7003,
      "Ġstamp": 7004,
      "Ġ1964": 7005,
      "Ġjungle": 7006,
      "ilst": 7007,
      "ession": 7008,
      "Ġnumer": 7009,
      "Ġpanc": 7010,
      "Ġdrinks": 7011,
      "Ġsticky": 7012,
      "Ġdora": 7013,
      "incoln": 7014,
      "Ġproducts": 7015,
      "Ġatm": 7016,
      "Ġstopping": 7017,
      "Ġuncom": 7018,
      "Ġsacrif": 7019,
      "Ġlwww": 7020,
      "Ġloyal": 7021,
      "Ġstops": 7022,
      "Ġfigured": 7023,
      "Ġbreathe": 7024,
      "Ġwhistle": 7025,
      "Ġdistant": 7026,
      "Ġnathan": 7027,
      "Ġservants": 7028,
      "Ġdaughters": 7029,
      "Ġneighbour": 7030,
      "Ġmcc": 7031,
      "Ġillness": 7032,
      "Ġreturning": 7033,
      "Ġconstruction": 7034,
      "Ġauthorities": 7035,
      "Ġsurrounded": 7036,
      "Ġrepresented": 7037,
      "Ġviolence": 7038,
      "Ġstrawberries": 7039,
      "Ġathlet": 7040,
      "Ġfetch": 7041,
      "achus": 7042,
      "Ġpatrick": 7043,
      "Ġukrain": 7044,
      "Ġbeth": 7045,
      "Ġmexican": 7046,
      "iring": 7047,
      "Ġappeal": 7048,
      "unte": 7049,
      "Ġadvanced": 7050,
      "ropri": 7051,
      "Ġgates": 7052,
      "Ġmorgan": 7053,
      "Ġhood": 7054,
      "ropol": 7055,
      "Ġsurvive": 7056,
      "Ġdall": 7057,
      "Ġreaction": 7058,
      "Ġsqueak": 7059,
      "inois": 7060,
      "Ġdreadful": 7061,
      "Ġlyn": 7062,
      "Ġreferred": 7063,
      "mun": 7064,
      "Ġvariety": 7065,
      "Ġamongst": 7066,
      "Ġnina": 7067,
      "bot": 7068,
      "Ġtum": 7069,
      "Ġfran": 7070,
      "Ġmall": 7071,
      "ouri": 7072,
      "Ġconclud": 7073,
      "Ġclark": 7074,
      "Ġacted": 7075,
      "Ġnegative": 7076,
      "lvania": 7077,
      "Ġshaking": 7078,
      "Ġcarrot": 7079,
      "Ġresponded": 7080,
      "Ġtries": 7081,
      "Ġunderstanding": 7082,
      "she": 7083,
      "Ġwanting": 7084,
      "Ġsingles": 7085,
      "Ġmich": 7086,
      "Ġlung": 7087,
      "Ġthirsty": 7088,
      "mate": 7089,
      "Ġnasty": 7090,
      "Ġnearby": 7091,
      "Ġbree": 7092,
      "Ġconfused": 7093,
      "Ġdistricts": 7094,
      "rels": 7095,
      "Ġhambur": 7096,
      "Ġfare": 7097,
      "etime": 7098,
      "estic": 7099,
      "Ġerr": 7100,
      "Ġagreement": 7101,
      "vo": 7102,
      "bridge": 7103,
      "Ġilleg": 7104,
      "Ġstam": 7105,
      "Ġstores": 7106,
      "Ġkansas": 7107,
      "Ġtodd": 7108,
      "Ġglob": 7109,
      "lley": 7110,
      "irts": 7111,
      "Ġrud": 7112,
      "Ġswift": 7113,
      "Ġdave": 7114,
      "Ġillinois": 7115,
      "Ġlevels": 7116,
      "Ġcathy": 7117,
      "Ġcheeks": 7118,
      "sell": 7119,
      "Ġpersu": 7120,
      "apping": 7121,
      "Ġvolunte": 7122,
      "Ġdinosaurs": 7123,
      "Ġtoss": 7124,
      "Ġexpecting": 7125,
      "eer": 7126,
      "Ġbasis": 7127,
      "Ġstruggle": 7128,
      "Ġcin": 7129,
      "Ġsnakes": 7130,
      "Ġvisited": 7131,
      "Ġoxy": 7132,
      "Ġfantastic": 7133,
      "Ġanger": 7134,
      "vis": 7135,
      "Ġpresidential": 7136,
      "Ġ1930": 7137,
      "Ġliterature": 7138,
      "Ġvacation": 7139,
      "Ġfuneral": 7140,
      "uls": 7141,
      "Ġinjured": 7142,
      "Ġpumpkin": 7143,
      "Ġbah": 7144,
      "Ġdow": 7145,
      "Ġcape": 7146,
      "Ġtickets": 7147,
      "Ġlabour": 7148,
      "Ġsheet": 7149,
      "berry": 7150,
      "Ġtrained": 7151,
      "Ġsafely": 7152,
      "Ġprograms": 7153,
      "Ġnod": 7154,
      "Ġbend": 7155,
      "ubb": 7156,
      "Ġelements": 7157,
      "Ġexplore": 7158,
      "Ġplatform": 7159,
      "opes": 7160,
      "Ġsax": 7161,
      "ivity": 7162,
      "jamas": 7163,
      "achusetts": 7164,
      "Ġmidnight": 7165,
      "Ġbattery": 7166,
      "Ġsucceeded": 7167,
      "ares": 7168,
      "Ġdeserve": 7169,
      "Ġwilln": 7170,
      "Ġmia": 7171,
      "Ġshy": 7172,
      "ancing": 7173,
      "Ġcops": 7174,
      "yearold": 7175,
      "aud": 7176,
      "Ġorchest": 7177,
      "Ġdistinct": 7178,
      "looking": 7179,
      "esc": 7180,
      "omer": 7181,
      "imately": 7182,
      "Ġunha": 7183,
      "Ġutter": 7184,
      "Ġcommercial": 7185,
      "Ġfierce": 7186,
      "aman": 7187,
      "Ġmassachusetts": 7188,
      "Ġsne": 7189,
      "Ġdiet": 7190,
      "Ġconflict": 7191,
      "ophy": 7192,
      "Ġhanded": 7193,
      "Ġcommitted": 7194,
      "Ġcolored": 7195,
      "Ġbelle": 7196,
      "Ġthief": 7197,
      "Ġmargaret": 7198,
      "Ġbom": 7199,
      "Ġdough": 7200,
      "inkle": 7201,
      "Ġcrap": 7202,
      "Ġrevol": 7203,
      "Ġcrayons": 7204,
      "Ġmerely": 7205,
      "Ġosc": 7206,
      "inals": 7207,
      "Ġcind": 7208,
      "resp": 7209,
      "Ġfrancisco": 7210,
      "Ġdisgust": 7211,
      "Ġballet": 7212,
      "Ġpatients": 7213,
      "Ġloads": 7214,
      "Ġcheeky": 7215,
      "Ġregions": 7216,
      "Ġbrazilian": 7217,
      "Ġdiscovery": 7218,
      "Ġmeters": 7219,
      "Ġ1966": 7220,
      "Ġari": 7221,
      "Ġconcern": 7222,
      "Ġsciss": 7223,
      "Ġdram": 7224,
      "Ġaustrian": 7225,
      "isse": 7226,
      "Ġattended": 7227,
      "Ġumbrella": 7228,
      "imp": 7229,
      "Ġthrone": 7230,
      "Ġimpact": 7231,
      "Ġfurniture": 7232,
      "70": 7233,
      "Ġtempor": 7234,
      "din": 7235,
      "Ġtro": 7236,
      "Ġframe": 7237,
      "Ġcapture": 7238,
      "adel": 7239,
      "Ġdisturb": 7240,
      "Ġconscious": 7241,
      "Ġberlin": 7242,
      "Ġkin": 7243,
      "Ġconcl": 7244,
      "Ġcattle": 7245,
      "Ġeaster": 7246,
      "awa": 7247,
      "Ġrepresentatives": 7248,
      "Ġscheme": 7249,
      "Ġgrateful": 7250,
      "Ġpronoun": 7251,
      "Ġstable": 7252,
      "Ġfee": 7253,
      "Ġ36": 7254,
      "Ġsqueeze": 7255,
      "pher": 7256,
      "Ġeditor": 7257,
      "Ġgrowth": 7258,
      "sen": 7259,
      "Ġattached": 7260,
      "corn": 7261,
      "iven": 7262,
      "Ġmental": 7263,
      "Ġnik": 7264,
      "ccer": 7265,
      "rim": 7266,
      "oses": 7267,
      "Ġchurches": 7268,
      "Ġquarters": 7269,
      "Ġwilson": 7270,
      "Ġcottage": 7271,
      "Ġmand": 7272,
      "Ġdefeat": 7273,
      "Ġbreathing": 7274,
      "Ġpennsy": 7275,
      "Ġmast": 7276,
      "Ġcd": 7277,
      "Ġwalks": 7278,
      "Ġconfident": 7279,
      "Ġstephen": 7280,
      "Ġzebra": 7281,
      "verse": 7282,
      "Ġwhilst": 7283,
      "Ġquoth": 7284,
      "Ġcommit": 7285,
      "ĠCom": 7286,
      "ĠLook": 7287,
      "rations": 7288,
      "Ġatmosp": 7289,
      "Ġscat": 7290,
      "ĠTwo": 7291,
      "Ġzo": 7292,
      "Ġimportance": 7293,
      "Ġdiscip": 7294,
      "Ġorganis": 7295,
      "uge": 7296,
      "Ġhighway": 7297,
      "Ġdull": 7298,
      "olk": 7299,
      "Ġedition": 7300,
      "Ġtriangle": 7301,
      "Ġvision": 7302,
      "Ġinvestigation": 7303,
      "Ġsets": 7304,
      "Ġhorror": 7305,
      "Ġpunishment": 7306,
      "Ġkorean": 7307,
      "Ġtales": 7308,
      "keeper": 7309,
      "90": 7310,
      "Ġalien": 7311,
      "Ġbetray": 7312,
      "Ġbegun": 7313,
      "Ġelectricity": 7314,
      "Ġfuel": 7315,
      "Ġgle": 7316,
      "Ġfollows": 7317,
      "ribly": 7318,
      "kyo": 7319,
      "Ġdeputy": 7320,
      "Ġbc": 7321,
      "Ġwend": 7322,
      "Ġseated": 7323,
      "Ġattacks": 7324,
      "Ġactivities": 7325,
      "Ġliver": 7326,
      "Ġperman": 7327,
      "mm": 7328,
      "Ġkong": 7329,
      "Ġsoccer": 7330,
      "Ġspending": 7331,
      "Ġhesit": 7332,
      "Ġrip": 7333,
      "Ġanimated": 7334,
      "Ġsticking": 7335,
      "gt": 7336,
      "Ġcateg": 7337,
      "ĠMy": 7338,
      "Ġstrict": 7339,
      "Ġmissouri": 7340,
      "lar": 7341,
      "Ġyer": 7342,
      "Ġlas": 7343,
      "Ġminds": 7344,
      "Ġchildsname": 7345,
      "Ġvast": 7346,
      "aka": 7347,
      "Ġlaure": 7348,
      "Ġestim": 7349,
      "Ġpossession": 7350,
      "kers": 7351,
      "Ġruled": 7352,
      "Ġrepeat": 7353,
      "Ġtriump": 7354,
      "icing": 7355,
      "Ġacts": 7356,
      "Ġbeef": 7357,
      "Ġsuicide": 7358,
      "Ġstated": 7359,
      "Ġaffection": 7360,
      "Ġjoey": 7361,
      "Ġemma": 7362,
      "Ġchickens": 7363,
      "Ġdisappointed": 7364,
      "Ġfisher": 7365,
      "Ġhistorical": 7366,
      "Ġclare": 7367,
      "Ġbarry": 7368,
      "Ġrecorder": 7369,
      "Ġaliens": 7370,
      "Ġchallenge": 7371,
      "Ġmeg": 7372,
      "Ġpoland": 7373,
      "Ġvictoria": 7374,
      "Ġintelligence": 7375,
      "Ġpenguin": 7376,
      "Ġpuff": 7377,
      "ĠAha": 7378,
      "Ġdallas": 7379,
      "lets": 7380,
      "Ġagric": 7381,
      "iat": 7382,
      "mony": 7383,
      "Ġroar": 7384,
      "upon": 7385,
      "Ġseventeen": 7386,
      "Ġobliged": 7387,
      "Ġwins": 7388,
      "Ġadministration": 7389,
      "eline": 7390,
      "Ġlaunch": 7391,
      "Ġwhit": 7392,
      "Ġgrade": 7393,
      "Ġperce": 7394,
      "Ġshapes": 7395,
      "ocks": 7396,
      "Ġsniff": 7397,
      "Ġbeating": 7398,
      "Ġstew": 7399,
      "Ġdevice": 7400,
      "mal": 7401,
      "Ġtroubles": 7402,
      "Ġcone": 7403,
      "Ġgran": 7404,
      "anche": 7405,
      "Ġbillboard": 7406,
      "umbled": 7407,
      "Ġbenn": 7408,
      "Ġheaded": 7409,
      "unning": 7410,
      "200": 7411,
      "Ġdeed": 7412,
      "Ġpennsylvania": 7413,
      "Ġral": 7414,
      "Ġcounting": 7415,
      "gues": 7416,
      "wick": 7417,
      "Ġgenus": 7418,
      "pool": 7419,
      "tan": 7420,
      "Ġpist": 7421,
      "aroo": 7422,
      "Ġ1940": 7423,
      "Ġlaunched": 7424,
      "Ġyu": 7425,
      "Ġgolf": 7426,
      "Ġclick": 7427,
      "Ġdistingu": 7428,
      "Ġfeeding": 7429,
      "Ġefforts": 7430,
      "Ġdefence": 7431,
      "Ġmild": 7432,
      "Ġpete": 7433,
      "Ġstatus": 7434,
      "Ġinstrument": 7435,
      "wers": 7436,
      "Ġspon": 7437,
      "Ġmeanwhile": 7438,
      "Ġlinda": 7439,
      "lon": 7440,
      "eder": 7441,
      "Ġpretending": 7442,
      "pting": 7443,
      "Ġkay": 7444,
      "Ġfoundation": 7445,
      "put": 7446,
      "Ġfeathers": 7447,
      "Ġlincoln": 7448,
      "Ġenthus": 7449,
      "Ġhannah": 7450,
      "oke": 7451,
      "Ġsenator": 7452,
      "Ġpand": 7453,
      "Ġhired": 7454,
      "Ġcapable": 7455,
      "Ġsimon": 7456,
      "gment": 7457,
      "Ġlover": 7458,
      "Ġkidna": 7459,
      "Ġdynasty": 7460,
      "Ġalphab": 7461,
      "Ġrifle": 7462,
      "Ġraw": 7463,
      "Ġcongratulations": 7464,
      "Ġbunk": 7465,
      "Ġboring": 7466,
      "Ġsi": 7467,
      "Ġseed": 7468,
      "Ġsoutheast": 7469,
      "Ġceremony": 7470,
      "Ġweigh": 7471,
      "ĠChristmas": 7472,
      "Ġchimney": 7473,
      "Ġvain": 7474,
      "Ġgorgeous": 7475,
      "oto": 7476,
      "ava": 7477,
      "Ġoccupied": 7478,
      "llie": 7479,
      "iches": 7480,
      "Ġ183": 7481,
      "Ġoxygen": 7482,
      "Ġclothing": 7483,
      "adesh": 7484,
      "utation": 7485,
      "Ġnoted": 7486,
      "Ġsunny": 7487,
      "Ġkevin": 7488,
      "Ġlarry": 7489,
      "Ġlip": 7490,
      "boat": 7491,
      "Ġrubber": 7492,
      "Ġargument": 7493,
      "Ġrecommend": 7494,
      "Ġrabbits": 7495,
      "Ġflies": 7496,
      "Ġstudying": 7497,
      "Ġfaithful": 7498,
      "Ġassociated": 7499,
      "Ġsara": 7500,
      "Ġfuss": 7501,
      "....": 7502,
      "Ġpartly": 7503,
      "Ġguards": 7504,
      "Ġbaker": 7505,
      "Ġemot": 7506,
      "chers": 7507,
      "Ġremove": 7508,
      "Ġevolution": 7509,
      "Ġagricult": 7510,
      "Ġastron": 7511,
      "fit": 7512,
      "Ġfc": 7513,
      "Ġarn": 7514,
      "Ġconsist": 7515,
      "Ġvaluable": 7516,
      "esome": 7517,
      "Ġcigaret": 7518,
      "Ġinches": 7519,
      "Ġsacred": 7520,
      "Ġscholar": 7521,
      "tt": 7522,
      "Ġonline": 7523,
      "Ġshes": 7524,
      "Ġmiche": 7525,
      "24": 7526,
      "ounty": 7527,
      "Ġindustrial": 7528,
      "Ġnam": 7529,
      "Ġspeaker": 7530,
      "part": 7531,
      "Ġvillages": 7532,
      "ints": 7533,
      "Ġseparated": 7534,
      "ĠChair": 7535,
      "Ġ1965": 7536,
      "Ġcrayon": 7537,
      "Ġfid": 7538,
      "Ġecho": 7539,
      "Ġjord": 7540,
      "Ġcooked": 7541,
      "Ġadopted": 7542,
      "Ġfeature": 7543,
      "Ġdub": 7544,
      "Ġkelly": 7545,
      "Ġ1956": 7546,
      "Ġpuppet": 7547,
      "Ġbicycle": 7548,
      "Ġstab": 7549,
      "rold": 7550,
      "mann": 7551,
      "ilton": 7552,
      "Ġcler": 7553,
      "Ġsignificant": 7554,
      "Ġcharlotte": 7555,
      "Ġincredible": 7556,
      "dles": 7557,
      "Ġrainbow": 7558,
      "Ġbiography": 7559,
      "Ġnas": 7560,
      "Ġbells": 7561,
      "Ġliterally": 7562,
      "Ġcherry": 7563,
      "nat": 7564,
      "inate": 7565,
      "Ġshelter": 7566,
      "pent": 7567,
      "Ġsire": 7568,
      "Ġallen": 7569,
      "Ġconcept": 7570,
      "Ġvisitors": 7571,
      "Ġgraeme": 7572,
      "ĠWhich": 7573,
      "western": 7574,
      "aling": 7575,
      "iable": 7576,
      "Ġlimit": 7577,
      "Ġjoan": 7578,
      "Ġmonarch": 7579,
      "Ġcharges": 7580,
      "Ġtennis": 7581,
      "Ġfoss": 7582,
      "Ġdigger": 7583,
      "Ġvegetables": 7584,
      "Ġliquid": 7585,
      "lings": 7586,
      "Ġ1945": 7587,
      "Ġbav": 7588,
      "Ġpine": 7589,
      "tery": 7590,
      "inent": 7591,
      "Ġrh": 7592,
      "Ġappla": 7593,
      "Ġpoetry": 7594,
      "Ġmetropol": 7595,
      "Ġalongside": 7596,
      "ĠLet": 7597,
      "uz": 7598,
      "Ġcoloring": 7599,
      "mat": 7600,
      "Ġaun": 7601,
      "Ġjury": 7602,
      "Ġloire": 7603,
      "Ġflip": 7604,
      "Ġcharged": 7605,
      "Ġnortheast": 7606,
      "Ġdesperate": 7607,
      "Ġnail": 7608,
      "oray": 7609,
      "Ġrol": 7610,
      "Ġsweets": 7611,
      "Ġlewis": 7612,
      "Ġjay": 7613,
      "Ġcanoe": 7614,
      "Ġcompar": 7615,
      "Ġvictims": 7616,
      "ĠQ": 7617,
      "Ġtokyo": 7618,
      "Ġsubs": 7619,
      "Ġmiserable": 7620,
      "Ġswiss": 7621,
      "Ġtack": 7622,
      "Ġuseless": 7623,
      "Ġcomposed": 7624,
      "Ġrevenge": 7625,
      "bag": 7626,
      "Ġfires": 7627,
      "Ġplug": 7628,
      "Ġawesome": 7629,
      "Ġsandwiches": 7630,
      "Ġsymptom": 7631,
      "mith": 7632,
      "Ġstove": 7633,
      "Ġshared": 7634,
      "Ġsurre": 7635,
      "Ġpaw": 7636,
      "Ġmillions": 7637,
      "Ġphoto": 7638,
      "lk": 7639,
      "Ġbour": 7640,
      "Ġ184": 7641,
      "bbie": 7642,
      "Ġbru": 7643,
      "Ġmice": 7644,
      "erg": 7645,
      "Ġfeast": 7646,
      "Ġbabe": 7647,
      "Ġheavily": 7648,
      "Ġdolph": 7649,
      "iva": 7650,
      "leton": 7651,
      "Ġyourselves": 7652,
      "Ġchildhood": 7653,
      "Ġviolent": 7654,
      "alie": 7655,
      "Ġfriendship": 7656,
      "hens": 7657,
      "Ġcomin": 7658,
      "Ġapply": 7659,
      "Ġvolley": 7660,
      "Ġseized": 7661,
      "Ġspill": 7662,
      "Ġbottles": 7663,
      "Ġengineering": 7664,
      "Ġpirates": 7665,
      "jan": 7666,
      "Ġais": 7667,
      "Ġalt": 7668,
      "21": 7669,
      "etic": 7670,
      "Ġawfully": 7671,
      "Ġhunter": 7672,
      "Ġorchestra": 7673,
      "cr": 7674,
      "Ġbabys": 7675,
      "Ġclosing": 7676,
      "Ġmachines": 7677,
      "Ġlil": 7678,
      "ysis": 7679,
      "Ġsticker": 7680,
      "Ġgettin": 7681,
      "Ġsits": 7682,
      "ĠTo": 7683,
      "Ġbushes": 7684,
      "Ġscottish": 7685,
      "Ġbernard": 7686,
      "iro": 7687,
      "Ġstays": 7688,
      "Ġsouthwest": 7689,
      "Ġremaining": 7690,
      "eness": 7691,
      "Ġfrances": 7692,
      "Ġcatching": 7693,
      "Ġknocking": 7694,
      "Ġtut": 7695,
      "Ġdia": 7696,
      "Ġvig": 7697,
      "Ġgreet": 7698,
      "Ġkangaroo": 7699,
      "Ġhong": 7700,
      "Ġadministrative": 7701,
      "urope": 7702,
      "empl": 7703,
      "rah": 7704,
      "Ġcheering": 7705,
      "oman": 7706,
      "Ġkaren": 7707,
      "Ġvit": 7708,
      "Ġflav": 7709,
      "Ġmonkeys": 7710,
      "Ġclaus": 7711,
      "Ġstress": 7712,
      "Ġflesh": 7713,
      "izz": 7714,
      "Ġslice": 7715,
      "Ġcopies": 7716,
      "gas": 7717,
      "Ġpeel": 7718,
      "Ġlabel": 7719,
      "ĠSh": 7720,
      "Ġbelonged": 7721,
      "Ġkicked": 7722,
      "Ġscissors": 7723,
      "Ġdavis": 7724,
      "Ġdeeply": 7725,
      "Ġliberty": 7726,
      "acious": 7727,
      "Ġsuspic": 7728,
      "Ġchances": 7729,
      "Ġapplied": 7730,
      "Ġkilomet": 7731,
      "Ġclaimed": 7732,
      "bu": 7733,
      "Ġcharming": 7734,
      "Ġdressing": 7735,
      "Ġdna": 7736,
      "Ġ1959": 7737,
      "Ġworm": 7738,
      "Ġbully": 7739,
      "Ġdisag": 7740,
      "Ġpotty": 7741,
      "Ġinfant": 7742,
      "Ġbond": 7743,
      "onscious": 7744,
      "force": 7745,
      "Ġsquirrel": 7746,
      "cat": 7747,
      "Ġaqu": 7748,
      "Ġcert": 7749,
      "Ġinsp": 7750,
      "Ġengineer": 7751,
      "Ġgrav": 7752,
      "Ġgala": 7753,
      "Ġagency": 7754,
      "cont": 7755,
      "ups": 7756,
      "Ġsult": 7757,
      "Ġexcl": 7758,
      "Ġpersonally": 7759,
      "Ġ1963": 7760,
      "ĠFor": 7761,
      "Ġorganized": 7762,
      "Ġresources": 7763,
      "Ġbeard": 7764,
      "Ġshots": 7765,
      "Ġarrive": 7766,
      "Ġmask": 7767,
      "Ġgib": 7768,
      "Ġpatty": 7769,
      "Ġextent": 7770,
      "Ġbride": 7771,
      "Ġmartine": 7772,
      "Ġtremb": 7773,
      "Ġtouching": 7774,
      "Ġexpert": 7775,
      "Ġunhappy": 7776,
      "master": 7777,
      "Ġenjoying": 7778,
      "Ġraymond": 7779,
      "Ġthreatened": 7780,
      "Ġtad": 7781,
      "Ġwy": 7782,
      "Ġmons": 7783,
      "Ġfridge": 7784,
      "Ġphr": 7785,
      "Ġ44": 7786,
      "Ġluke": 7787,
      "Ġmichigan": 7788,
      "Ġcenturies": 7789,
      "Ġprofession": 7790,
      "irs": 7791,
      "Ġgermans": 7792,
      "Ġslee": 7793,
      "ieur": 7794,
      "mad": 7795,
      "Ġtang": 7796,
      "Ġack": 7797,
      "Ġamanda": 7798,
      "Ġtheme": 7799,
      "Ġpressed": 7800,
      "Ġera": 7801,
      "iac": 7802,
      "Ġundert": 7803,
      "Ġhated": 7804,
      "Ġ1962": 7805,
      "Ġoverall": 7806,
      "ption": 7807,
      "Ġnorman": 7808,
      "Ġrelations": 7809,
      "Ġinvite": 7810,
      "Ġmit": 7811,
      "Ġorang": 7812,
      "Ġbore": 7813,
      "Ġitems": 7814,
      "Ġalan": 7815,
      "Ġcalend": 7816,
      "Ġregional": 7817,
      "Ġgoddam": 7818,
      "Ġalphabet": 7819,
      "aturday": 7820,
      "Ġallig": 7821,
      "yes": 7822,
      "Ġsailing": 7823,
      "vior": 7824,
      "Ġbure": 7825,
      "Ġworship": 7826,
      "Ġunderground": 7827,
      "Ġnumerous": 7828,
      "Ġvessels": 7829,
      "inity": 7830,
      "Ġdur": 7831,
      "owing": 7832,
      "Ġaeropl": 7833,
      "Ġtaylor": 7834,
      "dog": 7835,
      "Ġtaxi": 7836,
      "Ġaffected": 7837,
      "Ġactions": 7838,
      "Ġrefuse": 7839,
      "Ġinterrupted": 7840,
      "standing": 7841,
      "Ġramp": 7842,
      "ela": 7843,
      "Ġglue": 7844,
      "Ġlightning": 7845,
      "four": 7846,
      "Ġouter": 7847,
      "Ġspaces": 7848,
      "Ġamuse": 7849,
      "Ġdrift": 7850,
      "Ġgloves": 7851,
      "Ġsolemn": 7852,
      "Ġhip": 7853,
      "Ġjosh": 7854,
      "Ġprefect": 7855,
      "Ġretreat": 7856,
      "Ġsoftware": 7857,
      "Ġcomed": 7858,
      "Ġassured": 7859,
      "Ġtempt": 7860,
      "Ġintroduce": 7861,
      "Ġdominic": 7862,
      "Ġdemonstr": 7863,
      "otic": 7864,
      "Ġsolution": 7865,
      "Ġsting": 7866,
      "Ġ1961": 7867,
      "ois": 7868,
      "round": 7869,
      "rily": 7870,
      "Ġsmack": 7871,
      "Ġelections": 7872,
      "Ġtricks": 7873,
      "Ġhooray": 7874,
      "Ġhats": 7875,
      "Ġspeaks": 7876,
      "Ġexistence": 7877,
      "rad": 7878,
      "acity": 7879,
      "Ġattorn": 7880,
      "Ġmusician": 7881,
      "Ġconsiderable": 7882,
      "Ġ400": 7883,
      "Ġhopes": 7884,
      "Ġsprang": 7885,
      "Ġliberal": 7886,
      "Ġconvinced": 7887,
      "Ġlions": 7888,
      "Ġunp": 7889,
      "Ġdeser": 7890,
      "Ġskill": 7891,
      "Ġsupreme": 7892,
      "Ġfrost": 7893,
      "ĠSee": 7894,
      "Ġchef": 7895,
      "Ġruin": 7896,
      "lace": 7897,
      "Ġdent": 7898,
      "Ġblues": 7899,
      "pson": 7900,
      "Ġqueens": 7901,
      "Ġcandidate": 7902,
      "Ġeagle": 7903,
      "Ġexplanation": 7904,
      "Ġguar": 7905,
      "Ġsmoking": 7906,
      "itable": 7907,
      "Ġattitude": 7908,
      "Ġ1958": 7909,
      "Ġimpression": 7910,
      "Ġnearest": 7911,
      "Ġanthony": 7912,
      "Ġintention": 7913,
      "Ġbehavior": 7914,
      "Ġaspect": 7915,
      "Ġblast": 7916,
      "Ġapproaching": 7917,
      "cake": 7918,
      "Ġsought": 7919,
      "Ġrein": 7920,
      "Ġfacts": 7921,
      "Ġmerchant": 7922,
      "Ġou": 7923,
      "Ġmour": 7924,
      "Ġproced": 7925,
      "Ġ1948": 7926,
      "Ġrobber": 7927,
      "Ġunique": 7928,
      "erer": 7929,
      "Ġski": 7930,
      "Ġpersonality": 7931,
      "lessly": 7932,
      "ropriate": 7933,
      "Ġhits": 7934,
      "Ġfled": 7935,
      "Ġdiana": 7936,
      "Ġglobal": 7937,
      "hall": 7938,
      "Ġnaked": 7939,
      "Ġwarn": 7940,
      "Ġprospect": 7941,
      "Ġmiller": 7942,
      "Ġbench": 7943,
      "Ġgasps": 7944,
      "Ġsmells": 7945,
      "Ġblessed": 7946,
      "Ġmanchester": 7947,
      "Ġexpand": 7948,
      "Ġleads": 7949,
      "Ġcrossing": 7950,
      "gal": 7951,
      "Ġpom": 7952,
      "Ġvin": 7953,
      "Ġmush": 7954,
      "fire": 7955,
      "rus": 7956,
      "ington": 7957,
      "lement": 7958,
      "Ġemily": 7959,
      "Ġcandle": 7960,
      "Ġbatteries": 7961,
      "Ġanswers": 7962,
      "Ġ37": 7963,
      "uled": 7964,
      "Ġlaying": 7965,
      "cut": 7966,
      "Ġbruce": 7967,
      "Ġloft": 7968,
      "Ġ180": 7969,
      "Ġdepth": 7970,
      "Ġmarky": 7971,
      "Ġdwell": 7972,
      "Ġfanny": 7973,
      "Ġgene": 7974,
      "Ġdelivered": 7975,
      "Ġ1947": 7976,
      "Ġcabinet": 7977,
      "ih": 7978,
      "rig": 7979,
      "Ġexpedition": 7980,
      "lan": 7981,
      "Ġcel": 7982,
      "Ġhoward": 7983,
      "Ġburnt": 7984,
      "Ġdried": 7985,
      "acha": 7986,
      "Ġharbor": 7987,
      "Ġhurting": 7988,
      "Ġvul": 7989,
      "Ġsubt": 7990,
      "Ġassault": 7991,
      "zech": 7992,
      "Ġ1957": 7993,
      "Ġgarbage": 7994,
      "adelph": 7995,
      "Ġzorg": 7996,
      "Ġtremend": 7997,
      "Ġfried": 7998,
      "Ġlawn": 7999,
      "Ġdepos": 8000,
      "Ġholidays": 8001,
      "Ġtide": 8002,
      "Ġcowboy": 8003,
      "Ġforests": 8004,
      "Ġworldwide": 8005,
      "Ġ75": 8006,
      "Ġdealing": 8007,
      "aks": 8008,
      "Ġlasted": 8009,
      "Ġkindness": 8010,
      "Ġclubs": 8011,
      "Ġtastes": 8012,
      "Ġnothin": 8013,
      "Ġmock": 8014,
      "Ġobvious": 8015,
      "Ġestablish": 8016,
      "Ġcuddle": 8017,
      "Ġsacrifice": 8018,
      "sk": 8019,
      "osis": 8020,
      "Ġdipl": 8021,
      "Ġtables": 8022,
      "Ġnu": 8023,
      "inda": 8024,
      "Ġhelmet": 8025,
      "Ġdrawer": 8026,
      "Ġlawrence": 8027,
      "Ġshah": 8028,
      "Ġimpl": 8029,
      "Ġsilk": 8030,
      "Ġgoddess": 8031,
      "Ġsites": 8032,
      "Ġleslie": 8033,
      "vet": 8034,
      "Ġgross": 8035,
      "Ġsometime": 8036,
      "Ġzone": 8037,
      "Ġurban": 8038,
      "Ġhousing": 8039,
      "Ġbronze": 8040,
      "ĠRo": 8041,
      "Ġ1952": 8042,
      "Ġseventh": 8043,
      "Ġcritical": 8044,
      "Ġoccasionally": 8045,
      "Ġtune": 8046,
      "Ġnatives": 8047,
      "Ġjordan": 8048,
      "Ġgear": 8049,
      "Ġkhan": 8050,
      "geon": 8051,
      "avid": 8052,
      "Ġdal": 8053,
      "Ġharold": 8054,
      "Ġtrace": 8055,
      "Ġpossibility": 8056,
      "Ġswedish": 8057,
      "ĠEng": 8058,
      "Ġbananas": 8059,
      "Ġforbid": 8060,
      "inea": 8061,
      "Ġshakes": 8062,
      "Ġaccused": 8063,
      "Ġarticles": 8064,
      "reet": 8065,
      "Ġenorm": 8066,
      "ĠWas": 8067,
      "Ġreception": 8068,
      "ifying": 8069,
      "Ġcomplicated": 8070,
      "Ġpatch": 8071,
      "Ġmend": 8072,
      "Ġgrat": 8073,
      "Ġimpat": 8074,
      "Ġanxiety": 8075,
      "Ġatmosphere": 8076,
      "Ġdart": 8077,
      "Ġbubble": 8078,
      "Ġ38": 8079,
      "Ġdah": 8080,
      "Ġunex": 8081,
      "Ġrecon": 8082,
      "Ġdustbin": 8083,
      "Ġspray": 8084,
      "Ġparad": 8085,
      "Ġprompt": 8086,
      "Ġmaterials": 8087,
      "away": 8088,
      "Ġdess": 8089,
      "Ġing": 8090,
      "adu": 8091,
      "Ġinfect": 8092,
      "Ġraces": 8093,
      "Ġactors": 8094,
      "Ġwool": 8095,
      "Ġroot": 8096,
      "inny": 8097,
      "Ġawa": 8098,
      "Ġcultural": 8099,
      "adelphia": 8100,
      "haw": 8101,
      "Ġtribes": 8102,
      "Ġcush": 8103,
      "irl": 8104,
      "Ġchasing": 8105,
      "Ġapologize": 8106,
      "ĠSaturday": 8107,
      "Ġjews": 8108,
      "Ġextraord": 8109,
      "Ġcore": 8110,
      "Ġfake": 8111,
      "Ġnails": 8112,
      "itors": 8113,
      "Ġoperating": 8114,
      "Ġjen": 8115,
      "Ġgrows": 8116,
      "Ġheading": 8117,
      "Ġsheriff": 8118,
      "je": 8119,
      "Ġdign": 8120,
      "Ġclip": 8121,
      "Ġterribly": 8122,
      "Ġpacked": 8123,
      "Ġviews": 8124,
      "Ġbounce": 8125,
      "aul": 8126,
      "Ġsor": 8127,
      "Ġhallow": 8128,
      "Ġabra": 8129,
      "abor": 8130,
      "ĠAt": 8131,
      "ĠCh": 8132,
      "Ġbleeding": 8133,
      "Ġepisodes": 8134,
      "Ġalcohol": 8135,
      "had": 8136,
      "Ġfiction": 8137,
      "Ġhamp": 8138,
      "Ġket": 8139,
      "Ġdrank": 8140,
      "Ġannual": 8141,
      "Ġkissing": 8142,
      "Ġmuttered": 8143,
      "Ġextended": 8144,
      "Ġengage": 8145,
      "Ġdecent": 8146,
      "Ġdimit": 8147,
      "Ġsavage": 8148,
      "Ġib": 8149,
      "Ġlor": 8150,
      "Ġreaching": 8151,
      "ĠEx": 8152,
      "Ġstaring": 8153,
      "Ġbbc": 8154,
      "Ġgw": 8155,
      "Ġnorway": 8156,
      "Ġmaintain": 8157,
      "iences": 8158,
      "Ġashore": 8159,
      "asion": 8160,
      "Ġ42": 8161,
      "Ġknights": 8162,
      "Ġcinem": 8163,
      "35": 8164,
      "Ġczech": 8165,
      "Ġreject": 8166,
      "Ġsean": 8167,
      "Ġtheater": 8168,
      "Ġsolo": 8169,
      "Ġsamuel": 8170,
      "Ġregarded": 8171,
      "Ġbuffalo": 8172,
      "zes": 8173,
      "Ġmarvel": 8174,
      "Ġassume": 8175,
      "Ġsolar": 8176,
      "Ġkenneth": 8177,
      "oes": 8178,
      "Ġdining": 8179,
      "Ġfacing": 8180,
      "Ġanchor": 8181,
      "Ġexceed": 8182,
      "Ġillegal": 8183,
      "oor": 8184,
      "Ġhem": 8185,
      "Ġohio": 8186,
      "Ġbrass": 8187,
      "Ġinstantly": 8188,
      "Ġguarant": 8189,
      "Ġwarned": 8190,
      "Ġpitcher": 8191,
      "glas": 8192,
      "american": 8193,
      "ae": 8194,
      "Ġsweat": 8195,
      "Ġdropping": 8196,
      "umbling": 8197,
      "Ġpackage": 8198,
      "Ġinvented": 8199,
      "Ġbeet": 8200,
      "Ġshift": 8201,
      "Ġcleared": 8202,
      "Ġbearing": 8203,
      "Ġbills": 8204,
      "Ġwalt": 8205,
      "mates": 8206,
      "Ġkitten": 8207,
      "Ġgenerous": 8208,
      "Ġroses": 8209,
      "Ġlookee": 8210,
      "Ġhah": 8211,
      "Ġamend": 8212,
      "Ġpatience": 8213,
      "Ġvalent": 8214,
      "Ġjournalist": 8215,
      "chi": 8216,
      "Ġinsisted": 8217,
      "Ġcolumbia": 8218,
      "Ġnoon": 8219,
      "Ġphiladelphia": 8220,
      "Ġfranklin": 8221,
      "Ġdiaper": 8222,
      "Ġspani": 8223,
      "Ġhindu": 8224,
      "Ġtrailer": 8225,
      "Ġreviews": 8226,
      "Ġlan": 8227,
      "Ġinner": 8228,
      "Ġleather": 8229,
      "Ġmarine": 8230,
      "Ġsatisfaction": 8231,
      "Ġlazy": 8232,
      "Ġnewspapers": 8233,
      "Ġmosc": 8234,
      "Ġcares": 8235,
      "Ġinstructions": 8236,
      "ament": 8237,
      "Ġsnack": 8238,
      "Ġoperations": 8239,
      "Ġinspector": 8240,
      "gent": 8241,
      "Ġappointment": 8242,
      "Ġsweep": 8243,
      "Ġsubjects": 8244,
      "Ġgrief": 8245,
      "Ġblake": 8246,
      "Ġarrival": 8247,
      "Ġdivorce": 8248,
      "Ġvietnam": 8249,
      "Ġpitt": 8250,
      "Ġintense": 8251,
      "Ġgraduated": 8252,
      "Ġkam": 8253,
      "Ġjos": 8254,
      "inder": 8255,
      "Ġowners": 8256,
      "Ġstretch": 8257,
      "Ġcalendar": 8258,
      "Ġruined": 8259,
      "Ġmemories": 8260,
      "Ġwidely": 8261,
      "Ġvroom": 8262,
      "Ġcatal": 8263,
      "Ġneighbors": 8264,
      "Ġmetropolitan": 8265,
      "Ġending": 8266,
      "Ġfarmers": 8267,
      "Ġprinted": 8268,
      "Ġalternative": 8269,
      "Ġtops": 8270,
      "Ġconven": 8271,
      "Ġroots": 8272,
      "Ġfavourite": 8273,
      "Ġgrunts": 8274,
      "dam": 8275,
      "Ġlookin": 8276,
      "Ġtwin": 8277,
      "Ġmonsters": 8278,
      "Ġdepression": 8279,
      "Ġcreation": 8280,
      "Ġthoroughly": 8281,
      "Ġsymptoms": 8282,
      "Ġmassive": 8283,
      "Ġnephew": 8284,
      "Ġpenal": 8285,
      "Ġ1946": 8286,
      "Ġdetail": 8287,
      "Ġsack": 8288,
      "Ġroast": 8289,
      "Ġpeoples": 8290,
      "Ġyoungest": 8291,
      "Ġbands": 8292,
      "Ġdelightful": 8293,
      "Ġdomestic": 8294,
      "Ġbust": 8295,
      "Ġsofa": 8296,
      "Ġ1949": 8297,
      "Ġphotos": 8298,
      "Ġguardian": 8299,
      "Ġbarely": 8300,
      "Ġmissus": 8301,
      "Ġ48": 8302,
      "Ġfootballer": 8303,
      "Ġcloset": 8304,
      "ĠFriday": 8305,
      "Ġease": 8306,
      "Ġstub": 8307,
      "Ġgenius": 8308,
      "Ġtests": 8309,
      "Ġloll": 8310,
      "ĠSorry": 8311,
      "viour": 8312,
      "Ġdock": 8313,
      "Ġpeach": 8314,
      "asses": 8315,
      "Ġbreaks": 8316,
      "pected": 8317,
      "Ġattorney": 8318,
      "bal": 8319,
      "Ġpecul": 8320,
      "Ġlisted": 8321,
      "Ġrepresentative": 8322,
      "Ġballoons": 8323,
      "ennis": 8324,
      "Ġbeaten": 8325,
      "Ġdemocr": 8326,
      "ĠTw": 8327,
      "Ġskirt": 8328,
      "Ġquestioned": 8329,
      "theless": 8330,
      "Ġgrocer": 8331,
      "Ġinstruments": 8332,
      "Ġpotential": 8333,
      "Ġcoward": 8334,
      "Ġignor": 8335,
      "Ġvoyage": 8336,
      "Ġtherap": 8337,
      "Ġbars": 8338,
      "Ġhedge": 8339,
      "Ġruff": 8340,
      "Ġearthqu": 8341,
      "Ġportion": 8342,
      "Ġbureau": 8343,
      "Ġpeculiar": 8344,
      "Ġhaz": 8345,
      "Ġern": 8346,
      "Ġclaims": 8347,
      "Ġcomputers": 8348,
      "Ġmysterious": 8349,
      "Ġwendy": 8350,
      "Ġneut": 8351,
      "Ġtray": 8352,
      "Ġhollow": 8353,
      "Ġmistaken": 8354,
      "Ġcries": 8355,
      "pless": 8356,
      "Ġdisaster": 8357,
      "Ġkicking": 8358,
      "Ġsobb": 8359,
      "Ġwaving": 8360,
      "Ġrecall": 8361,
      "Ġreflect": 8362,
      "Ġrecovered": 8363,
      "Ġmoscow": 8364,
      "Ġblows": 8365,
      "Ġethn": 8366,
      "Ġseth": 8367,
      "Ġskills": 8368,
      "Ġfrequently": 8369,
      "Ġmunicipalities": 8370,
      "Ġjas": 8371,
      "Ġspear": 8372,
      "Ġpea": 8373,
      "iller": 8374,
      "Ġinte": 8375,
      "aurus": 8376,
      "til": 8377,
      "Ġlen": 8378,
      "Ġkh": 8379,
      "Ġjackie": 8380,
      "Ġselfish": 8381,
      "Ġbacon": 8382,
      "Ġther": 8383,
      "Ġberry": 8384,
      "Ġphysics": 8385,
      "Ġcatherine": 8386,
      "rond": 8387,
      "Ġvest": 8388,
      "Ġmanners": 8389,
      "Ġguinea": 8390,
      "Ġconstantly": 8391,
      "Ġapproached": 8392,
      "Ġbeings": 8393,
      "ainted": 8394,
      "Ġshield": 8395,
      "Ġbugs": 8396,
      "ded": 8397,
      "Ġtool": 8398,
      "Ġreference": 8399,
      "Ġ1955": 8400,
      "igger": 8401,
      "Ġunw": 8402,
      "Ġclassical": 8403,
      "Ġadditional": 8404,
      "Ġralph": 8405,
      "Ġny": 8406,
      "ikes": 8407,
      "Ġkatie": 8408,
      "Ġcrawl": 8409,
      "ras": 8410,
      "Ġink": 8411,
      "this": 8412,
      "Ġcandles": 8413,
      "Ġhed": 8414,
      "Ġabroad": 8415,
      "agger": 8416,
      "Ġbean": 8417,
      "Ġarcher": 8418,
      "ĠHello": 8419,
      "Ġcheerful": 8420,
      "jac": 8421,
      "Ġeveryday": 8422,
      "ffin": 8423,
      "Ġ39": 8424,
      "Ġgraham": 8425,
      "shit": 8426,
      "Ġmotorcy": 8427,
      "Ġparrot": 8428,
      "ova": 8429,
      "Ġnegot": 8430,
      "Ġgradually": 8431,
      "Ġconstitu": 8432,
      "Ġmonsieur": 8433,
      "Ġtrash": 8434,
      "Ġovert": 8435,
      "Ġjudy": 8436,
      "Ġresistance": 8437,
      "Ġslippers": 8438,
      "Ġoranges": 8439,
      "elling": 8440,
      "Ġrocky": 8441,
      "Ġgardens": 8442,
      "Ġcostume": 8443,
      "Ġtramp": 8444,
      "ogue": 8445,
      "Ġdeli": 8446,
      "Ġreminds": 8447,
      "Ġstack": 8448,
      "ĠThen": 8449,
      "Ġdigital": 8450,
      "Ġcollected": 8451,
      "26": 8452,
      "Ġgam": 8453,
      "Ġkaz": 8454,
      "Ġdeaths": 8455,
      "Ġ1954": 8456,
      "Ġsailed": 8457,
      "Ġdebt": 8458,
      "ĠMrs": 8459,
      "Ġmes": 8460,
      "Ġyuck": 8461,
      "Ġlodge": 8462,
      "Ġsitu": 8463,
      "Ġgoddamn": 8464,
      "Ġbehold": 8465,
      "agg": 8466,
      "Ġjoking": 8467,
      "Ġsecrets": 8468,
      "Ġchecking": 8469,
      "Ġvirus": 8470,
      "Ġassistance": 8471,
      "Ġstretched": 8472,
      "Ġwwe": 8473,
      "Ġpon": 8474,
      "ller": 8475,
      "owa": 8476,
      "Ġmaur": 8477,
      "Ġdirections": 8478,
      "Ġpraise": 8479,
      "Ġaint": 8480,
      "Ġnotable": 8481,
      "iley": 8482,
      "Ġcolony": 8483,
      "Ġsingers": 8484,
      "Ġdrops": 8485,
      "cour": 8486,
      "hun": 8487,
      "Ġhorns": 8488,
      "rup": 8489,
      "Ġtire": 8490,
      "heas": 8491,
      "Ġprayers": 8492,
      "Ġdiagn": 8493,
      "Ġatom": 8494,
      "Ġskull": 8495,
      "ippi": 8496,
      "Ġformerly": 8497,
      "long": 8498,
      "dale": 8499,
      "Ġnich": 8500,
      "Ġkath": 8501,
      "Ġmead": 8502,
      "Ġcole": 8503,
      "Ġcircles": 8504,
      "Ġcritics": 8505,
      "jamin": 8506,
      "Ġgrunting": 8507,
      "Ġjonathan": 8508,
      "Ġhitting": 8509,
      "Ġallows": 8510,
      "Ġcarter": 8511,
      "Ġassass": 8512,
      "becca": 8513,
      "Ġrect": 8514,
      "ĠMay": 8515,
      "Ġsurvey": 8516,
      "Ġsie": 8517,
      "acles": 8518,
      "Ġdynam": 8519,
      "hoo": 8520,
      "Ġnevertheless": 8521,
      "brush": 8522,
      "oyd": 8523,
      "Ġsailors": 8524,
      "Ġdiscussion": 8525,
      "Ġcrisis": 8526,
      "vant": 8527,
      "Ġpatri": 8528,
      "ographer": 8529,
      "Ġfans": 8530,
      "inton": 8531,
      "Ġsomers": 8532,
      "Ġadults": 8533,
      "Ġmurmured": 8534,
      "Ġwrapped": 8535,
      "Ġmack": 8536,
      "they": 8537,
      "Ġ1942": 8538,
      "Ġtesting": 8539,
      "Ġvotes": 8540,
      "Ġdating": 8541,
      "Ġjessie": 8542,
      "Ġscouts": 8543,
      "37": 8544,
      "Ġtwins": 8545,
      "Ġambass": 8546,
      "28": 8547,
      "Ġdates": 8548,
      "Ġfeared": 8549,
      "Ġri": 8550,
      "Ġspoons": 8551,
      "Ġsuperior": 8552,
      "cot": 8553,
      "Ġalab": 8554,
      "ienna": 8555,
      "works": 8556,
      "Ġnanny": 8557,
      "ople": 8558,
      "Ġdebbie": 8559,
      "Ġmississ": 8560,
      "zzy": 8561,
      "Ġgifts": 8562,
      "olas": 8563,
      "Ġlod": 8564,
      "Ġsatell": 8565,
      "Ġjuan": 8566,
      "Ġhoriz": 8567,
      "hara": 8568,
      "Ġdw": 8569,
      "Ġtrot": 8570,
      "Ġcorps": 8571,
      "Ġabsor": 8572,
      "orld": 8573,
      "Ġjill": 8574,
      "Ġconsum": 8575,
      "ĠDoes": 8576,
      "Ġgreece": 8577,
      "Ġcure": 8578,
      "teenth": 8579,
      "Ġparaly": 8580,
      "Ġstuffed": 8581,
      "Ġabsence": 8582,
      "Ġrevealed": 8583,
      "27": 8584,
      "orpor": 8585,
      "Ġcausing": 8586,
      "enses": 8587,
      "Ġbedtime": 8588,
      "Ġremarkable": 8589,
      "Ġvolleyball": 8590,
      "34": 8591,
      "Ġstarred": 8592,
      "colm": 8593,
      "Ġaeroplane": 8594,
      "Ġfreder": 8595,
      "Ġnaval": 8596,
      "Ġpence": 8597,
      "Ġstall": 8598,
      "aga": 8599,
      "Ġsharing": 8600,
      "Ġextraordinary": 8601,
      "Ġreputation": 8602,
      "Ġraj": 8603,
      "Ġ1939": 8604,
      "Ġmischief": 8605,
      "hire": 8606,
      "Ġnhl": 8607,
      "Ġtalent": 8608,
      "Ġprovinces": 8609,
      "Ġbak": 8610,
      "Ġpoured": 8611,
      "Ġnit": 8612,
      "itage": 8613,
      "Ġmoses": 8614,
      "Ġarrond": 8615,
      "ĠSome": 8616,
      "Ġexpressed": 8617,
      "Ġpermitted": 8618,
      "Ġdug": 8619,
      "Ġsteep": 8620,
      "Ġexplosion": 8621,
      "there": 8622,
      "inating": 8623,
      "itals": 8624,
      "riet": 8625,
      "ĠEurope": 8626,
      "Ġautumn": 8627,
      "Ġoscar": 8628,
      "Ġsponge": 8629,
      "Ġarrondisse": 8630,
      "Ġere": 8631,
      "Ġstead": 8632,
      "Ġbenjamin": 8633,
      "Ġrefuge": 8634,
      "Ġmales": 8635,
      "Ġbehave": 8636,
      "Ġpajamas": 8637,
      "Ġbegged": 8638,
      "Ġsultan": 8639,
      "bing": 8640,
      "Ġitem": 8641,
      "Ġsyn": 8642,
      "Ġedna": 8643,
      "ĠDavid": 8644,
      "Ġconfeder": 8645,
      "Ġreplace": 8646,
      "Ġconsidering": 8647,
      "Ġjulie": 8648,
      "Ġbrooklyn": 8649,
      "Ġvehicles": 8650,
      "Ġbeads": 8651,
      "Ġasks": 8652,
      "Ġnecessarily": 8653,
      "pea": 8654,
      "Ġmerged": 8655,
      "Ġworthy": 8656,
      "Ġgig": 8657,
      "Ġandre": 8658,
      "Ġprecise": 8659,
      "Ġraising": 8660,
      "Ġapprox": 8661,
      "Ġdismiss": 8662,
      "Ġtox": 8663,
      "orous": 8664,
      "Ġregist": 8665,
      "Ġmasters": 8666,
      "Ġgranted": 8667,
      "Ġenvironmental": 8668,
      "Ġdial": 8669,
      "Ġkite": 8670,
      "Ġjur": 8671,
      "ĠSund": 8672,
      "Ġduties": 8673,
      "Ġ1920": 8674,
      "Ġversions": 8675,
      "Ġdio": 8676,
      "vering": 8677,
      "Ġorient": 8678,
      "Ġadding": 8679,
      "Ġsophie": 8680,
      "ĠChairman": 8681,
      "Ġsty": 8682,
      "Ġclara": 8683,
      "Ġblaz": 8684,
      "Ġwaff": 8685,
      "Ġcounties": 8686,
      "Ġidentity": 8687,
      "dri": 8688,
      "Ġpel": 8689,
      "Ġkan": 8690,
      "Ġprices": 8691,
      "Ġfrozen": 8692,
      "Ġprotected": 8693,
      "Ġbacter": 8694,
      "Ġnodd": 8695,
      "Ġshelf": 8696,
      "Ġfemales": 8697,
      "cules": 8698,
      "Ġfiring": 8699,
      "ĠCounty": 8700,
      "Ġangle": 8701,
      "bir": 8702,
      "Ġwrap": 8703,
      "Ġhence": 8704,
      "corder": 8705,
      "kind": 8706,
      "Ġpatsy": 8707,
      "Ġmelissa": 8708,
      "Ġmichelle": 8709,
      "inks": 8710,
      "Ġaustin": 8711,
      "Ġindividuals": 8712,
      "Ġcomposer": 8713,
      "Ġtires": 8714,
      "Ġaloud": 8715,
      "Ġconver": 8716,
      "Ġcontrolled": 8717,
      "Ġscenes": 8718,
      "bly": 8719,
      "uctor": 8720,
      "Ġsain": 8721,
      "itter": 8722,
      "Ġtroubled": 8723,
      "Ġnahs": 8724,
      "Ġtreas": 8725,
      "Ġbatt": 8726,
      "Ġcleaned": 8727,
      "Ġnecklace": 8728,
      "Ġadmiral": 8729,
      "Ġphilosophy": 8730,
      "Ġcared": 8731,
      "Ġstealing": 8732,
      "Ġmississippi": 8733,
      "ingle": 8734,
      "isp": 8735,
      "Ġmovements": 8736,
      "Ġdelicate": 8737,
      "Ġreasonable": 8738,
      "Ġlatest": 8739,
      "Ġeffective": 8740,
      "Ġdimitra": 8741,
      "mission": 8742,
      "Ġcrane": 8743,
      "Ġlongest": 8744,
      "Ġacknow": 8745,
      "Ġenormous": 8746,
      "Ġwes": 8747,
      "Ġhappily": 8748,
      "Ġfounder": 8749,
      "Ġobtain": 8750,
      "Ġburton": 8751,
      "Ġ179": 8752,
      "Ġdigging": 8753,
      "Ġgary": 8754,
      "rob": 8755,
      "Ġcrashed": 8756,
      "agers": 8757,
      "Ġ65": 8758,
      "Ġ1944": 8759,
      "Ġoch": 8760,
      "Ġrack": 8761,
      "Ġcrimes": 8762,
      "Ġinterfe": 8763,
      "Ġ150": 8764,
      "Ġcorporation": 8765,
      "dhv": 8766,
      "Ġtremendous": 8767,
      "Ġnodded": 8768,
      "lldhv": 8769,
      "otal": 8770,
      "Ġcollea": 8771,
      "Ġconstruct": 8772,
      "Ġcopper": 8773,
      "Ġmarty": 8774,
      "Ġnahslldhv": 8775,
      "Ġbade": 8776,
      "Ġtoby": 8777,
      "Ġbored": 8778,
      "ĠThree": 8779,
      "Ġbavaria": 8780,
      "Ġdak": 8781,
      "Ġharris": 8782,
      "ondon": 8783,
      "Ġimpressed": 8784,
      "Ġimperial": 8785,
      "Ġcomic": 8786,
      "Ġcharity": 8787,
      "Ġopposed": 8788,
      "Ġcreep": 8789,
      "leg": 8790,
      "Ġstout": 8791,
      "oodle": 8792,
      "Ġpersian": 8793,
      "Ġ1941": 8794,
      "Ġinjury": 8795,
      "Ġegyptian": 8796,
      "uns": 8797,
      "Ġregister": 8798,
      "Ġhopefully": 8799,
      "Ġcovering": 8800,
      "Ġheap": 8801,
      "Ġbrum": 8802,
      "Ġannounce": 8803,
      "Ġnarrator": 8804,
      "Ġpilgr": 8805,
      "chard": 8806,
      "Ġrober": 8807,
      "Ġindign": 8808,
      "Ġdouglas": 8809,
      "Ġmartha": 8810,
      "Ġarnold": 8811,
      "cript": 8812,
      "lord": 8813,
      "Ġpunk": 8814,
      "Ġdestruction": 8815,
      "Ġyoud": 8816,
      "Ġobtained": 8817,
      "Ġgrounds": 8818,
      "Ġmoral": 8819,
      "Ġwigg": 8820,
      "Ġinher": 8821,
      "Ġthread": 8822,
      "Ġshiny": 8823,
      "ands": 8824,
      "Ġchristians": 8825,
      "Ġ1951": 8826,
      "Ġavenue": 8827,
      "cill": 8828,
      "Ġew": 8829,
      "Ġlied": 8830,
      "ĠTr": 8831,
      "Ġmuslim": 8832,
      "rows": 8833,
      "Ġstrongly": 8834,
      "Ġoctop": 8835,
      "Ġaccounts": 8836,
      "onna": 8837,
      "Ġniger": 8838,
      "Ġfries": 8839,
      "Ġpears": 8840,
      "Ġ1953": 8841,
      "Ġcrystal": 8842,
      "Ġunexpected": 8843,
      "Ġgulf": 8844,
      "Ġmario": 8845,
      "ibly": 8846,
      "Ġtube": 8847,
      "Ġment": 8848,
      "Ġyan": 8849,
      "Ġhir": 8850,
      "Ġmetres": 8851,
      "Ġ1943": 8852,
      "Ġbalt": 8853,
      "Ġira": 8854,
      "Ġclo": 8855,
      "Ġcommanded": 8856,
      "Ġcustomers": 8857,
      "Ġacquaint": 8858,
      "erman": 8859,
      "Ġkas": 8860,
      "Ġshepher": 8861,
      "Ġspit": 8862,
      "Ġtypical": 8863,
      "Ġdelivery": 8864,
      "Ġleo": 8865,
      "Ġblown": 8866,
      "Ġpoem": 8867,
      "Ġaccur": 8868,
      "Ġawk": 8869,
      "Ġsimpl": 8870,
      "Ġrailroad": 8871,
      "Ġrangers": 8872,
      "Ġinterests": 8873,
      "Ġsteamer": 8874,
      "Ġthrust": 8875,
      "Ġcommunist": 8876,
      "ĠX": 8877,
      "Ġhend": 8878,
      "cience": 8879,
      "Ġcoke": 8880,
      "Ġrelatives": 8881,
      "Ġsolve": 8882,
      "Ġunconscious": 8883,
      "Ġrasc": 8884,
      "idae": 8885,
      "Ġstrain": 8886,
      "lson": 8887,
      "Ġcontrovers": 8888,
      "Ġsupporting": 8889,
      "hile": 8890,
      "say": 8891,
      "Ġorphan": 8892,
      "Ġflows": 8893,
      "Ġhelpless": 8894,
      "Ġscreams": 8895,
      "Ġbry": 8896,
      "Ġisa": 8897,
      "Ġdrives": 8898,
      "Ġbullshit": 8899,
      "hearted": 8900,
      "Ġexperienced": 8901,
      "Ġclue": 8902,
      "Ġheh": 8903,
      "Ġmounted": 8904,
      "Ġinspired": 8905,
      "ĠBl": 8906,
      "bus": 8907,
      "Ġarose": 8908,
      "Ġpars": 8909,
      "Ġhose": 8910,
      "izzy": 8911,
      "Ġkisses": 8912,
      "rep": 8913,
      "Ġinch": 8914,
      "Ġreform": 8915,
      "Ġprey": 8916,
      "Ġtreaty": 8917,
      "Ġiniti": 8918,
      "Ġconcluded": 8919,
      "Ġwret": 8920,
      "dr": 8921,
      "wed": 8922,
      "Ġindones": 8923,
      "Ġstrangers": 8924,
      "Ġwriters": 8925,
      "rem": 8926,
      "Ġstrip": 8927,
      "Ġbucks": 8928,
      "omon": 8929,
      "Ġwillie": 8930,
      "Ġtechnical": 8931,
      "Ġdivorced": 8932,
      "Ġawkward": 8933,
      "Ġmarsha": 8934,
      "ipsy": 8935,
      "Ġsources": 8936,
      "Ġbou": 8937,
      "Ġdang": 8938,
      "Ġacce": 8939,
      "Ġ1934": 8940,
      "Ġcounsel": 8941,
      "Ġsighed": 8942,
      "bai": 8943,
      "orus": 8944,
      "Ġpermanent": 8945,
      "burn": 8946,
      "pas": 8947,
      "Ġsank": 8948,
      "Ġskip": 8949,
      "Ġclassic": 8950,
      "Ġcelebrate": 8951,
      "vy": 8952,
      "acel": 8953,
      "Ġwhip": 8954,
      "una": 8955,
      "aughter": 8956,
      "Ġshells": 8957,
      "Ġarchitect": 8958,
      "apore": 8959,
      "Ġmeetings": 8960,
      "Ġcommunication": 8961,
      "Ġpractical": 8962,
      "Ġfaced": 8963,
      "Ġselect": 8964,
      "olf": 8965,
      "Ġagents": 8966,
      "Ġpassenger": 8967,
      "Ġsubmar": 8968,
      "Ġopposition": 8969,
      "Ġsausages": 8970,
      "ĠSunday": 8971,
      "Ġbeloved": 8972,
      "Ġangels": 8973,
      "Ġgroans": 8974,
      "Ġturkish": 8975,
      "rics": 8976,
      "Ġridge": 8977,
      "Ġcamel": 8978,
      "Ġeter": 8979,
      "Ġmul": 8980,
      "Ġappropriate": 8981,
      "Ġcombined": 8982,
      "borough": 8983,
      "Ġtelly": 8984,
      "Ġskipper": 8985,
      "Ġcollar": 8986,
      "ĠLondon": 8987,
      "Ġstripes": 8988,
      "Ġcombat": 8989,
      "Ġborders": 8990,
      "Ġschedule": 8991,
      "Ġgamb": 8992,
      "Ġreduced": 8993,
      "Ġanxiously": 8994,
      "onym": 8995,
      "Ġbapt": 8996,
      "Ġinformed": 8997,
      "Ġjazz": 8998,
      "antha": 8999,
      "Ġtrim": 9000,
      "Ġscul": 9001,
      "Ġinvitation": 9002,
      "Ġfeatured": 9003,
      "36": 9004,
      "Ġcable": 9005,
      "velope": 9006,
      "Ġneur": 9007,
      "ĠMond": 9008,
      "Ġvisiting": 9009,
      "Ġtigers": 9010,
      "Ġdwar": 9011,
      "Ġcanal": 9012,
      "Ġchile": 9013,
      "Ġraven": 9014,
      "Ġsympathy": 9015,
      "nut": 9016,
      "Ġgit": 9017,
      "Ġgill": 9018,
      "Ġvienna": 9019,
      "Ġprisc": 9020,
      "Ġpasses": 9021,
      "Ġbusinessman": 9022,
      "Ġcousins": 9023,
      "Ġpace": 9024,
      "Ġbroom": 9025,
      "giving": 9026,
      "hop": 9027,
      "Ġwears": 9028,
      "ensity": 9029,
      "Ġdecisions": 9030,
      "zed": 9031,
      "inking": 9032,
      "Ġjudgment": 9033,
      "Ġpearl": 9034,
      "Ġtroll": 9035,
      "iry": 9036,
      "ggie": 9037,
      "Ġlouder": 9038,
      "Ġprinciple": 9039,
      "47": 9040,
      "ran": 9041,
      "onent": 9042,
      "Ġamen": 9043,
      "Ġreserve": 9044,
      "Ġwolves": 9045,
      "Ġwidow": 9046,
      "Ġhollywood": 9047,
      "Ġcannon": 9048,
      "Ġdessert": 9049,
      "Ġdong": 9050,
      "Ġcustomer": 9051,
      "Ġjacob": 9052,
      "hu": 9053,
      "jor": 9054,
      "ilda": 9055,
      "Ġ1936": 9056,
      "Ġbarking": 9057,
      "Ġmethods": 9058,
      "Ġaus": 9059,
      "Ġtrapped": 9060,
      "agne": 9061,
      "Ġentering": 9062,
      "coming": 9063,
      "uki": 9064,
      "Ġregiment": 9065,
      "Ġinsist": 9066,
      "Ġtravelling": 9067,
      "Ġkarl": 9068,
      "foot": 9069,
      "Ġoclock": 9070,
      "Ġdennis": 9071,
      "Ġsoda": 9072,
      "Ġgrape": 9073,
      "Ġoffering": 9074,
      "Ġjohan": 9075,
      "Ġresolved": 9076,
      "Ġrepair": 9077,
      "Ġsalv": 9078,
      "Ġwebsite": 9079,
      "heastern": 9080,
      "lay": 9081,
      "Ġprosec": 9082,
      "Ġenvelope": 9083,
      "Ġdaylight": 9084,
      "Ġthankful": 9085,
      "Ġconsists": 9086,
      "thy": 9087,
      "...": 9088,
      "Ġresign": 9089,
      "Ġuniversal": 9090,
      "Ġpockets": 9091,
      "Ġsearching": 9092,
      "Ġintegr": 9093,
      "Ġmant": 9094,
      "Ġcem": 9095,
      "era": 9096,
      "Ġpion": 9097,
      "Ġlettuce": 9098,
      "arse": 9099,
      "Ġhelpful": 9100,
      "Ġ1938": 9101,
      "will": 9102,
      "Ġjere": 9103,
      "Ġcracker": 9104,
      "Ġcartoon": 9105,
      "Ġhalloween": 9106,
      "Ġeth": 9107,
      "Ġassh": 9108,
      "Ġmessy": 9109,
      "Ġillustrations": 9110,
      "Ġambassador": 9111,
      "Ġimmig": 9112,
      "Ġnappie": 9113,
      "itled": 9114,
      "Ġhire": 9115,
      "osl": 9116,
      "Ġtwist": 9117,
      "Ġinstinct": 9118,
      "Ġfifa": 9119,
      "Ġcreating": 9120,
      "Ġgym": 9121,
      "Ġuncomfort": 9122,
      "Ġimpatient": 9123,
      "29": 9124,
      "Ġneedle": 9125,
      "Ġproperties": 9126,
      "respond": 9127,
      "xford": 9128,
      "ĠAmer": 9129,
      "Ġsla": 9130,
      "Ġ...": 9131,
      "Ġmagnific": 9132,
      "Ġpipp": 9133,
      "Ġsharply": 9134,
      "Ġrotten": 9135,
      "rating": 9136,
      "Ġuna": 9137,
      "iga": 9138,
      "Ġbothered": 9139,
      "Ġsingapore": 9140,
      "Ġfloating": 9141,
      "Ġdancer": 9142,
      "walk": 9143,
      "Ġlecture": 9144,
      "Ġswww": 9145,
      "Ġsupplies": 9146,
      "Ġinsects": 9147,
      "mod": 9148,
      "Ġmuscles": 9149,
      "ĠGet": 9150,
      "flies": 9151,
      "Ġpoop": 9152,
      "Ġnegro": 9153,
      "Ġchemistry": 9154,
      "uma": 9155,
      "Ġintent": 9156,
      "Ġcathed": 9157,
      "Ġrefers": 9158,
      "Ġevelyn": 9159,
      "armed": 9160,
      "uther": 9161,
      "Ġinternal": 9162,
      "Ġelectronic": 9163,
      "cano": 9164,
      "Ġnee": 9165,
      "Ġorbit": 9166,
      "Ġloan": 9167,
      "Ġdisgr": 9168,
      "ulting": 9169,
      "Ġswept": 9170,
      "Ġmah": 9171,
      "Ġcurly": 9172,
      "Ġpierre": 9173,
      "Ġcurtains": 9174,
      "Ġanalysis": 9175,
      "iah": 9176,
      "onto": 9177,
      "Ġcurios": 9178,
      "Ġmidst": 9179,
      "Ġemployed": 9180,
      "Ġcrowded": 9181,
      "Ġkennedy": 9182,
      "ĠHere": 9183,
      "Ġhugh": 9184,
      "Ġalabama": 9185,
      "Ġprote": 9186,
      "Ġharrison": 9187,
      "Ġstatue": 9188,
      "Ġbelgium": 9189,
      "encies": 9190,
      "Ġheels": 9191,
      "Ġscand": 9192,
      "Ġsuggestion": 9193,
      "Ġsurvived": 9194,
      "Ġpaintings": 9195,
      "rin": 9196,
      "Ġzip": 9197,
      "Ġbattles": 9198,
      "Ġcoron": 9199,
      "Ġparking": 9200,
      "orse": 9201,
      "Ġrage": 9202,
      "Ġhomework": 9203,
      "Ġreprod": 9204,
      "Ġfiles": 9205,
      "Ġretirement": 9206,
      "Ġsculpt": 9207,
      "Ġrebecca": 9208,
      "iffe": 9209,
      "Ġmedium": 9210,
      "Ġstickers": 9211,
      "Ġjoining": 9212,
      "Ġdragged": 9213,
      "Ġbenefits": 9214,
      "Ġpudding": 9215,
      "Ġdisgusting": 9216,
      "Ġconclusion": 9217,
      "gage": 9218,
      "unks": 9219,
      "Ġlear": 9220,
      "Ġcharts": 9221,
      "Ġformal": 9222,
      "Ġcorrespond": 9223,
      "Ġplanes": 9224,
[...]
