{
  "version": "1.0",
  "truncation": null,
  "padding": null,
  "added_tokens": [
    {
      "id": 0,
      "content": "<pad>",
      "single_word": false,
      "lstrip": false,
      "rstrip": false,
      "normalized": false,
      "special": true
    },
    {
      "id": 1,
      "content": "<s>",
      "single_word": false,
      "lstrip": false,
      "rstrip": false,
      "normalized": false,
      "special": true
    },
    {
      "id": 2,
      "content": "</s>",
      "single_word": false,
      "lstrip": false,
      "rstrip": false,
      "normalized": false,
      "special": true
    }
  ],
  "normalizer": {
    "type": "NFKC"
  },
  "pre_tokenizer": {
    "type": "ByteLevel",
    "add_prefix_space": true,
    "trim_offsets": true,
    "use_regex": true
  },
  "post_processor": {
    "type": "ByteLevel",
    "add_prefix_space": true,
    "trim_offsets": true,
    "use_regex": true
  },
  "decoder": {
    "type": "ByteLevel",
    "add_prefix_space": true,
    "trim_offsets": true,
    "use_regex": true
  },
  "model": {
    "type": "BPE",
    "dropout": null,
    "unk_token": null,
    "continuing_subword_prefix": null,
    "end_of_word_suffix": null,
    "fuse_unk": false,
    "byte_fallback": false,
    "ignore_merges": false,
    "vocab": {
      "<pad>": 0,
      "<s>": 1,
      "</s>": 2,
      "!": 3,
      "'": 4,
      ",": 5,
      "-": 6,
      ".": 7,
      "0": 8,
      "1": 9,
      "2": 10,
      "3": 11,
      "4": 12,
      "5": 13,
      "6": 14,
      "7": 15,
      "8": 16,
      "9": 17,
      "?": 18,
      "A": 19,
      "B": 20,
      "C": 21,
      "D": 22,
      "E": 23,
      "F": 24,
      "G": 25,
      "H": 26,
      "I": 27,
      "J": 28,
      "K": 29,
      "L": 30,
      "M": 31,
      "N": 32,
      "O": 33,
      "P": 34,
      "Q": 35,
      "R": 36,
      "S": 37,
      "T": 38,
      "U": 39,
      "V": 40,
      "W": 41,
      "X": 42,
      "Y": 43,
      "Z": 44,
      "_": 45,
      "a": 46,
      "b": 47,
      "c": 48,
      "d": 49,
      "e": 50,
      "f": 51,
      "g": 52,
      "h": 53,
      "i": 54,
      "j": 55,
      "k": 56,
      "l": 57,
      "m": 58,
      "n": 59,
      "o": 60,
      "p": 61,
      "q": 62,
      "r": 63,
      "s": 64,
      "t": 65,
      "u": 66,
      "v": 67,
      "w": 68,
      "x": 69,
      "y": 70,
      "z": 71,
      "¦": 72,
      "©": 73,
      "·": 74,
      "Ã": 75,
      "É": 76,
      "Ê": 77,
      "Ċ": 78,
      "Ġ": 79,
      "Į": 80,
      "Ļ": 81,
      "Ľ": 82,
      "ł": 83,
      "Ġt": 84,
      "he": 85,
      "Ġa": 86,
      "Ġi": 87,
      "Ġw": 88,
      "Ġthe": 89,
      "Ġs": 90,
      "Ġo": 91,
      "re": 92,
      "ou": 93,
      "ha": 94,
      "in": 95,
      "Ġb": 96,
      "Ġc": 97,
      "Ġm": 98,
      "er": 99,
      "nd": 100,
      "Ġd": 101,
      "Ġy": 102,
      "Ġf": 103,
      "Ġp": 104,
      "on": 105,
      "Ġyou": 106,
      "Ġg": 107,
      "ll": 108,
      "an": 109,
      "Ġl": 110,
      "Ġto": 111,
      "ing": 112,
      "or": 113,
      "es": 114,
      "ed": 115,
      "Ġn": 116,
      "hat": 117,
      "Ġand": 118,
      "en": 119,
      "Ġin": 120,
      "is": 121,
      "Ġof": 122,
      "it": 123,
      "ar": 124,
      "Ġhe": 125,
      "as": 126,
      "Ġit": 127,
      "at": 128,
      "Ġh": 129,
      "om": 130,
      "Ġha": 131,
      "Ġthat": 132,
      "ow": 133,
      "'s": 134,
      "ot": 135,
      "Ġth": 136,
      "Ġon": 137,
      "le": 138,
      "ay": 139,
      "ve": 140,
      "ic": 141,
      "et": 142,
      "ut": 143,
      "Ġu": 144,
      "Ġwe": 145,
      "Ġis": 146,
      "Ġe": 147,
      "id": 148,
      "Ġbe": 149,
      "st": 150,
      "gh": 151,
      "Ġwas": 152,
      "al": 153,
      "se": 154,
      "Ġr": 155,
      "ld": 156,
      "oo": 157,
      "Ġdo": 158,
      "Ġre": 159,
      "ke": 160,
      "Ġst": 161,
      "Ġfor": 162,
      "ad": 163,
      "ver": 164,
      "'t": 165,
      "ion": 166,
      "ent": 167,
      "ac": 168,
      "ir": 169,
      "Ġk": 170,
      "ght": 171,
      "am": 172,
      "im": 173,
      "Ġwhat": 174,
      "ly": 175,
      "Ġj": 176,
      "Ġan": 177,
      "Ġwh": 178,
      "ea": 179,
      "Ġgo": 180,
      "ur": 181,
      "Ġas": 182,
      "Ġse": 183,
      "ith": 184,
      "ight": 185,
      "Ġthere": 186,
      "Ġno": 187,
      "Ġwith": 188,
      "her": 189,
      "xx": 190,
      "Ġme": 191,
      "ome": 192,
      "Ġthis": 193,
      "Ġshe": 194,
      "Ġli": 195,
      "Ġthey": 196,
      "ch": 197,
      "all": 198,
      "Ġnot": 199,
      "Ġat": 200,
      "Ġhave": 201,
      "Ġare": 202,
      "ro": 203,
      "ter": 204,
      "Ġone": 205,
      "Ġwhe": 206,
      "ould": 207,
      "ĠI": 208,
      "Ġcan": 209,
      "ce": 210,
      "ill": 211,
      "Ġfr": 212,
      "Ġso": 213,
      "eah": 214,
      "Ġ1": 215,
      "Ġkn": 216,
      "ie": 217,
      "Ġbut": 218,
      "Ġoh": 219,
      "ct": 220,
      "Ġdon": 221,
      "il": 222,
      "Ġhis": 223,
      "Ġne": 224,
      "Ġsa": 225,
      "Ġde": 226,
      "um": 227,
      "ook": 228,
      "ant": 229,
      "un": 230,
      "Ġmo": 231,
      "Ġknow": 232,
      "ust": 233,
      "Ġyeah": 234,
      "Ġyour": 235,
      "Ġall": 236,
      "ain": 237,
      "op": 238,
      "Ġher": 239,
      "Ġal": 240,
      "Ġup": 241,
      "Ġlike": 242,
      "th": 243,
      "Ġsh": 244,
      "Ġor": 245,
      "Ġ2": 246,
      "Ġhad": 247,
      "ge": 248,
      "and": 249,
      "Ġmy": 250,
      "ab": 251,
      "Ġpl": 252,
      "us": 253,
      "ol": 254,
      "Ġtr": 255,
      "ig": 256,
      "Ġsee": 257,
      "Ġdid": 258,
      "pp": 259,
      "ink": 260,
      "ood": 261,
      "ul": 262,
      "Ġby": 263,
      "Ġget": 264,
      "Ġfrom": 265,
      "art": 266,
      "Ġsu": 267,
      "Ġab": 268,
      "ake": 269,
      "Ġxx": 270,
      "out": 271,
      "Ġxxx": 272,
      "red": 273,
      "nt": 274,
      "ation": 275,
      "qu": 276,
      "Ġlook": 277,
      "Ġcom": 278,
      "Ġout": 279,
      "na": 280,
      "ess": 281,
      "Ġv": 282,
      "ell": 283,
      "ers": 284,
      "very": 285,
      "est": 286,
      "Ġwere": 287,
      "Ġhere": 288,
      "Ġsome": 289,
      "ck": 290,
      "Ġsaid": 291,
      "Ġhim": 292,
      "itt": 293,
      "Ġsp": 294,
      "ack": 295,
      "Ġthem": 296,
      "au": 297,
      "ame": 298,
      "Ġch": 299,
      "res": 300,
      "ap": 301,
      "Ġbo": 302,
      "Ġif": 303,
      "Ġthink": 304,
      "Ġthen": 305,
      "ist": 306,
      "Ġer": 307,
      "Ġwho": 308,
      "Ġgot": 309,
      "Ġnow": 310,
      "ri": 311,
      "han": 312,
      "Ġ20": 313,
      "'re": 314,
      "ind": 315,
      "Ġwhen": 316,
      "Ġ19": 317,
      "Ġwould": 318,
      "ard": 319,
      "Ġwor": 320,
      "ound": 321,
      "Ġcon": 322,
      "os": 323,
      "Ġwell": 324,
      "Ġtw": 325,
      "Ġbr": 326,
      "our": 327,
      "Ġjust": 328,
      "ast": 329,
      "el": 330,
      "Ġwhere": 331,
      "own": 332,
      "ally": 333,
      "em": 334,
      "ive": 335,
      "ong": 336,
      "ber": 337,
      "Ġput": 338,
      "Ġwant": 339,
      "if": 340,
      "ich": 341,
      "Ġright": 342,
      "kay": 343,
      "ort": 344,
      "Ġpro": 345,
      "Ġabout": 346,
      "ies": 347,
      "ate": 348,
      "Ġex": 349,
      "Ġwill": 350,
      "Ġman": 351,
      "Ġgood": 352,
      "Ġsay": 353,
      "ak": 354,
      "Ġyes": 355,
      "ag": 356,
      "ry": 357,
      "Ġokay": 358,
      "Ġam": 359,
      "ven": 360,
      "Ġany": 361,
      "one": 362,
      "Ġus": 363,
      "'ll": 364,
      "Ġgr": 365,
      "fe": 366,
      "ick": 367,
      "ittle": 368,
      "Ġlittle": 369,
      "Ġ'": 370,
      "ther": 371,
      "Ġtim": 372,
      "ice": 373,
      "Ġwhich": 374,
      "Ġcome": 375,
      "Ġhow": 376,
      "ough": 377,
      "Ġar": 378,
      "ine": 379,
      "Ġpe": 380,
      "Ġag": 381,
      "Ġcl": 382,
      "Ġvery": 383,
      "Ġplay": 384,
      "Ġhas": 385,
      "Ġtwo": 386,
      "Ġmore": 387,
      "Ġle": 388,
      "ide": 389,
      "Ġun": 390,
      "ose": 391,
      "Ġuh": 392,
      "Ġco": 393,
      "ity": 394,
      "ause": 395,
      "ep": 396,
      "Ġdown": 397,
      "'m": 398,
      "ore": 399,
      "Ġint": 400,
      "ous": 401,
      "Ġlet": 402,
      "Ġfe": 403,
      "Ġqu": 404,
      "Ġaf": 405,
      "Ġlo": 406,
      "ĠY": 407,
      "Ġgoing": 408,
      "ite": 409,
      "ree": 410,
      "dy": 411,
      "Ġro": 412,
      "other": 413,
      "Ġother": 414,
      "my": 415,
      "Ġcould": 416,
      "ip": 417,
      "ish": 418,
      "Ġbec": 419,
      "Ġbl": 420,
      "Ġtime": 421,
      "Ġbeen": 422,
      "Ġover": 423,
      "way": 424,
      "ment": 425,
      "ild": 426,
      "Ġtoo": 427,
      "Ġthan": 428,
      "Ġoff": 429,
      "Ġtheir": 430,
      "Ġback": 431,
      "Ġen": 432,
      "ĠT": 433,
      "Ġthing": 434,
      "ace": 435,
      "Ġdoes": 436,
      "ian": 437,
      "ĠW": 438,
      "hing": 439,
      "lf": 440,
      "'ve": 441,
      "Ġcha": 442,
      "orn": 443,
      "ra": 444,
      "Ġte": 445,
      "Ġsha": 446,
      "ft": 447,
      "ia": 448,
      "Ġpo": 449,
      "ary": 450,
      "ĠA": 451,
      "are": 452,
      "ud": 453,
      "ars": 454,
      "Ġmake": 455,
      "ount": 456,
      "uh": 457,
      "Ġpeop": 458,
      "Ġfir": 459,
      "Ġpr": 460,
      "Ġpeople": 461,
      "Ġgon": 462,
      "ure": 463,
      "Ġafter": 464,
      "ue": 465,
      "ty": 466,
      "ire": 467,
      "age": 468,
      "iv": 469,
      "ater": 470,
      "Ġgonna": 471,
      "Ġcar": 472,
      "hed": 473,
      "Ġfl": 474,
      "Ġfirst": 475,
      "Ġjo": 476,
      "Ġgre": 477,
      "Ġagain": 478,
      "Ġpart": 479,
      "Ġmay": 480,
      "pt": 481,
      "so": 482,
      "Ġwan": 483,
      "Ġtake": 484,
      "Ġsc": 485,
      "omet": 486,
      "Ġthese": 487,
      "Ġfo": 488,
      "Ġad": 489,
      "iss": 490,
      "nder": 491,
      "Ġmar": 492,
      "Ġbecause": 493,
      "ade": 494,
      "Ġinto": 495,
      "urn": 496,
      "mp": 497,
      "Ġway": 498,
      "Ġwhy": 499,
      "ied": 500,
      "Ġwork": 501,
      "Ġum": 502,
      "Ġye": 503,
      "Ġsomet": 504,
      "ought": 505,
      "ass": 506,
      "Ġmu": 507,
      "Ġwanna": 508,
      "Ġboy": 509,
      "Ġnew": 510,
      "av": 511,
      "ĠM": 512,
      "ĠS": 513,
      "ren": 514,
      "Ġbet": 515,
      "ase": 516,
      "Ġpre": 517,
      "Ġmom": 518,
      "Ġ201": 519,
      "te": 520,
      "ated": 521,
      "Ġtell": 522,
      "ord": 523,
      "ect": 524,
      "Ġday": 525,
      "Ġbu": 526,
      "we": 527,
      "ile": 528,
      "Ġdad": 529,
      "Ġmean": 530,
      "ble": 531,
      "Ġbab": 532,
      "wn": 533,
      "Ġbig": 534,
      "Ġcall": 535,
      "alk": 536,
      "Ġac": 537,
      "Ġthr": 538,
      "ress": 539,
      "Ġdis": 540,
      "Ġcomp": 541,
      "ĠO": 542,
      "cl": 543,
      "act": 544,
      "Ġwr": 545,
      "Ġthree": 546,
      "Ġonly": 547,
      "Ġshould": 548,
      "Ġalso": 549,
      "day": 550,
      "Ġper": 551,
      "ved": 552,
      "ather": 553,
      "ang": 554,
      "Ġact": 555,
      "self": 556,
      "Ġmuch": 557,
      "Ġneed": 558,
      "ouse": 559,
      "Ġmum": 560,
      "Ġits": 561,
      "ool": 562,
      "fore": 563,
      "ady": 564,
      "ff": 565,
      "Ġthose": 566,
      "Ġke": 567,
      "ach": 568,
      "per": 569,
      "co": 570,
      "Ġmade": 571,
      "Ġho": 572,
      "Ġour": 573,
      "Ġsm": 574,
      "ub": 575,
      "man": 576,
      "Ġcr": 577,
      "Ġevery": 578,
      "ory": 579,
      "ict": 580,
      "Ġcount": 581,
      "ĠN": 582,
      "Ġhand": 583,
      "Ġreally": 584,
      "Ġrem": 585,
      "Ġrep": 586,
      "bo": 587,
      "uck": 588,
      "Ġgu": 589,
      "ions": 590,
      "Ġah": 591,
      "ww": 592,
      "Ġind": 593,
      "irl": 594,
      "ving": 595,
      "Ġwent": 596,
      "able": 597,
      "ance": 598,
      "iz": 599,
      "int": 600,
      "Ġmr": 601,
      "Ġhel": 602,
      "Ġlong": 603,
      "ci": 604,
      "ix": 605,
      "Ġcomm": 606,
      "Ġchild": 607,
      "Ġbaby": 608,
      "Ġbefore": 609,
      "Ġhar": 610,
      "ĠC": 611,
      "ps": 612,
      "Ġdidn": 613,
      "ting": 614,
      "les": 615,
      "Ġeat": 616,
      "Ġmany": 617,
      "Ġold": 618,
      "Ġapp": 619,
      "Ġgirl": 620,
      "ens": 621,
      "atch": 622,
      "Ġbit": 623,
      "Ġerm": 624,
      "hm": 625,
      "ull": 626,
      "Ġanother": 627,
      "Ġsomething": 628,
      "ĠYeah": 629,
      "Ġhapp": 630,
      "ath": 631,
      "Ġbook": 632,
      "Ġthings": 633,
      "Ġask": 634,
      "ward": 635,
      "be": 636,
      "Ġser": 637,
      "Ġdoing": 638,
      "Ġhouse": 639,
      "Ġdone": 640,
      "Ġple": 641,
      "Ġmin": 642,
      "Ġele": 643,
      "Ġel": 644,
      "Ġaway": 645,
      "ors": 646,
      "Ġhome": 647,
      "Ġunder": 648,
      "gg": 649,
      "ful": 650,
      "ise": 651,
      "ru": 652,
      "Ġfour": 653,
      "Ġsl": 654,
      "thing": 655,
      "ons": 656,
      "Ġ200": 657,
      "Ġnever": 658,
      "Ġturn": 659,
      "Ġgive": 660,
      "ĠE": 661,
      "Ġthought": 662,
      "Ġmummy": 663,
      "ave": 664,
      "Ġshow": 665,
      "land": 666,
      "Ġsch": 667,
      "tain": 668,
      "Ġmost": 669,
      "Ġlot": 670,
      "ates": 671,
      "ne": 672,
      "ling": 673,
      "ys": 674,
      "Ġdaddy": 675,
      "iver": 676,
      "Ġcame": 677,
      "Ġlea": 678,
      "Ġmust": 679,
      "Ġshall": 680,
      "ican": 681,
      "Ġche": 682,
      "ence": 683,
      "Ġhi": 684,
      "Ġtry": 685,
      "ĠB": 686,
      "ock": 687,
      "Ġname": 688,
      "Ġ.": 689,
      "ks": 690,
      "Ġthrough": 691,
      "Ġcol": 692,
      "als": 693,
      "Ġmiss": 694,
      "Ġgreat": 695,
      "ves": 696,
      "Ġmhm": 697,
      "ah": 698,
      "Ġres": 699,
      "Ġdif": 700,
      "Ġdr": 701,
      "Ġfind": 702,
      "ms": 703,
      "Ġwon": 704,
      "Ġmon": 705,
      "air": 706,
      "Ġlast": 707,
      "Ġpol": 708,
      "unn": 709,
      "ited": 710,
      "Ġhelp": 711,
      "Ġcalled": 712,
      "Ġused": 713,
      "Ġsit": 714,
      "Ġeven": 715,
      "ail": 716,
      "ious": 717,
      "Ġfound": 718,
      "Ġsw": 719,
      "'d": 720,
      "Ġop": 721,
      "Ġmight": 722,
      "Ġhead": 723,
      "ign": 724,
      "Ġbel": 725,
      "Ġkind": 726,
      "Ġstart": 727,
      "Ġbre": 728,
      "Ġcont": 729,
      "ually": 730,
      "get": 731,
      "Ġbot": 732,
      "Ġnice": 733,
      "Ġsuch": 734,
      "Ġpres": 735,
      "Ġ202": 736,
      "mber": 737,
      "Ġisn": 738,
      "Ġexp": 739,
      "hes": 740,
      "rent": 741,
      "Ġwater": 742,
      "ily": 743,
      "Ġtalk": 744,
      "Ġborn": 745,
      "ark": 746,
      "Ġchan": 747,
      "ult": 748,
      "ng": 749,
      "ans": 750,
      "Ġhm": 751,
      "Ġschool": 752,
      "Ġla": 753,
      "uc": 754,
      "Ġcare": 755,
      "xt": 756,
      "ĠAnd": 757,
      "Ġfin": 758,
      "ĠH": 759,
      "ĠThe": 760,
      "Ġ3": 761,
      "Ġed": 762,
      "mer": 763,
      "Ġear": 764,
      "Ġgl": 765,
      "aking": 766,
      "ds": 767,
      "up": 768,
      "ember": 769,
      "Ġchar": 770,
      "ical": 771,
      "med": 772,
      "og": 773,
      "Ġstill": 774,
      "00": 775,
      "Ġwar": 776,
      "mo": 777,
      "Ġwa": 778,
      "Ġbetter": 779,
      "side": 780,
      "Ġdist": 781,
      "Ġnor": 782,
      "Ġspe": 783,
      "Ġdes": 784,
      "Ġthank": 785,
      "Ġfar": 786,
      "Ġnight": 787,
      "ĠOh": 788,
      "Ġstr": 789,
      "Ġsupp": 790,
      "ened": 791,
      "ces": 792,
      "Ġ18": 793,
      "Ġmommy": 794,
      "und": 795,
      "Ġend": 796,
      "Ġamer": 797,
      "Ġown": 798,
      "amp": 799,
      "Ġfive": 800,
      "Ġfoot": 801,
      "Ġmat": 802,
      "Ġimp": 803,
      "Ġkeep": 804,
      "Ġmother": 805,
      "Ġyears": 806,
      "Ġma": 807,
      "pe": 808,
      "Ġread": 809,
      "ince": 810,
      "Ġplease": 811,
      "Ġsame": 812,
      "Ġcle": 813,
      "fta": 814,
      "iend": 815,
      "Ġph": 816,
      "Ġlove": 817,
      "Ġbeing": 818,
      "Ġhafta": 819,
      "ere": 820,
      "Ġcour": 821,
      "right": 822,
      "hn": 823,
      "Ġste": 824,
      "Ġwhile": 825,
      "Ġdiffe": 826,
      "ton": 827,
      "Ġhuh": 828,
      "Ġeng": 829,
      "Ġwee": 830,
      "Ġreg": 831,
      "Ġset": 832,
      "Ġcap": 833,
      "ings": 834,
      "Ġfriend": 835,
      "der": 836,
      "ib": 837,
      "io": 838,
      "body": 839,
      "Ġelse": 840,
      "Ġuse": 841,
      "Ġair": 842,
      "Ġplace": 843,
      "Ġknown": 844,
      "Ġsure": 845,
      "Ġred": 846,
      "ope": 847,
      "Ġnext": 848,
      "Ġdoesn": 849,
      "ph": 850,
      "Ġgone": 851,
      "ations": 852,
      "Ġ199": 853,
      "ition": 854,
      "ational": 855,
      "outh": 856,
      "Ġgoes": 857,
      "Ġey": 858,
      "Ġquite": 859,
      "Ġdear": 860,
      "tern": 861,
      "ried": 862,
      "Ġbed": 863,
      "ute": 864,
      "Ġsix": 865,
      "ss": 866,
      "ĠD": 867,
      "Ġnum": 868,
      "ta": 869,
      "Ġmm": 870,
      "inn": 871,
      "Ġtoday": 872,
      "ways": 873,
      "led": 874,
      "ction": 875,
      "ush": 876,
      "oss": 877,
      "Ġcity": 878,
      "Ġuhh": 879,
      "ished": 880,
      "Ġacc": 881,
      "ĠNo": 882,
      "Ġlife": 883,
      "Ġz": 884,
      "Ġrec": 885,
      "gan": 886,
      "Ġanything": 887,
      "oun": 888,
      "vel": 889,
      "oney": 890,
      "ank": 891,
      "Ġunt": 892,
      "ug": 893,
      "Ġcre": 894,
      "ĠR": 895,
      "Ġyear": 896,
      "vent": 897,
      "Ġlar": 898,
      "Ġfeel": 899,
      "Ġamerican": 900,
      "Ġmil": 901,
      "Ġworld": 902,
      "Ġuhhuh": 903,
      "Ġopen": 904,
      "oh": 905,
      "Ġ,": 906,
      "Ġfather": 907,
      "Ġthough": 908,
      "ĠWell": 909,
      "ows": 910,
      "cause": 911,
      "Ġter": 912,
      "Ġasked": 913,
      "Ġaround": 914,
      "Ġstop": 915,
      "Ġgen": 916,
      "ĠIt": 917,
      "Ġwatch": 918,
      "ane": 919,
      "Ġround": 920,
      "Ġfam": 921,
      "Ġalright": 922,
      "ased": 923,
      "ump": 924,
      "Ġsing": 925,
      "Ġatt": 926,
      "Ġpop": 927,
      "Ġbest": 928,
      "ĠEr": 929,
      "cha": 930,
      "Ġsle": 931,
      "Ġbir": 932,
      "ever": 933,
      "Ġtom": 934,
      "Ġanim": 935,
      "cc": 936,
      "Ġbro": 937,
      "Ġuntil": 938,
      "Ġalways": 939,
      "ger": 940,
      "Ġwait": 941,
      "Ġlight": 942,
      "ĠP": 943,
      "ames": 944,
      "ial": 945,
      "vie": 946,
      "lly": 947,
      "pr": 948,
      "Ġim": 949,
      "Ġdifferent": 950,
      "Ġpoint": 951,
      "aught": 952,
      "www": 953,
      "une": 954,
      "ters": 955,
      "ness": 956,
      "anc": 957,
      "Ġob": 958,
      "Ġid": 959,
      "Ġball": 960,
      "Ġhard": 961,
      "Ġyoung": 962,
      "me": 963,
      "Ġmam": 964,
      "uring": 965,
      "Ġdar": 966,
      "ins": 967,
      "Ġtold": 968,
      "gr": 969,
      "Ġtook": 970,
      "Ġcent": 971,
      "Ġfell": 972,
      "Ġpers": 973,
      "ident": 974,
      "Ġjohn": 975,
      "raw": 976,
      "for": 977,
      "Ġunited": 978,
      "oup": 979,
      "Ġwind": 980,
      "Ġmen": 981,
      "Ġstates": 982,
      "Ġstand": 983,
      "Ġleft": 984,
      "Ġchildren": 985,
      "Ġsays": 986,
      "Ġsaw": 987,
      "Ġbus": 988,
      "Ġmag": 989,
      "Ġenough": 990,
      "Ġcounty": 991,
      "ĠG": 992,
      "ĠYes": 993,
      "Ġeight": 994,
      "Ġnear": 995,
      "Ġyet": 996,
      "Ġmus": 997,
      "ures": 998,
      "Ġhold": 999,
      "Ġsort": 1000,
      "Ġlater": 1001,
      "uff": 1002,
      "Ġsur": 1003,
      "Ġroom": 1004,
      "Ġrel": 1005,
      "Ġsmall": 1006,
      "by": 1007,
      "ower": 1008,
      "ular": 1009,
      "ĠMm": 1010,
      "Ġhey": 1011,
      "ote": 1012,
      "Ġhur": 1013,
      "tle": 1014,
      "Ġret": 1015,
      "ew": 1016,
      "Ġgrand": 1017,
      "Ġwo": 1018,
      "ung": 1019,
      "Ġpap": 1020,
      "az": 1021,
      "Ġdied": 1022,
      "Ġremember": 1023,
      "ween": 1024,
      "ason": 1025,
      "ired": 1026,
      "Ġcoming": 1027,
      "Ġ198": 1028,
      "Ġpie": 1029,
      "Ġju": 1030,
      "ten": 1031,
      "Ġmorn": 1032,
      "Ġbetween": 1033,
      "Ġ4": 1034,
      "ĠYou": 1035,
      "Ġmrs": 1036,
      "Ġface": 1037,
      "clud": 1038,
      "Ġfall": 1039,
      "Ġinst": 1040,
      "ision": 1041,
      "Ġtown": 1042,
      "Ġstay": 1043,
      "Ġwom": 1044,
      "Ġever": 1045,
      "Ġwalk": 1046,
      "ier": 1047,
      "Ġhigh": 1048,
      "Ġmoney": 1049,
      "cond": 1050,
      "ts": 1051,
      "akes": 1052,
      "Ġcourse": 1053,
      "Ġdire": 1054,
      "Ġhear": 1055,
      "Ġpass": 1056,
      "aw": 1057,
      "Ġblue": 1058,
      "ma": 1059,
      "Ġside": 1060,
      "Ġ5": 1061,
      "Ġsn": 1062,
      "ably": 1063,
      "Ġupon": 1064,
      "Ġbar": 1065,
      "ash": 1066,
      "Ġduring": 1067,
      "Ġcat": 1068,
      "mb": 1069,
      "Ġstate": 1070,
      "ork": 1071,
      "ubl": 1072,
      "Ġonce": 1073,
      "Ġsleep": 1074,
      "Ġlist": 1075,
      "Ġseen": 1076,
      "fect": 1077,
      "Ġent": 1078,
      "Ġthir": 1079,
      "Ġten": 1080,
      "Ġboth": 1081,
      "Ġdog": 1082,
      "Ġcons": 1083,
      "Ġmorning": 1084,
      "its": 1085,
      "Ġdep": 1086,
      "Ġpret": 1087,
      "Ġsy": 1088,
      "..": 1089,
      "Ġmaybe": 1090,
      "ister": 1091,
      "unny": 1092,
      "Ġsecond": 1093,
      "Ġcur": 1094,
      "Ġnumber": 1095,
      "ese": 1096,
      "Ġpar": 1097,
      "ross": 1098,
      "Ġhalf": 1099,
      "Ġchr": 1100,
      "Ġsub": 1101,
      "Ġsho": 1102,
      "Ġdoor": 1103,
      "Ġreal": 1104,
      "Ġdarling": 1105,
      "Ġready": 1106,
      "Ġfew": 1107,
      "Ġtop": 1108,
      "ĠThat": 1109,
      "here": 1110,
      "Ġtre": 1111,
      "eak": 1112,
      "key": 1113,
      "Ġeyes": 1114,
      "Ġsk": 1115,
      "Ġspo": 1116,
      "llow": 1117,
      "cre": 1118,
      "ĠSo": 1119,
      "gether": 1120,
      "ject": 1121,
      "Ġben": 1122,
      "Ġhaving": 1123,
      "Ġsince": 1124,
      "hip": 1125,
      "Ġvo": 1126,
      "Ġteam": 1127,
      "row": 1128,
      "Ġeach": 1129,
      "Ġfood": 1130,
      "Ġpick": 1131,
      "vern": 1132,
      "Ġ197": 1133,
      "ange": 1134,
      "enty": 1135,
      "Ġchair": 1136,
      "Ġbelie": 1137,
      "Ġgreen": 1138,
      "less": 1139,
      "Ġger": 1140,
      "Ġgetting": 1141,
      "Ġpretty": 1142,
      "Ġbox": 1143,
      "ertain": 1144,
      "ball": 1145,
      "Ġhor": 1146,
      "Ġriver": 1147,
      "ctor": 1148,
      "Ġmind": 1149,
      "Ġactually": 1150,
      "Ġnothing": 1151,
      "Ġinclud": 1152,
      "orry": 1153,
      "llo": 1154,
      "Ġtrain": 1155,
      "erest": 1156,
      "ible": 1157,
      "Ġpat": 1158,
      "Ġadd": 1159,
      "Ġleave": 1160,
      "ounc": 1161,
      "Ġboys": 1162,
      "Ġfire": 1163,
      "od": 1164,
      "Ġrest": 1165,
      "most": 1166,
      "Ġdri": 1167,
      "Ġplayed": 1168,
      "rict": 1169,
      "Ġmaking": 1170,
      "Ġagainst": 1171,
      "Ġpa": 1172,
      "hy": 1173,
      "Ġinterest": 1174,
      "Ġ6": 1175,
      "Ġgame": 1176,
      "hen": 1177,
      "Ġrun": 1178,
      "Ġnorth": 1179,
      "Ġlady": 1180,
      "Ġbuild": 1181,
      "Ġprov": 1182,
      "Ġcut": 1183,
      "Ġbad": 1184,
      "ime": 1185,
      "ann": 1186,
      "Ġsqu": 1187,
      "Ġhot": 1188,
      "Ġcoll": 1189,
      "Ġjap": 1190,
      "Ġdat": 1191,
      "Ġland": 1192,
      "Ġaw": 1193,
      "Ġlooking": 1194,
      "Ġeas": 1195,
      "ont": 1196,
      "ets": 1197,
      "Ġans": 1198,
      "Ġge": 1199,
      "Ġnational": 1200,
      "Ġprob": 1201,
      "ĠWhat": 1202,
      "Ġpoor": 1203,
      "Ġpen": 1204,
      "Ġgener": 1205,
      "Ġtogether": 1206,
      "Ġperson": 1207,
      "Ġwithout": 1208,
      "Ġhands": 1209,
      "Ġfro": 1210,
      "Ġwhite": 1211,
      "Ġhaven": 1212,
      "Ġstory": 1213,
      "Ġpay": 1214,
      "Ġdec": 1215,
      "Ġmove": 1216,
      "Ġbring": 1217,
      "Ġfollow": 1218,
      "Ġgovern": 1219,
      "cial": 1220,
      "ged": 1221,
      "Ġblack": 1222,
      "cept": 1223,
      "Ġtele": 1224,
      "Ġdel": 1225,
      "ipp": 1226,
      "Ġmet": 1227,
      "imes": 1228,
      "Ġhimself": 1229,
      "Ġsoon": 1230,
      "oy": 1231,
      "bru": 1232,
      "ics": 1233,
      "ered": 1234,
      "ĠL": 1235,
      "cle": 1236,
      "ted": 1237,
      "wards": 1238,
      "bruary": 1239,
      "Ġmovie": 1240,
      "Ġform": 1241,
      "Ġbreak": 1242,
      "ents": 1243,
      "Ġcolor": 1244,
      "Ġsim": 1245,
      "Ġparty": 1246,
      "Ġ196": 1247,
      "Ġnat": 1248,
      "br": 1249,
      "Ġlive": 1250,
      "Ġposs": 1251,
      "Ġones": 1252,
      "ities": 1253,
      "Ġfebruary": 1254,
      "ee": 1255,
      "iet": 1256,
      "ating": 1257,
      "Ġfact": 1258,
      "Ġgi": 1259,
      "Ġbecame": 1260,
      "pl": 1261,
      "Ġalong": 1262,
      "ĠF": 1263,
      "ared": 1264,
      "Ġpict": 1265,
      "Ġking": 1266,
      "sel": 1267,
      "tend": 1268,
      "Ġhat": 1269,
      "aser": 1270,
      "osed": 1271,
      "Ġswe": 1272,
      "Ġdistrict": 1273,
      "Ġ8": 1274,
      "Ġprobably": 1275,
      "ual": 1276,
      "Ġstre": 1277,
      "Ġprod": 1278,
      "Ġ7": 1279,
      "Ġfamily": 1280,
      "ines": 1281,
      "Ġcompan": 1282,
      "Ġhello": 1283,
      "Ġalmost": 1284,
      "Ġdays": 1285,
      "Ġstuff": 1286,
      "Ġhist": 1287,
      "Ġheard": 1288,
      "ither": 1289,
      "Ġage": 1290,
      "ĠJ": 1291,
      "Ġdraw": 1292,
      "ants": 1293,
      "Ġlooked": 1294,
      "Ġfif": 1295,
      "een": 1296,
      "kes": 1297,
      "Ġheart": 1298,
      "ster": 1299,
      "ield": 1300,
      "Ġsorry": 1301,
      "Ġcomes": 1302,
      "Ġhappened": 1303,
      "Ġpur": 1304,
      "Ġjan": 1305,
      "Ġcup": 1306,
      "Ġsometimes": 1307,
      "cess": 1308,
      "undred": 1309,
      "ised": 1310,
      "Ġfraser": 1311,
      "Ġmic": 1312,
      "Ġbear": 1313,
      "Ġmatter": 1314,
      "Ġill": 1315,
      "Ġbat": 1316,
      "Ġhair": 1317,
      "Ġfish": 1318,
      "omb": 1319,
      "ina": 1320,
      "Ġsat": 1321,
      "anor": 1322,
      "Ġhundred": 1323,
      "Ġarea": 1324,
      "uth": 1325,
      "Ġfull": 1326,
      "Ġinv": 1327,
      "Ġsound": 1328,
      "unt": 1329,
      "Ġtwenty": 1330,
      "Ġmain": 1331,
      "Ġjapan": 1332,
      "Ġgave": 1333,
      "ĠBut": 1334,
      "Ġmine": 1335,
      "Ġknew": 1336,
      "Ġleg": 1337,
      "Ġchrist": 1338,
      "ined": 1339,
      "Ġplaying": 1340,
      "ief": 1341,
      "cted": 1342,
      "Ġtable": 1343,
      "uss": 1344,
      "Ġrather": 1345,
      "Ġmed": 1346,
      "Ġda": 1347,
      "Ġseven": 1348,
      "Ġquest": 1349,
      "Ġref": 1350,
      "vers": 1351,
      "Ġdont": 1352,
      "Ġpresent": 1353,
      "Ġword": 1354,
      "Ġstarted": 1355,
      "Ġsir": 1356,
      "Ġanimals": 1357,
      "Ġwonder": 1358,
      "den": 1359,
      "ral": 1360,
      "Ġcal": 1361,
      "Ġboat": 1362,
      "Ġcertain": 1363,
      "Ġshort": 1364,
      "Ġinter": 1365,
      "uary": 1366,
      "Ġcountry": 1367,
      "Ġspeak": 1368,
      "ivers": 1369,
      "Ġwhole": 1370,
      "Ġwrite": 1371,
      "aut": 1372,
      "Ġtimes": 1373,
      "Ġmusic": 1374,
      "haps": 1375,
      "Ġsong": 1376,
      "ages": 1377,
      "Ġsaying": 1378,
      "Ġstick": 1379,
      "Ġserv": 1380,
      "aken": 1381,
      "Ġoften": 1382,
      "Ġsum": 1383,
      "amed": 1384,
      "Ġpolit": 1385,
      "ital": 1386,
      "ho": 1387,
      "ments": 1388,
      "no": 1389,
      "Ġjob": 1390,
      "Ġass": 1391,
      "Ġbrother": 1392,
      "Ġsent": 1393,
      "Ġsouth": 1394,
      "Ġya": 1395,
      "ives": 1396,
      "Ġeverything": 1397,
      "Ġ9": 1398,
      "Ġdeath": 1399,
      "Ġwanted": 1400,
      "ched": 1401,
      "Ġdrink": 1402,
      "ken": 1403,
      "Ġpubl": 1404,
      "Ġra": 1405,
      "airs": 1406,
      "Ġes": 1407,
      "iness": 1408,
      "Ġconf": 1409,
      "Ġmoment": 1410,
      "Ġlead": 1411,
      "ford": 1412,
      "ality": 1413,
      "Ġfeet": 1414,
      "Ġ17": 1415,
      "Ġ195": 1416,
      "Ġloc": 1417,
      "Ġgod": 1418,
      "Ġbas": 1419,
      "Ġhour": 1420,
      "Ġaren": 1421,
      "ond": 1422,
      "Ġhope": 1423,
      "Ġjanuary": 1424,
      "ony": 1425,
      "Ġclose": 1426,
      "Ġreturn": 1427,
      "Ġfunny": 1428,
      "ĠErm": 1429,
      "rap": 1430,
      "ury": 1431,
      "Ġbegan": 1432,
      "Ġguess": 1433,
      "gie": 1434,
      "Ġdou": 1435,
      "Ġyell": 1436,
      "Ġdoll": 1437,
      "Ġpaper": 1438,
      "Ġminute": 1439,
      "Ġmer": 1440,
      "ific": 1441,
      "Ġearly": 1442,
      "Ġty": 1443,
      "Ġcook": 1444,
      "lish": 1445,
      "Ġmeans": 1446,
      "Ġeleanor": 1447,
      "ones": 1448,
      "Ġflo": 1449,
      "Ġbelieve": 1450,
      "Ġperhaps": 1451,
      "port": 1452,
      "aster": 1453,
      "eter": 1454,
      "Ġwords": 1455,
      "Ġrepl": 1456,
      "essie": 1457,
      "Ġexc": 1458,
      "Ġbye": 1459,
      "Ġweek": 1460,
      "rib": 1461,
      "Ġrock": 1462,
      "Ġbooks": 1463,
      "Ġtrying": 1464,
      "Ġmid": 1465,
      "Ġdav": 1466,
      "ale": 1467,
      "Ġfav": 1468,
      "icip": 1469,
      "elt": 1470,
      "Ġpull": 1471,
      "Ġwasn": 1472,
      "Ġmama": 1473,
      "ple": 1474,
      "Ġpri": 1475,
      "ided": 1476,
      "Ġrecord": 1477,
      "Ġdepart": 1478,
      "Ġsign": 1479,
      "Ġtoys": 1480,
      "Ġmonth": 1481,
      "Ġrele": 1482,
      "Ġseries": 1483,
      "Ġbur": 1484,
      "Ġfun": 1485,
      "olog": 1486,
      "Ġhappy": 1487,
      "Ġcir": 1488,
      "ative": 1489,
      "Ġfriends": 1490,
      "Ġunivers": 1491,
      "ient": 1492,
      "Ġlooks": 1493,
      "Ġnin": 1494,
      "iam": 1495,
      "ully": 1496,
      "Ġpot": 1497,
      "Ġquick": 1498,
      "Ġmark": 1499,
      "ye": 1500,
      "arn": 1501,
      "Ġoutside": 1502,
      "ley": 1503,
      "Ġlost": 1504,
      "Ġgiven": 1505,
      "Ġbessie": 1506,
      "Ġ2020": 1507,
      "Ġem": 1508,
      "Ġstar": 1509,
      "ern": 1510,
      "vember": 1511,
      "to": 1512,
      "ready": 1513,
      "where": 1514,
      "Ġoffic": 1515,
      "sh": 1516,
      "Ġlang": 1517,
      "ring": 1518,
      "Ġ194": 1519,
      "Ġfootball": 1520,
      "Ġsun": 1521,
      "har": 1522,
      "Ġtou": 1523,
      "Ġalready": 1524,
      "Ġpain": 1525,
      "Ġhowever": 1526,
      "Ġemp": 1527,
      "Ġfair": 1528,
      "Ġdress": 1529,
      "Ġindian": 1530,
      "enn": 1531,
      "Ġbomb": 1532,
      "ike": 1533,
      "Ġdro": 1534,
      "Ġext": 1535,
      "Ġvoice": 1536,
      "Ġbrought": 1537,
      "Ġseemed": 1538,
      "Ġart": 1539,
      "Ġsea": 1540,
      "Ġlad": 1541,
      "itting": 1542,
      "ik": 1543,
      "teen": 1544,
      "ized": 1545,
      "aim": 1546,
      "Ġlau": 1547,
      "Ġnovember": 1548,
      "Ġ2021": 1549,
      "Ġmill": 1550,
      "Ġlarge": 1551,
      "dle": 1552,
      "Ġbob": 1553,
      "ped": 1554,
      "Ġoct": 1555,
      "Ġann": 1556,
      "ife": 1557,
      "Ġtrans": 1558,
      "Ġresp": 1559,
      "Ġisland": 1560,
      "ric": 1561,
      "ider": 1562,
      "Ġidea": 1563,
      "Ġooh": 1564,
      "Ġwow": 1565,
      "ham": 1566,
      "Ġmilk": 1567,
      "son": 1568,
      "Ġdre": 1569,
      "ety": 1570,
      "Ġvill": 1571,
      "Ġproble": 1572,
      "Ġson": 1573,
      "Ġable": 1574,
      "Ġbirth": 1575,
      "Ġnine": 1576,
      "Ġtaken": 1577,
      "eth": 1578,
      "end": 1579,
      "fl": 1580,
      "Ġlaw": 1581,
      "Ġroad": 1582,
      "Ġgirls": 1583,
      "Ġpresident": 1584,
      "inner": 1585,
      "Ġcold": 1586,
      "Ġbeg": 1587,
      "Ġfrog": 1588,
      "Ġmouth": 1589,
      "Ġfinished": 1590,
      "Ġpu": 1591,
      "Ġgotta": 1592,
      "the": 1593,
      "ured": 1594,
      "Ġhum": 1595,
      "Ġduck": 1596,
      "orrow": 1597,
      "Ġless": 1598,
      "Ġwouldn": 1599,
      "ced": 1600,
      "Ġkill": 1601,
      "fully": 1602,
      "ming": 1603,
      "wer": 1604,
      "Ġtill": 1605,
      "room": 1606,
      "Ġprof": 1607,
      "ĠWe": 1608,
      "Ġpiece": 1609,
      "Ġimport": 1610,
      "Ġcor": 1611,
      "rence": 1612,
      "Ġocc": 1613,
      "Ġorder": 1614,
      "Ġthrow": 1615,
      "ution": 1616,
      "Ġyellow": 1617,
      "oc": 1618,
      "selves": 1619,
      "Ġletter": 1620,
      "Ġca": 1621,
      "Ġwrit": 1622,
      "ald": 1623,
      "Ġtalking": 1624,
      "ape": 1625,
      "vision": 1626,
      "Ġtree": 1627,
      "Ġwest": 1628,
      "Ġapr": 1629,
      "stand": 1630,
      "Ġgroup": 1631,
      "ĠMr": 1632,
      "ober": 1633,
      "Ġbeaut": 1634,
      "Ġjuly": 1635,
      "Ġev": 1636,
      "Ġamong": 1637,
      "Ġsweet": 1638,
      "Ġfight": 1639,
      "Ġmeet": 1640,
      "ousand": 1641,
      "ey": 1642,
      "Ġdiv": 1643,
      "Ġou": 1644,
      "idge": 1645,
      "Ġmun": 1646,
      "Ġline": 1647,
      "Ġclot": 1648,
      "utes": 1649,
      "Ġeither": 1650,
      "Ġhorse": 1651,
      "ulation": 1652,
      "Ġmarch": 1653,
      "Ġ10": 1654,
      "ues": 1655,
      "Ġlived": 1656,
      "ots": 1657,
      "Ġvis": 1658,
      "ize": 1659,
      "Ġwin": 1660,
      "gn": 1661,
      "Ġdef": 1662,
      "Ġsand": 1663,
      "Ġta": 1664,
      "Ġcry": 1665,
      "velop": 1666,
      "Ġhistory": 1667,
      "Ġsteven": 1668,
      "Ġmember": 1669,
      "Ġusually": 1670,
      "Ġice": 1671,
      "Ġwants": 1672,
      "zz": 1673,
      "Ġwish": 1674,
      "Ġstud": 1675,
      "Ġcontin": 1676,
      "ert": 1677,
      "aces": 1678,
      "Ġbath": 1679,
      "Ġgames": 1680,
      "Ġyourself": 1681,
      "Ġdepartment": 1682,
      "ium": 1683,
      "Ġtelevision": 1684,
      "Ġfore": 1685,
      "Ġapril": 1686,
      "cy": 1687,
      "Ġhon": 1688,
      "Ġthousand": 1689,
      "ists": 1690,
      "Ġcommun": 1691,
      "Ġlangu": 1692,
      "Ġtur": 1693,
      "Ġted": 1694,
      "Ġexpl": 1695,
      "ĠRight": 1696,
      "Ġoctober": 1697,
      "Ġprom": 1698,
      "Ġlots": 1699,
      "Ġothers": 1700,
      "Ġstrong": 1701,
      "Ġtea": 1702,
      "Ġbart": 1703,
      "used": 1704,
      "Ġtaking": 1705,
      "Ġsept": 1706,
      "ze": 1707,
      "ism": 1708,
      "ides": 1709,
      "illy": 1710,
      "gy": 1711,
      "Ġmyself": 1712,
      "Ġhurt": 1713,
      "app": 1714,
      "Ġ193": 1715,
      "Ġaug": 1716,
      "Ġsever": 1717,
      "Ġlearn": 1718,
      "Ġcamp": 1719,
      "ove": 1720,
      "ense": 1721,
      "rest": 1722,
      "Ġmess": 1723,
      "Ġphil": 1724,
      "ention": 1725,
      "bit": 1726,
      "Ġfil": 1727,
      "Ġpower": 1728,
      "Ġfig": 1729,
      "Ġ16": 1730,
      "Ġuniversity": 1731,
      "Ġseat": 1732,
      "Ġfrance": 1733,
      "Ġregion": 1734,
      "Ġconst": 1735,
      "Ġbuy": 1736,
      "Ġcann": 1737,
      "igh": 1738,
      "ana": 1739,
      "Ġclean": 1740,
      "Ġdavid": 1741,
      "Ġgent": 1742,
      "Ġcompany": 1743,
      "Ġdevelop": 1744,
      "Ġseptember": 1745,
      "Ġcried": 1746,
      "Ġturned": 1747,
      "ison": 1748,
      "Ġseveral": 1749,
      "Ġ15": 1750,
      "Ġwrong": 1751,
      "Ġchange": 1752,
      "Ġenglish": 1753,
      "Ġquestion": 1754,
      "ner": 1755,
      "Ġthats": 1756,
      "wered": 1757,
      "Ġmaggie": 1758,
      "Ġest": 1759,
      "Ġsuppose": 1760,
      "Ġsal": 1761,
      "Ġwear": 1762,
      "Ġpost": 1763,
      "Ġwoman": 1764,
      "ery": 1765,
      "Ġgold": 1766,
      "Ġclass": 1767,
      "Ġgovernment": 1768,
      "Ġmaj": 1769,
      "Ġkid": 1770,
      "ards": 1771,
      "Ġbusiness": 1772,
      "Ġanswered": 1773,
      "Ġship": 1774,
      "Ġaugust": 1775,
      "Ġnose": 1776,
      "Ġve": 1777,
      "Ġcos": 1778,
      "Ġnews": 1779,
      "Ġreco": 1780,
      "Ġleast": 1781,
      "Ġlay": 1782,
      "Ġtrou": 1783,
      "Ġir": 1784,
      "Ġadm": 1785,
      "cent": 1786,
      "Ġwood": 1787,
      "Ġfing": 1788,
      "ued": 1789,
      "Ġfront": 1790,
      "de": 1791,
      "Ġbeh": 1792,
      "bert": 1793,
      "Ġrece": 1794,
      "Ġlovely": 1795,
      "Ġpicture": 1796,
      "ches": 1797,
      "Ġdece": 1798,
      "Ġarm": 1799,
      "Ġ12": 1800,
      "Ġpig": 1801,
      "Ġglad": 1802,
      "Ġwomen": 1803,
      "oud": 1804,
      "Ġmunicip": 1805,
      "Ġfit": 1806,
      "Ġlate": 1807,
      "Ġsil": 1808,
      "ĠThey": 1809,
      "ffe": 1810,
      "Ġblock": 1811,
      "Ġfloor": 1812,
      "Ġow": 1813,
      "eed": 1814,
      "ained": 1815,
      "oof": 1816,
      "Ġnamed": 1817,
      "Ġdark": 1818,
      "Ġclear": 1819,
      "Ġaunt": 1820,
      "ices": 1821,
      "ural": 1822,
      "Ġgerman": 1823,
      "Ġjump": 1824,
      "hern": 1825,
      "Ġallow": 1826,
      "Ġtrue": 1827,
      "child": 1828,
      "Ġappe": 1829,
      "Ġbirthday": 1830,
      "Ġdinner": 1831,
      "Ġsomebody": 1832,
      "itten": 1833,
      "Ġband": 1834,
      "Ġimportant": 1835,
      "Ġpast": 1836,
      "Ġbehind": 1837,
      "Ġfelt": 1838,
      "anger": 1839,
      "Ġpolic": 1840,
      "ator": 1841,
      "Ġherself": 1842,
      "Ġfort": 1843,
      "Ġmakes": 1844,
      "iding": 1845,
      "ilt": 1846,
      "gram": 1847,
      "Ġins": 1848,
      "Ġminutes": 1849,
      "Ġsister": 1850,
      "Ġbrit": 1851,
      "ouncil": 1852,
      "Ġfavor": 1853,
      "Ġap": 1854,
      "Ġgeor": 1855,
      "aced": 1856,
      "Ġgeneral": 1857,
      "Ġcase": 1858,
      "unch": 1859,
      "Ġadv": 1860,
      "Ġroll": 1861,
      "Ġunderstand": 1862,
      "stem": 1863,
      "Ġshop": 1864,
      "ek": 1865,
      "ĠHe": 1866,
      "Ġcross": 1867,
      "Ġport": 1868,
      "ician": 1869,
      "Ġplan": 1870,
      "Ġcorn": 1871,
      "Ġintern": 1872,
      "Ġjack": 1873,
      "form": 1874,
      "Ġyours": 1875,
      "Ġpartic": 1876,
      "Ġspec": 1877,
      "Ġmot": 1878,
      "iful": 1879,
      "Ġeast": 1880,
      "urs": 1881,
      "Ġran": 1882,
      "Ġorgan": 1883,
      "use": 1884,
      "Ġaust": 1885,
      "Ġjune": 1886,
      "Ġcow": 1887,
      "Ġpos": 1888,
      "fort": 1889,
      "Ġtouch": 1890,
      "Ġdeal": 1891,
      "Ġheld": 1892,
      "head": 1893,
      "Ġdoctor": 1894,
      "igin": 1895,
      "Ġcharac": 1896,
      "Ġbag": 1897,
      "ica": 1898,
      "Ġwhether": 1899,
      "Ġseems": 1900,
      "bs": 1901,
      "els": 1902,
      "Ġprot": 1903,
      "Ġ2018": 1904,
      "Ġsystem": 1905,
      "Ġfine": 1906,
      "che": 1907,
      "Ġtick": 1908,
      "Ġfield": 1909,
      "Ġpopulation": 1910,
      "Ġgar": 1911,
      "Ġopp": 1912,
      "Ġdecember": 1913,
      "Ġworking": 1914,
      "ograp": 1915,
      "Ġchick": 1916,
      "ked": 1917,
      "ying": 1918,
      "let": 1919,
      "Ġhappen": 1920,
      "Ġcaptain": 1921,
      "Ġrain": 1922,
      "ries": 1923,
      "Ġground": 1924,
      "ering": 1925,
      "Ġinside": 1926,
      "Ġvar": 1927,
      "Ġreleased": 1928,
      "Ġchamp": 1929,
      "Ġsitting": 1930,
      "Ġlisten": 1931,
      "Ġcareful": 1932,
      "eng": 1933,
      "Ġyork": 1934,
      "Ġcarry": 1935,
      "oops": 1936,
      "Ġpark": 1937,
      "Ġseason": 1938,
      "Ġtem": 1939,
      "Ġegg": 1940,
      "though": 1941,
      "Ġuncle": 1942,
      "eschild": 1943,
      "Ġforg": 1944,
      "Ġchildeschild": 1945,
      "Ġchildeschildes": 1946,
      "arch": 1947,
      "Ġhit": 1948,
      "Ġstep": 1949,
      "Ġthirty": 1950,
      "rit": 1951,
      "Ġfur": 1952,
      "Ġhung": 1953,
      "alth": 1954,
      "Ġclim": 1955,
      "Ġkiss": 1956,
      "Ġcast": 1957,
      "Ġcouldn": 1958,
      "000": 1959,
      "Ġfa": 1960,
      "ney": 1961,
      "Ġprofess": 1962,
      "pha": 1963,
      "ĠTh": 1964,
      "rench": 1965,
      "rat": 1966,
      "Ġinc": 1967,
      "Ġlikes": 1968,
      "Ġtried": 1969,
      "Ġreason": 1970,
      "Ġorigin": 1971,
      "ls": 1972,
      "Ġtomorrow": 1973,
      "Ġformer": 1974,
      "ement": 1975,
      "Ġacross": 1976,
      "Ġalb": 1977,
      "ges": 1978,
      "Ġpush": 1979,
      "Ġmajor": 1980,
      "ically": 1981,
      "ardon": 1982,
      "gue": 1983,
      "Ġbill": 1984,
      "Ġ2019": 1985,
      "ience": 1986,
      "Ġmad": 1987,
      "iously": 1988,
      "Ġattack": 1989,
      "Ġjane": 1990,
      "Ġreport": 1991,
      "Ġbeautiful": 1992,
      "Ġhaha": 1993,
      "fic": 1994,
      "Ġfly": 1995,
      "Ġwithin": 1996,
      "Ġsend": 1997,
      "avy": 1998,
      "Ġprogram": 1999,
      "Ġsummer": 2000,
      "ĠNow": 2001,
      "gar": 2002,
      "Ġstra": 2003,
      "Ġexamp": 2004,
      "ected": 2005,
      "va": 2006,
      "Ġval": 2007,
      "Ġrepres": 2008,
      "hael": 2009,
      "Ġthom": 2010,
      "pped": 2011,
      "ived": 2012,
      "Ġeating": 2013,
      "Ġsupport": 2014,
      "mbers": 2015,
      "Ġcannot": 2016,
      "Ġmount": 2017,
      "Ġstor": 2018,
      "urch": 2019,
      "Ġshar": 2020,
      "aimed": 2021,
      "nes": 2022,
      "Ġjose": 2023,
      "Ġbody": 2024,
      "Ġappro": 2025,
      "Ġdead": 2026,
      "Ġreplied": 2027,
      "Ġfast": 2028,
      "Ġfix": 2029,
      "Ġsold": 2030,
      "Ġcommune": 2031,
      "Ġfree": 2032,
      "Ġ11": 2033,
      "Ġalthough": 2034,
      "Ġfarm": 2035,
      "vered": 2036,
      "Ġadam": 2037,
      "rew": 2038,
      "ional": 2039,
      "Ġexcl": 2040,
      "Ġoper": 2041,
      "Ġindeed": 2042,
      "Ġwall": 2043,
      "Ġstation": 2044,
      "Ġring": 2045,
      "Ġdisc": 2046,
      "Ġhors": 2047,
      "Ġbrown": 2048,
      "Ġgrow": 2049,
      "Ġedna": 2050,
      "Ġclothes": 2051,
      "Ġpound": 2052,
      "Ġcatch": 2053,
      "Ġworked": 2054,
      "Ġproper": 2055,
      "Ġpretend": 2056,
      "Ġspecial": 2057,
      "Ġtired": 2058,
      "ggy": 2059,
      "Ġcause": 2060,
      "Ġcomple": 2061,
      "ead": 2062,
      "ately": 2063,
      "eared": 2064,
      "Ġcommon": 2065,
      "Ġevent": 2066,
      "Ġmembers": 2067,
      "Ġparticular": 2068,
      "ached": 2069,
      "ility": 2070,
      "Ġsnow": 2071,
      "bb": 2072,
      "itc": 2073,
      "Ġhall": 2074,
      "iving": 2075,
      "Ġ2022": 2076,
      "unning": 2077,
      "Ġliving": 2078,
      "raft": 2079,
      "Ġcareer": 2080,
      "Ġgard": 2081,
      "Ġputting": 2082,
      "Ġought": 2083,
      "Ġef": 2084,
      "ato": 2085,
      "arent": 2086,
      "irt": 2087,
      "Ġnoise": 2088,
      "Ġlanguage": 2089,
      "Ġthomas": 2090,
      "Ġpress": 2091,
      "Ġlow": 2092,
      "Ġsuper": 2093,
      "Ġkitt": 2094,
      "umb": 2095,
      "Ġteac": 2096,
      "Ġcost": 2097,
      "Ġbroken": 2098,
      "Ġrepresent": 2099,
      "Ġkept": 2100,
      "inning": 2101,
      "stairs": 2102,
      "Ġgets": 2103,
      "Ġmunicipality": 2104,
      "Ġclub": 2105,
      "con": 2106,
      "Ġros": 2107,
      "Ġbutter": 2108,
      "Ġshoes": 2109,
      "Ġprodu": 2110,
      "Ġ192": 2111,
      "Ġwritten": 2112,
      "Ġrad": 2113,
      "Ġfre": 2114,
      "lo": 2115,
      "note": 2116,
      "Ġconc": 2117,
      "reek": 2118,
      "Ġguy": 2119,
      "Ġwife": 2120,
      "ama": 2121,
      "Ġpolitician": 2122,
      "ler": 2123,
      "Ġpardon": 2124,
      "aughter": 2125,
      "Ġquiet": 2126,
      "Ġcurrent": 2127,
      "Ġchurch": 2128,
      "Ġdoub": 2129,
      "Ġton": 2130,
      "owers": 2131,
      "Ġfootnote": 2132,
      "par": 2133,
      "Ġjwww": 2134,
      "ander": 2135,
      "Ġbang": 2136,
      "Ġknows": 2137,
      "aged": 2138,
      "Ġhol": 2139,
      "estern": 2140,
      "Ġet": 2141,
      "Ġje": 2142,
      "Ġsucc": 2143,
      "Ġjoseph": 2144,
      "Ġav": 2145,
      "Ġknock": 2146,
      "Ġeur": 2147,
      "Ġcond": 2148,
      "Ġsurpr": 2149,
      "Ġeverybody": 2150,
      "Ġcontro": 2151,
      "Ġstreet": 2152,
      "Ġthemselves": 2153,
      "Ġservice": 2154,
      "Ġtrouble": 2155,
      "uced": 2156,
      ".'": 2157,
      "Ġpage": 2158,
      "Ġnet": 2159,
      "oop": 2160,
      "Ġlives": 2161,
      "Ġfrench": 2162,
      "Ġeh": 2163,
      "Ġstat": 2164,
      "Ġseem": 2165,
      "ii": 2166,
      "Ġago": 2167,
      "Ġequ": 2168,
      "Ġalone": 2169,
      "Ġstraight": 2170,
      "ob": 2171,
      "ains": 2172,
      "cret": 2173,
      "Ġhun": 2174,
      "Ġchance": 2175,
      "Ġroy": 2176,
      "Ġx": 2177,
      "Ġhang": 2178,
      "Ġmillion": 2179,
      "Ġ14": 2180,
      "mon": 2181,
      "Ġboard": 2182,
      "Ġaward": 2183,
      "Ġteddy": 2184,
      "Ġfinish": 2185,
      "Ġpublic": 2186,
      "Ġale": 2187,
      "Ġsud": 2188,
      "ats": 2189,
      "Ġterm": 2190,
      "Ġeffect": 2191,
      "gest": 2192,
      "Ġfollowing": 2193,
      "ature": 2194,
      "Ġpleas": 2195,
      "Ġ13": 2196,
      "iday": 2197,
      "Ġdada": 2198,
      "ruct": 2199,
      "Ġfellow": 2200,
      "Ġdi": 2201,
      "Ġvillage": 2202,
      "Ġmichael": 2203,
      "Ġsuccess": 2204,
      "ract": 2205,
      "Ġlem": 2206,
      "Ġdiffic": 2207,
      "Ġmonths": 2208,
      "oth": 2209,
      "ula": 2210,
      "Ġcolle": 2211,
      "Ġoop": 2212,
      "Ġyum": 2213,
      "osp": 2214,
      "Ġmiddle": 2215,
      "Ġcirc": 2216,
      "Ġcoup": 2217,
      "Ġrecogn": 2218,
      "Ġauth": 2219,
      "Ġmal": 2220,
      "Ġabs": 2221,
      "Ġorange": 2222,
      "Ġmonkey": 2223,
      "Ġlie": 2224,
      "Ġmoved": 2225,
      "Ġord": 2226,
      "ka": 2227,
      "Ġsoft": 2228,
      "Ġbritish": 2229,
      "Ġpal": 2230,
      "Ġwhose": 2231,
      "Ġmarried": 2232,
      "Ġinstead": 2233,
      "Ġcop": 2234,
      "Ġcens": 2235,
      "Ġwrote": 2236,
      "com": 2237,
      "unk": 2238,
      "Ġnearly": 2239,
      "Ġincluding": 2240,
      "Ġsilly": 2241,
      "amer": 2242,
      "Ġchoo": 2243,
      "Ġleague": 2244,
      "Ġyep": 2245,
      "Ġlat": 2246,
      "Ġuhoh": 2247,
      "Ġbow": 2248,
      "Ġfavorite": 2249,
      "Ġkitty": 2250,
      "Ġnort": 2251,
      "Ġeve": 2252,
      "bur": 2253,
      "Ġeduc": 2254,
      "Ġba": 2255,
      "Ġcheck": 2256,
      "Ġinternational": 2257,
      "Ġdirect": 2258,
      "Ġbes": 2259,
      "Ġwhatever": 2260,
      "Ġmiles": 2261,
      "Ġoo": 2262,
      "itch": 2263,
      "Ġvie": 2264,
      "Ġprovince": 2265,
      "terday": 2266,
      "Ġfrank": 2267,
      "emy": 2268,
      "Ġalbum": 2269,
      "ndon": 2270,
      "Ġengine": 2271,
      "Ġsad": 2272,
      "Ġexample": 2273,
      "Ġblood": 2274,
      "Ġbuilding": 2275,
      "Ġblow": 2276,
      "Ġpieces": 2277,
      "Ġlaugh": 2278,
      "Ġsudden": 2279,
      "mas": 2280,
      "Ġpink": 2281,
      "Ġur": 2282,
      "raid": 2283,
      "Ġproblem": 2284,
      "Ġbud": 2285,
      "Ġperio": 2286,
      "Ġrom": 2287,
      "Ġjuice": 2288,
      "Ġgentle": 2289,
      "yn": 2290,
      "Ġmaster": 2291,
      "Ġang": 2292,
      "Ġyesterday": 2293,
      "Ġpaul": 2294,
      "men": 2295,
      "Ġcharl": 2296,
      "Ġcapital": 2297,
      "Ġcertainly": 2298,
      "Ġexclaimed": 2299,
      "ino": 2300,
      "Ġrequ": 2301,
      "Ġprop": 2302,
      "Ġexper": 2303,
      "ĠThere": 2304,
      "Ġtig": 2305,
      "Ġcouncil": 2306,
      "Ġlocal": 2307,
      "inc": 2308,
      "Ġmc": 2309,
      "Ġbecome": 2310,
      "Ġairport": 2311,
      "Ġwindow": 2312,
      "Ġbased": 2313,
      "Ġiss": 2314,
      "Ġabove": 2315,
      "ager": 2316,
      "Ġchanged": 2317,
      "Ġcensus": 2318,
      "Ġbird": 2319,
      "Ġcharacter": 2320,
      "Ġpet": 2321,
      "Ġlit": 2322,
      "Ġrunning": 2323,
      "ently": 2324,
      "Ġthinking": 2325,
      "gress": 2326,
      "Ġhy": 2327,
      "Ġtruck": 2328,
      "orth": 2329,
      "ances": 2330,
      "Ġexcept": 2331,
      "Ġbuilt": 2332,
      "Ġplayer": 2333,
      "Ġswim": 2334,
      "Ġeye": 2335,
      "Ġreturned": 2336,
      "fast": 2337,
      "Ġview": 2338,
      "nce": 2339,
      "Ġbomba": 2340,
      "Ġamy": 2341,
      "Ġbott": 2342,
      "ien": 2343,
      "Ġsout": 2344,
      "Ġlab": 2345,
      "ggest": 2346,
      "Ġfifty": 2347,
      "king": 2348,
      "Ġmur": 2349,
      ",'": 2350,
      "Ġtot": 2351,
      "Ġsuggest": 2352,
      "Ġclever": 2353,
      "Ġpil": 2354,
      "Ġdeb": 2355,
      "well": 2356,
      "Ġmatch": 2357,
      "que": 2358,
      "Ġafraid": 2359,
      "cially": 2360,
      "Ġdin": 2361,
      "view": 2362,
      "Ġchampions": 2363,
      "Ġwhom": 2364,
      "Ġenj": 2365,
      "Ġforgot": 2366,
      "Ġce": 2367,
      "Ġengland": 2368,
      "Ġtonight": 2369,
      "Ġwild": 2370,
      "Ġsus": 2371,
      "Ġgun": 2372,
      "Ġham": 2373,
      "eder": 2374,
      "Ġlondon": 2375,
      "Ġelect": 2376,
      "Ġexpress": 2377,
      "agon": 2378,
      "ĠDo": 2379,
      "Ġhop": 2380,
      "Ġru": 2381,
      "Ġric": 2382,
      "Ġbrad": 2383,
      "Ġslow": 2384,
      "Ġeurope": 2385,
      "Ġforward": 2386,
      "Ġlevel": 2387,
      "Ġpassed": 2388,
      "Ġpossible": 2389,
      "Ġwash": 2390,
      "Ġdecl": 2391,
      "Ġdesign": 2392,
      "Ġhill": 2393,
      "Ġtoy": 2394,
      "Ġride": 2395,
      "Ġstri": 2396,
      "ada": 2397,
      "Ġcouple": 2398,
      "Ġuk": 2399,
      "ology": 2400,
      "Ġstood": 2401,
      "Ġver": 2402,
      "Ġvisit": 2403,
      "uel": 2404,
      "Ġhig": 2405,
      "Ġvol": 2406,
      "Ġanswer": 2407,
      "Ġauthor": 2408,
      "Ġrub": 2409,
      "Ġbroke": 2410,
      "Ġgarden": 2411,
      "Ġstuck": 2412,
      "Ġsol": 2413,
      "cket": 2414,
      "Ġanyway": 2415,
      "Ġoffice": 2416,
      "Ġthird": 2417,
      "Ġcand": 2418,
      "erv": 2419,
      "Ġled": 2420,
      "Ġinterested": 2421,
      "uit": 2422,
      "Ġcool": 2423,
      "Ġmeant": 2424,
      "Ġshut": 2425,
      "Ġusing": 2426,
      "Ġappear": 2427,
      "ĠIs": 2428,
      "Ġbread": 2429,
      "Ġearth": 2430,
      "Ġdesc": 2431,
      "Ġlim": 2432,
      "Ġobject": 2433,
      "Ġban": 2434,
      "Ġbase": 2435,
      "Ġenjoy": 2436,
      "Ġperfor": 2437,
      "Ġneeds": 2438,
      "la": 2439,
      "Ġdest": 2440,
      "Ġdaughter": 2441,
      "ida": 2442,
      "omin": 2443,
      "Ġadded": 2444,
      "Ġcollege": 2445,
      "Ġperiod": 2446,
      "Ġwat": 2447,
      "Ġrab": 2448,
      "ians": 2449,
      "Ġbull": 2450,
      "Ġbreakfast": 2451,
      "Ġcake": 2452,
      "Ġcheese": 2453,
      "Ġsar": 2454,
      "Ġden": 2455,
      "Ġjoe": 2456,
      "gen": 2457,
      "Ġquar": 2458,
      "Ġeasy": 2459,
      "ki": 2460,
      "Ġdor": 2461,
      "Ġletters": 2462,
      "Ġmis": 2463,
      "Ġbabies": 2464,
      "Ġdrive": 2465,
      "Ġdev": 2466,
      "Ġdoubt": 2467,
      "ĠIf": 2468,
      "ceed": 2469,
      "amb": 2470,
      "ights": 2471,
      "Ġchief": 2472,
      "Ġpract": 2473,
      "Ġ2010": 2474,
      "19": 2475,
      "Ġell": 2476,
      "Ġaustral": 2477,
      "Ġclimb": 2478,
      "Ġvide": 2479,
      "Ġarms": 2480,
      "ott": 2481,
      "Ġsecret": 2482,
      "Ġafterno": 2483,
      "Ġsmo": 2484,
      "ping": 2485,
      "Ġtall": 2486,
      "Ġdanger": 2487,
      "Ġ25": 2488,
      "ĠOkay": 2489,
      "Ġresult": 2490,
      "Ġep": 2491,
      "west": 2492,
      "Ġsingle": 2493,
      "Ġtour": 2494,
      "sta": 2495,
      "Ġjud": 2496,
      "ya": 2497,
      "Ġmass": 2498,
      "Ġtor": 2499,
      "Ġital": 2500,
      "Ġanimal": 2501,
      "Ġburn": 2502,
      "cel": 2503,
      "Ġworks": 2504,
      "zer": 2505,
      "Ġdut": 2506,
      "Ġarri": 2507,
      "itchen": 2508,
      "Ġkitchen": 2509,
      "ilar": 2510,
      "Ġdem": 2511,
      "Ġtrave": 2512,
      "Ġaut": 2513,
      "Ġforget": 2514,
      "Ġfear": 2515,
      "ĠSt": 2516,
      "ging": 2517,
      "Ġrol": 2518,
      "iforn": 2519,
      "time": 2520,
      "Ġphone": 2521,
      "Ġcaliforn": 2522,
      "ior": 2523,
      "Ġtest": 2524,
      "Ġheavy": 2525,
      "rop": 2526,
      "Ġtwel": 2527,
      "Ġwriting": 2528,
      "Ġteacher": 2529,
      "ny": 2530,
      "Ġrob": 2531,
      "Ġactor": 2532,
      "Ġafternoon": 2533,
      "oint": 2534,
      "Ġdry": 2535,
      "Ġlunch": 2536,
      "Ġ30": 2537,
      "Ġlegs": 2538,
      "Ġbottom": 2539,
      "ding": 2540,
      "Ġbridge": 2541,
      "Ġcolon": 2542,
      "Ġbelong": 2543,
      "Ġstanding": 2544,
      "ston": 2545,
      "Ġ2011": 2546,
      "Ġdecided": 2547,
      "Ġgall": 2548,
      "Ġincre": 2549,
      "acy": 2550,
      "ude": 2551,
      "Ġcalifornia": 2552,
      "Ġcompet": 2553,
      "Ġfill": 2554,
      "Ġesc": 2555,
      "Ġexact": 2556,
      "Ġkids": 2557,
      "band": 2558,
      "ĠK": 2559,
      "ising": 2560,
      "aves": 2561,
      "Ġcentury": 2562,
      "Ġgeorge": 2563,
      "Ġfail": 2564,
      "Ġrac": 2565,
      "Ġvict": 2566,
      "Ġrepubl": 2567,
      "Ġboo": 2568,
      "Ġworth": 2569,
      "ified": 2570,
      "Ġrole": 2571,
      "Ġpan": 2572,
      "Ġhealth": 2573,
      "Ġguys": 2574,
      "Ġreceived": 2575,
      "Ġwet": 2576,
      "Ġbought": 2577,
      "Ġhen": 2578,
      "ala": 2579,
      "Ġ21": 2580,
      "Ġwilliam": 2581,
      "Ġ2012": 2582,
      "Ġhous": 2583,
      "rod": 2584,
      "bye": 2585,
      "ored": 2586,
      "Ġaccord": 2587,
      "Ġhours": 2588,
      "Ġlonger": 2589,
      "Ġlord": 2590,
      "Ġnaught": 2591,
      "Ġpictures": 2592,
      "Ġposition": 2593,
      "Ġhungry": 2594,
      "pect": 2595,
      "Ġdet": 2596,
      "Ġcream": 2597,
      "Ġalex": 2598,
      "ror": 2599,
      "nday": 2600,
      "Ġtype": 2601,
      "fer": 2602,
      "Ġlou": 2603,
      "Ġwarm": 2604,
      "go": 2605,
      "ba": 2606,
      "ils": 2607,
      "Ġcontinued": 2608,
      "Ġremark": 2609,
      "Ġhappens": 2610,
      "Ġaccount": 2611,
      "phant": 2612,
      "Ġconn": 2613,
      "Ġchicken": 2614,
      "Ġcab": 2615,
      "Ġcars": 2616,
      "Ġnames": 2617,
      "Ġelephant": 2618,
      "Ġgrandma": 2619,
      "Ġsick": 2620,
      "Ġtwelve": 2621,
      "oon": 2622,
      "sy": 2623,
      "Ġtit": 2624,
      "Ġcas": 2625,
      "Ġdemo": 2626,
      "aud": 2627,
      "Ġfeeling": 2628,
      "Ġspecies": 2629,
      "Ġmart": 2630,
      "Ġnone": 2631,
      "Ġsomeone": 2632,
      "pes": 2633,
      "Ġwestern": 2634,
      "Ġbell": 2635,
      "hel": 2636,
      "Ġlion": 2637,
      "Ġsport": 2638,
      "osa": 2639,
      "Ġpuzz": 2640,
      "Ġvers": 2641,
      "Ġsimilar": 2642,
      "isc": 2643,
      "Ġ2016": 2644,
      "Ġopened": 2645,
      "Ġdan": 2646,
      "Ġdisco": 2647,
      "Ġconsider": 2648,
      "Ġkilled": 2649,
      "Ġgoin": 2650,
      "Ġmov": 2651,
      "Ġallowed": 2652,
      "Ġdemoc": 2653,
      "Ġanne": 2654,
      "orence": 2655,
      "irty": 2656,
      "Ġnorm": 2657,
      "gu": 2658,
      "ene": 2659,
      "Ġdolly": 2660,
      "Ġspace": 2661,
      "Ġdifficult": 2662,
      "Ġluck": 2663,
      "Ġhosp": 2664,
      "Ġpopular": 2665,
      "Ġninet": 2666,
      "Ġsomewhere": 2667,
      "ript": 2668,
      "Ġbright": 2669,
      "Ġmention": 2670,
      "Ġexpect": 2671,
      "Ġchampionship": 2672,
      "Ġtail": 2673,
      "Ġcaught": 2674,
      "Ġplaces": 2675,
      "uted": 2676,
      "Ġarmy": 2677,
      "Ġsquare": 2678,
      "aff": 2679,
      "uce": 2680,
      "Ġcomb": 2681,
      "ipe": 2682,
      "ket": 2683,
      "tt": 2684,
      "Ġain": 2685,
      "Ġrev": 2686,
      "tered": 2687,
      "Ġgiving": 2688,
      "cks": 2689,
      "itted": 2690,
      "soci": 2691,
      "Ġindia": 2692,
      "Ġfigure": 2693,
      "Ġ!": 2694,
      "lymp": 2695,
      "Ġarr": 2696,
      "Ġquickly": 2697,
      "Ġut": 2698,
      "Ġtv": 2699,
      "Ġdie": 2700,
      "Ġunion": 2701,
      "Ġspend": 2702,
      "ounced": 2703,
      "Ġant": 2704,
      "Ġ23": 2705,
      "Ġfilm": 2706,
      "Ġ?": 2707,
      "Ġspot": 2708,
      "Ġnaughty": 2709,
      "rd": 2710,
      "Ġcover": 2711,
      "Ġacad": 2712,
      "Ġappeared": 2713,
      "Ġfurther": 2714,
      "ef": 2715,
      "pecially": 2716,
      "uk": 2717,
      "Ġtin": 2718,
      "Ġolymp": 2719,
      "Ġpurple": 2720,
      "Ġpolicy": 2721,
      "Ġtrees": 2722,
      "Ġmovies": 2723,
      "ron": 2724,
      "Ġtape": 2725,
      "Ġbank": 2726,
      "Ġstone": 2727,
      "Ġsight": 2728,
      "Ġhus": 2729,
      "Ġsounds": 2730,
      "Ġeggs": 2731,
      "Ġsave": 2732,
      "ument": 2733,
      "ancy": 2734,
      "Ġsubject": 2735,
      "Ġsna": 2736,
      "phone": 2737,
      "Ġmist": 2738,
      "Ġspring": 2739,
      "rible": 2740,
      "Ġcreek": 2741,
      "isy": 2742,
      "Ġapple": 2743,
      "Ġsuff": 2744,
      "por": 2745,
      "Ġ24": 2746,
      "Ġvideo": 2747,
      "Ġtast": 2748,
      "Ġsan": 2749,
      "ille": 2750,
      "Ġhan": 2751,
      "Ġassoci": 2752,
      "Ġmod": 2753,
      "work": 2754,
      "read": 2755,
      "lect": 2756,
      "Ġwhoops": 2757,
      "Ġshout": 2758,
      "Ġglass": 2759,
      "gl": 2760,
      "Ġsen": 2761,
      "Ġspir": 2762,
      "Ġtex": 2763,
      "Ġdirected": 2764,
      "Ġgovernor": 2765,
      "zy": 2766,
      "Ġahead": 2767,
      "Ġhasn": 2768,
      "iling": 2769,
      "Ġcreated": 2770,
      "ration": 2771,
      "Ġtech": 2772,
      "Ġ2008": 2773,
      "Ġhuman": 2774,
      "Ġmix": 2775,
      "Ġfred": 2776,
      "Ġcomfort": 2777,
      "Ġ2017": 2778,
      "board": 2779,
      "Ġmamma": 2780,
      "Ġwindows": 2781,
      "empt": 2782,
      "Ġminister": 2783,
      "Ġchristmas": 2784,
      "Ġcommunity": 2785,
      "Ġliked": 2786,
      "Ġflowers": 2787,
      "Ġperfect": 2788,
      "Ġjapanese": 2789,
      "bers": 2790,
      "Ġneedta": 2791,
      "Ġpolice": 2792,
      "ffee": 2793,
      "Ġive": 2794,
      "Ġstars": 2795,
      "Ġsafe": 2796,
      "Ġtrad": 2797,
      "ography": 2798,
      "Ġdefe": 2799,
      "ĠThan": 2800,
      "Ġcommand": 2801,
      "Ġinclude": 2802,
      "Ġay": 2803,
      "Ġbunny": 2804,
      "Ġstu": 2805,
      "Ġflorence": 2806,
      "Ġproject": 2807,
      "Ġhole": 2808,
      "Ġevening": 2809,
      "ky": 2810,
      "Ġtakes": 2811,
      "Ġlos": 2812,
      "Ġange": 2813,
      "Ġdam": 2814,
      "Ġmex": 2815,
      "Ġaccept": 2816,
      "Ġbroad": 2817,
      "za": 2818,
      "Ġruss": 2819,
      "Ġtelling": 2820,
      "Ġcro": 2821,
      "Ġhes": 2822,
      "Ġdogg": 2823,
      "Ġespecially": 2824,
      "Ġaccording": 2825,
      "Ġbi": 2826,
      "Ġinform": 2827,
      "Ġwashing": 2828,
      "Ġcomput": 2829,
      "Ġearn": 2830,
      "Ġcourt": 2831,
      "lin": 2832,
      "Ġinfl": 2833,
      "Ġdeep": 2834,
      "ection": 2835,
      "Ġber": 2836,
      "Ġnecess": 2837,
      "Ġtrack": 2838,
      "Ġweeks": 2839,
      "Ġdig": 2840,
      "Ġcarried": 2841,
      "sc": 2842,
      "Ġitself": 2843,
      "Ġrul": 2844,
      "iled": 2845,
      "ips": 2846,
      "ĠMhm": 2847,
      "clock": 2848,
      "....": 2849,
      "Ġtowards": 2850,
      "Ġteeth": 2851,
      "Ġstopped": 2852,
      "Ġwaiting": 2853,
      "Ġrichar": 2854,
      "gs": 2855,
      "Ġhu": 2856,
      "Ġagre": 2857,
      "ĠShe": 2858,
      "Ġconcern": 2859,
      "olute": 2860,
      "Ġhorses": 2861,
      "Ġoops": 2862,
      "Ġwha": 2863,
      "Ġcho": 2864,
      "Ġhelen": 2865,
      "Ġfinger": 2866,
      "Ġreach": 2867,
      "Ġjenn": 2868,
      "Ġanybody": 2869,
      "ico": 2870,
      "Ġspoon": 2871,
      "Ġpounds": 2872,
      "omes": 2873,
      "Ġrese": 2874,
      "Ġ22": 2875,
      "Ġactress": 2876,
      "conom": 2877,
      "ij": 2878,
      "ength": 2879,
      "Ġexactly": 2880,
      "Ġkick": 2881,
      "ams": 2882,
      "Ġcapt": 2883,
      "Ġparent": 2884,
      "ĠIn": 2885,
      "Ġhospital": 2886,
      "Ġeff": 2887,
      "Ġcoffee": 2888,
      "Ġfollowed": 2889,
      "ference": 2890,
      "ply": 2891,
      "Ġbeginning": 2892,
      "Ġjer": 2893,
      "Ġelection": 2894,
      "Ġ2007": 2895,
      "Ġgas": 2896,
      "Ġloire": 2897,
      "Ġshoot": 2898,
      "Ġawards": 2899,
      "Ġreached": 2900,
      "Ġwhis": 2901,
      "Ġstrange": 2902,
      "Ġnorthern": 2903,
      "Ġnineteen": 2904,
      "Ġfres": 2905,
      "Ġfem": 2906,
      "Ġhoney": 2907,
      "Ġeconom": 2908,
      "idence": 2909,
      "sey": 2910,
      "Ġmoder": 2911,
      "Ġchap": 2912,
      "Ġproblems": 2913,
      "Ġwinter": 2914,
      "Ġpoo": 2915,
      "Ġspell": 2916,
      "Ġfeed": 2917,
      "Ġearl": 2918,
      "Ġdirty": 2919,
      "Ġpack": 2920,
      "Ġsevent": 2921,
      "ĠHow": 2922,
      "Ġinteresting": 2923,
      "Ġcomplete": 2924,
      "Ġmac": 2925,
      "Ġdue": 2926,
      "Ġneck": 2927,
      "ittee": 2928,
      "Ġque": 2929,
      "Ġactiv": 2930,
      "Ġcrit": 2931,
      "Ġ186": 2932,
      "Ġtexas": 2933,
      "Ġparts": 2934,
      "ales": 2935,
      "Ġcant": 2936,
      "Ġze": 2937,
      "how": 2938,
      "Ġsuddenly": 2939,
      "iced": 2940,
      "Ġscre": 2941,
      "Ġbattle": 2942,
      "itions": 2943,
      "Ġforty": 2944,
      "Ġninety": 2945,
      "Ġlower": 2946,
      "Ġthanks": 2947,
      "Ġbigger": 2948,
      "Ġdevelopment": 2949,
      "dom": 2950,
      "Ġlake": 2951,
      "Ġtherefore": 2952,
      "Ġ2006": 2953,
      "Ġreading": 2954,
      "Ġfle": 2955,
      "Ġnap": 2956,
      "Ġhost": 2957,
      "Ġregard": 2958,
      "Ġsam": 2959,
      "Ġsense": 2960,
      "Ġmor": 2961,
      "Ġwel": 2962,
      "Ġneigh": 2963,
      "Ġdisapp": 2964,
      "Ġspoke": 2965,
      "Ġapart": 2966,
      "Ġtechn": 2967,
      "Ġbord": 2968,
      "Ġjames": 2969,
      "Ġsepar": 2970,
      "Ġshot": 2971,
      "Ġ27": 2972,
      "Ġchin": 2973,
      "rene": 2974,
      "Ġolder": 2975,
      "Ġlara": 2976,
      "oul": 2977,
      "Ġmel": 2978,
      "Ġgrass": 2979,
      "net": 2980,
      "ushed": 2981,
      "Ġ2013": 2982,
      "ec": 2983,
      "rie": 2984,
      "Ġox": 2985,
      "Ġmas": 2986,
      "Ġuhuh": 2987,
      "Ġmarie": 2988,
      "Ġamerica": 2989,
      "ray": 2990,
      "olved": 2991,
      "iff": 2992,
      "Ġamount": 2993,
      "don": 2994,
      "Ġ28": 2995,
      "Ġcontain": 2996,
      "Ġbottle": 2997,
      "Ġfaith": 2998,
      "Ġhusband": 2999,
      "Ġstore": 3000,
      "urday": 3001,
      "Ġ26": 3002,
      "ov": 3003,
      "Ġhide": 3004,
      "Ġforce": 3005,
      "Ġswit": 3006,
      "Ġlargest": 3007,
      "20": 3008,
      "Ġcy": 3009,
      "Ġrow": 3010,
      "face": 3011,
      "Ġnobody": 3012,
      "Ġdere": 3013,
      "Ġspl": 3014,
      "Ġsettle": 3015,
      "Ġcrying": 3016,
      "Ġcult": 3017,
      "ads": 3018,
      "Ġsocial": 3019,
      "Ġfamous": 3020,
      "uation": 3021,
      "Ġenv": 3022,
      "Ġpapa": 3023,
      "Ġsky": 3024,
      "Ġslight": 3025,
      "Ġshows": 3026,
      "fr": 3027,
      "Ġ2009": 3028,
      "Ġfingers": 3029,
      "Ġdance": 3030,
      "lla": 3031,
      "Ġlift": 3032,
      "Ġcorner": 3033,
      "ament": 3034,
      "Ġareas": 3035,
      "Ġshowed": 3036,
      "ipped": 3037,
      "wood": 3038,
      "Ġcard": 3039,
      "Ġmach": 3040,
      "Ġfat": 3041,
      "Ġpeter": 3042,
      "Ġfox": 3043,
      "Ġbelow": 3044,
      "iers": 3045,
      "Ġprison": 3046,
      "Ġsheep": 3047,
      "lic": 3048,
      "Ġwide": 3049,
      "Ġluc": 3050,
      "Ġlength": 3051,
      "aper": 3052,
      "Ġ1999": 3053,
      "Ġneighb": 3054,
      "cil": 3055,
      "dd": 3056,
      "Ġfut": 3057,
      "worth": 3058,
      "Ġsell": 3059,
      "Ġvan": 3060,
      "Ġaged": 3061,
      "Ġ2014": 3062,
      "Ġtotal": 3063,
      "Ġmary": 3064,
      "come": 3065,
      "Ġsec": 3066,
      "Ġbusy": 3067,
      "Ġpolitical": 3068,
      "Ġmeeting": 3069,
      "Ġblocks": 3070,
      "ization": 3071,
      "Ġdollars": 3072,
      "Ġjour": 3073,
      "Ġrabbit": 3074,
      "Ġciv": 3075,
      "ination": 3076,
      "Ġstruct": 3077,
      "Ġmanage": 3078,
      "Ġsmile": 3079,
      "Ġbirds": 3080,
      "Ġoriginal": 3081,
      "illa": 3082,
      "Ġgoodness": 3083,
      "Ġgrad": 3084,
      "Ġdirector": 3085,
      "Ġeducation": 3086,
      "ris": 3087,
      "Ġdefin": 3088,
      "Ġgermany": 3089,
      "ura": 3090,
      "ĠCan": 3091,
      "Ġobs": 3092,
      "Ġrefer": 3093,
      "Ġsandw": 3094,
      "Ġii": 3095,
      "ival": 3096,
      "Ġterms": 3097,
      "Ġradio": 3098,
      "Ġdanc": 3099,
      "Ġanx": 3100,
      "ires": 3101,
      "Ġtow": 3102,
      "ission": 3103,
      "Ġhistor": 3104,
      "Ġdemocrat": 3105,
      "Ġfol": 3106,
      "Ġsmell": 3107,
      "Ġwatching": 3108,
      "burg": 3109,
      "more": 3110,
      "rian": 3111,
      "house": 3112,
      "ville": 3113,
      "Ġbeat": 3114,
      "Ġmostly": 3115,
      "Ġexcuse": 3116,
      "Ġpriv": 3117,
      "Ġdropped": 3118,
      "Ġjoined": 3119,
      "Ġcrow": 3120,
      "Ġbasket": 3121,
      "Ġcontrol": 3122,
      "Ġdinosa": 3123,
      "Ġacademy": 3124,
      "Ġbal": 3125,
      "edy": 3126,
      "Ġmem": 3127,
      "Ġkey": 3128,
      "Ġnumbers": 3129,
      "Ġpoints": 3130,
      "Ġwalking": 3131,
      "anny": 3132,
      "kin": 3133,
      "Ġears": 3134,
      "Ġsouthern": 3135,
      "Ġjim": 3136,
      "Ġupstairs": 3137,
      "Ġflat": 3138,
      "Ġeleven": 3139,
      "Ġturning": 3140,
      "Ġregular": 3141,
      "Ġannounced": 3142,
      "Ġtiger": 3143,
      "Ġcoast": 3144,
      "Ġcentral": 3145,
      "Ġchristian": 3146,
      "Ġcray": 3147,
      "Ġharry": 3148,
      "Ġfellows": 3149,
      "field": 3150,
      "viously": 3151,
      "omer": 3152,
      "Ġself": 3153,
      "Ġaff": 3154,
      "cient": 3155,
      "Ġmilit": 3156,
      "ĠThank": 3157,
      "Ġbound": 3158,
      "ara": 3159,
      "Ġbey": 3160,
      "Ġcoat": 3161,
      "anning": 3162,
      "Ġextra": 3163,
      "Ġtap": 3164,
      "itive": 3165,
      "Ġfifteen": 3166,
      "Ġpublished": 3167,
      "Ġvarious": 3168,
      "rain": 3169,
      "ises": 3170,
      "Ġthou": 3171,
      "Ġtowns": 3172,
      "Ġdelight": 3173,
      "Ġoccas": 3174,
      "Ġstudy": 3175,
      "Ġtrib": 3176,
      "Ġprim": 3177,
      "Ġcrack": 3178,
      "Ġnatural": 3179,
      "Ġinformation": 3180,
      "Ġnote": 3181,
      "Ġchic": 3182,
      "Ġswing": 3183,
      "Ġcircle": 3184,
      "cast": 3185,
      "Ġjoy": 3186,
      "Ġdifference": 3187,
      "Ġdrop": 3188,
      "ĠV": 3189,
      "Ġtuck": 3190,
      "inist": 3191,
      "Ġ100": 3192,
      "Ġarch": 3193,
      "pend": 3194,
      "Ġdoggie": 3195,
      "bre": 3196,
      "craft": 3197,
      "iant": 3198,
      "Ġscr": 3199,
      "Ġscar": 3200,
      "off": 3201,
      "ades": 3202,
      "Ġmoving": 3203,
      "olution": 3204,
      "ĠAh": 3205,
      "Ġattempt": 3206,
      "Ġcaused": 3207,
      "Ġ2015": 3208,
      "Ġleaves": 3209,
      "Ġwrest": 3210,
      "Ġsant": 3211,
      "Ġtower": 3212,
      "Ġlikely": 3213,
      "Ġtrust": 3214,
      "Ġ191": 3215,
      "Ġrelig": 3216,
      "reat": 3217,
      "Ġmir": 3218,
      "Ġ29": 3219,
      "Ġshare": 3220,
      "ansas": 3221,
      "hi": 3222,
      "jo": 3223,
      "Ġformed": 3224,
      "ago": 3225,
      "Ġmission": 3226,
      "ckey": 3227,
      "ĠU": 3228,
      "Ġnurs": 3229,
      "Ġplays": 3230,
      "Ġfinal": 3231,
      "Ġnorthwest": 3232,
      "Ġdestro": 3233,
      "Ġdidnt": 3234,
      "cious": 3235,
      "Ġrosam": 3236,
      "Ġroyal": 3237,
      "zerland": 3238,
      "Ġcolonel": 3239,
      "Ġswitzerland": 3240,
      "Ġbite": 3241,
      "Ġchem": 3242,
      "Ġfuture": 3243,
      "uts": 3244,
      "Ġprocess": 3245,
      "Ġguard": 3246,
      "Ġimag": 3247,
      "val": 3248,
      "cell": 3249,
      "ĠThis": 3250,
      "Ġalexander": 3251,
      "Ġrosamund": 3252,
      "Ġirene": 3253,
      "leep": 3254,
      "Ġqueen": 3255,
      "Ġbless": 3256,
      "Ġjes": 3257,
      "icks": 3258,
      "Ġrepe": 3259,
      "Ġpupp": 3260,
      "Ġcivil": 3261,
      "Ġvi": 3262,
      "isted": 3263,
      "Ġrights": 3264,
      "Ġbeyond": 3265,
      "rel": 3266,
      "ret": 3267,
      "ume": 3268,
      "ressed": 3269,
      "cer": 3270,
      "inary": 3271,
      "Ġsoci": 3272,
      "Ġsugar": 3273,
      "hin": 3274,
      "Ġach": 3275,
      "Ġrose": 3276,
      "este": 3277,
      "epend": 3278,
      "Ġlock": 3279,
      "Ġyouth": 3280,
      "Ġhiding": 3281,
      "Ġclos": 3282,
      "Ġtreat": 3283,
      ".,": 3284,
      "riage": 3285,
      "Ġserved": 3286,
      "erved": 3287,
      "asons": 3288,
      "Ġbeck": 3289,
      "iron": 3290,
      "Ġcommittee": 3291,
      "Ġcolors": 3292,
      "Ġmodern": 3293,
      "ano": 3294,
      "ums": 3295,
      "Ġplant": 3296,
      "Ġweren": 3297,
      "Ġcenter": 3298,
      "Ġpicked": 3299,
      "Ġindians": 3300,
      "like": 3301,
      "what": 3302,
      "isod": 3303,
      "Ġchi": 3304,
      "atherine": 3305,
      "Ġgerva": 3306,
      "Ġcastle": 3307,
      "Ġslowly": 3308,
      "Ġdeclared": 3309,
      "hood": 3310,
      "Ġsize": 3311,
      "Ġdu": 3312,
      "Ġbyebye": 3313,
      "sa": 3314,
      "atures": 3315,
      "Ġrid": 3316,
      "ables": 3317,
      "Ġconside": 3318,
      "Ġclosed": 3319,
      "Ġpocket": 3320,
      "Ġcharge": 3321,
      "Ġquestions": 3322,
      "Ġepisod": 3323,
      "Ġconsidered": 3324,
      "pa": 3325,
      "lected": 3326,
      "Ġasleep": 3327,
      "antly": 3328,
      "Ġalbert": 3329,
      "Ġjoin": 3330,
      "Ġpaid": 3331,
      "Ġsimply": 3332,
      "Ġholiday": 3333,
      "Ġtum": 3334,
      "hair": 3335,
      "Ġtoward": 3336,
      "Ġgrou": 3337,
      "Ġunless": 3338,
      "Ġfresh": 3339,
      "ivid": 3340,
      "Ġformula": 3341,
      "Ġbradford": 3342,
      "cul": 3343,
      "vi": 3344,
      "Ġwol": 3345,
      "Ġgate": 3346,
      "Ġspan": 3347,
      "Ġways": 3348,
      "Ġremain": 3349,
      "Ġpays": 3350,
      "Ġcomputer": 3351,
      "Ġcamer": 3352,
      "Ġcongress": 3353,
      "Ġarg": 3354,
      "Ġmarg": 3355,
      "Ġroman": 3356,
      "Ġcharlie": 3357,
      "othy": 3358,
      "Ġrace": 3359,
      "Ġdriving": 3360,
      "Ġkingdom": 3361,
      "Ġremarked": 3362,
      "Ġgervaise": 3363,
      "ially": 3364,
      "loy": 3365,
      "Ġmouse": 3366,
      "Ġrat": 3367,
      "Ġrich": 3368,
      "Ġstage": 3369,
      "aint": 3370,
      "Ġflor": 3371,
      "Ġ2005": 3372,
      "Ġsleeping": 3373,
      "Ġtax": 3374,
      "pose": 3375,
      "rer": 3376,
      "Ġhay": 3377,
      "Ġweather": 3378,
      "Ġancient": 3379,
      "Ġpercent": 3380,
      "Ġcountries": 3381,
      "Ġaccident": 3382,
      "ocol": 3383,
      "line": 3384,
      "Ġblank": 3385,
      "Ġhockey": 3386,
      "Ġsett": 3387,
      "Ġinflu": 3388,
      "Ġindust": 3389,
      "Ġhelped": 3390,
      "Ġparents": 3391,
      "atives": 3392,
      "ili": 3393,
      "Ġplate": 3394,
      "Ġtract": 3395,
      "Ġwonderful": 3396,
      "ees": 3397,
      "zen": 3398,
      "ids": 3399,
      "Ġsty": 3400,
      "Ġaction": 3401,
      "Ġstarting": 3402,
      "Ġpuzzle": 3403,
      "anch": 3404,
      "Ġmoon": 3405,
      "Ġsunday": 3406,
      "Ġindepend": 3407,
      "Ġshoe": 3408,
      "Ġpor": 3409,
      "Ġpad": 3410,
      "Ġgro": 3411,
      "Ġfright": 3412,
      "Ġcoach": 3413,
      "ĠYork": 3414,
      "Ġaccom": 3415,
      "Ġwed": 3416,
      "Ġyo": 3417,
      "isf": 3418,
      "Ġaustralia": 3419,
      "!'": 3420,
      "Ġcoo": 3421,
      "Ġintrod": 3422,
      "Ġtas": 3423,
      "Ġbay": 3424,
      "oose": 3425,
      "Ġwheel": 3426,
      "igs": 3427,
      "Ġcovered": 3428,
      "Ġpencil": 3429,
      "Ġstories": 3430,
      "Ġcust": 3431,
      "Ġfounded": 3432,
      "Ġ187": 3433,
      "Ġmicro": 3434,
      "Ġmariecel": 3435,
      "orough": 3436,
      "str": 3437,
      "Ġshape": 3438,
      "Ġshouldn": 3439,
      "Ġsupposed": 3440,
      "Ġabsolute": 3441,
      "wise": 3442,
      "Ġyoure": 3443,
      "Ġshr": 3444,
      "Ġpray": 3445,
      "rupt": 3446,
      "Ġestab": 3447,
      "Ġmarieceleste": 3448,
      "Ġdeter": 3449,
      "ingly": 3450,
      "ency": 3451,
      "Ġpeek": 3452,
      "Ġcarol": 3453,
      "ĠChair": 3454,
      "Ġsongs": 3455,
      "Ġdivision": 3456,
      "Ġcous": 3457,
      "ĠCh": 3458,
      "Ġhurry": 3459,
      "Ġmedic": 3460,
      "Ġprofessional": 3461,
      "Ġsupper": 3462,
      "Ġpotato": 3463,
      "Ġgroups": 3464,
      "col": 3465,
      "Ġdistance": 3466,
      "Ġended": 3467,
      "Ġswimming": 3468,
      "Ġfeder": 3469,
      "Ġnomin": 3470,
      "Ġitem": 3471,
      "Ġreact": 3472,
      "Ġmeas": 3473,
      "Ġmanner": 3474,
      "Ġclock": 3475,
      "Ġraised": 3476,
      "ique": 3477,
      "Ġdonald": 3478,
      "Ġsaint": 3479,
      "Ġseeing": 3480,
      "Ġenc": 3481,
      "Ġairpl": 3482,
      "Ġpersonal": 3483,
      "Ġrespect": 3484,
      "Ġhigher": 3485,
      "Ġleaving": 3486,
      "Ġconstit": 3487,
      "Ġtiny": 3488,
      "do": 3489,
      "Ġjew": 3490,
      "Ġproduct": 3491,
      "Ġhouses": 3492,
      "yed": 3493,
      "ergy": 3494,
      "Ġcanton": 3495,
      "Ġtruth": 3496,
      "aker": 3497,
      "Ġcentre": 3498,
      "ĠJo": 3499,
      "Ġmilitary": 3500,
      "Ġrate": 3501,
      "ĠAl": 3502,
      "Ġadminist": 3503,
      "Ġloved": 3504,
      "itely": 3505,
      "Ġneeded": 3506,
      "Ġproduc": 3507,
      "Ġoppos": 3508,
      "Ġcher": 3509,
      "Ġund": 3510,
      "Ġspent": 3511,
      "Ġscient": 3512,
      "Ġdrawing": 3513,
      "hold": 3514,
      "Ġfigures": 3515,
      "Ġsurprise": 3516,
      "cher": 3517,
      "Ġwake": 3518,
      "Ġwoof": 3519,
      "ories": 3520,
      "Ġnon": 3521,
      "Ġgra": 3522,
      "Ġsituation": 3523,
      "Ġexcit": 3524,
      "ius": 3525,
      "oted": 3526,
      "Ġbeha": 3527,
      "Ġrail": 3528,
      "Ġeastern": 3529,
      "Ġquarter": 3530,
      "Ġbon": 3531,
      "Ġpun": 3532,
      "aded": 3533,
      "Ġjones": 3534,
      "ift": 3535,
      "Ġphys": 3536,
      "Ġleader": 3537,
      "Ġmotor": 3538,
      "din": 3539,
      "mie": 3540,
      "Ġtone": 3541,
      "orks": 3542,
      "Ġpeggy": 3543,
      "ension": 3544,
      "Ġimpro": 3545,
      "Ġterrible": 3546,
      "Ġsurface": 3547,
      "Ġtemper": 3548,
      "Ġprofessor": 3549,
      "Ġok": 3550,
      "Ġpin": 3551,
      "ushing": 3552,
      "Ġemploy": 3553,
      "Ġlouis": 3554,
      "bed": 3555,
      "Ġnar": 3556,
      "Ġmeat": 3557,
      "Ġoccur": 3558,
      "Ġtri": 3559,
      "Ġchocol": 3560,
      "Ġanyone": 3561,
      "Ġindivid": 3562,
      "ghed": 3563,
      "Ġattend": 3564,
      "Ġparl": 3565,
      "Ġmarket": 3566,
      "iest": 3567,
      "Ġvir": 3568,
      "Ġbrush": 3569,
      "Ġmonster": 3570,
      "Ġ31": 3571,
      "Ġattention": 3572,
      "ca": 3573,
      "hire": 3574,
      "vin": 3575,
      "Ġris": 3576,
      "iment": 3577,
      "chi": 3578,
      "Ġentire": 3579,
      "Ġinvest": 3580,
      "Ġeffort": 3581,
      "ko": 3582,
      "lt": 3583,
      "nel": 3584,
      "reme": 3585,
      "Ġspr": 3586,
      "Ġhardly": 3587,
      "Ġpeace": 3588,
      "Ġadvent": 3589,
      "Ġpossib": 3590,
      "hic": 3591,
      "Ġbutton": 3592,
      "Ġneg": 3593,
      "Ġdream": 3594,
      "Ġresearch": 3595,
      "eas": 3596,
      "Ġcities": 3597,
      "Ġlu": 3598,
      "Ġinf": 3599,
      "Ġate": 3600,
      "Ġproduced": 3601,
      "Ġiron": 3602,
      "Ġmentioned": 3603,
      "Ġ2004": 3604,
      "Ġdistrib": 3605,
      "Ġdirection": 3606,
      "eg": 3607,
      "rican": 3608,
      "Ġlose": 3609,
      "Ġsail": 3610,
      "ĠNot": 3611,
      "ground": 3612,
      "Ġholding": 3613,
      "Ġmountain": 3614,
      "Ġrush": 3615,
      "Ġalf": 3616,
      "Ġworse": 3617,
      "Ġcheer": 3618,
      "Ġfund": 3619,
      "Ġstraw": 3620,
      "erson": 3621,
      "istan": 3622,
      "Ġsatisf": 3623,
      "Ġrespons": 3624,
      "Ġflying": 3625,
      "Ġdorothy": 3626,
      "mn": 3627,
      "Ġinqu": 3628,
      "ota": 3629,
      "Ġprin": 3630,
      "Ġforest": 3631,
      "Ġcell": 3632,
      "Ġknights": 3633,
      "Ġbudget": 3634,
      "round": 3635,
      "Ġfinally": 3636,
      "aven": 3637,
      "aries": 3638,
      "uses": 3639,
      "Ġdownstairs": 3640,
      "ously": 3641,
      "Ġbarn": 3642,
      "Ġservices": 3643,
      "Ġellie": 3644,
      "Ġversion": 3645,
      "Ġenviron": 3646,
      "da": 3647,
      "Ġrough": 3648,
      "Ġagree": 3649,
      "aret": 3650,
      "Ġgrew": 3651,
      "aign": 3652,
      "Ġwhoa": 3653,
      "Ġflower": 3654,
      "Ġdisp": 3655,
      "Ġpleased": 3656,
      "Ġcabin": 3657,
      "Ġgives": 3658,
      "Ġtheres": 3659,
      "Ġcarr": 3660,
      "Ġwont": 3661,
      "inal": 3662,
      "Ġpir": 3663,
      "astic": 3664,
      "Ġloves": 3665,
      "Ġident": 3666,
      "Ġwalked": 3667,
      "ning": 3668,
      "Ġtong": 3669,
      "Ġpak": 3670,
      "Ġram": 3671,
      "chard": 3672,
      "Ġeighty": 3673,
      "Ġdogs": 3674,
      "Ġstren": 3675,
      "ĠDid": 3676,
      "Ġofficer": 3677,
      "Ġliter": 3678,
      "Ġdeterm": 3679,
      "ga": 3680,
      "iel": 3681,
      "Ġschol": 3682,
      "Ġcrew": 3683,
      "Ġincluded": 3684,
      "Ġchocolate": 3685,
      "ira": 3686,
      "Ġshirt": 3687,
      "Ġrobert": 3688,
      "Ġeveryone": 3689,
      "Ġspeed": 3690,
      "Ġsinging": 3691,
      "hem": 3692,
      "itude": 3693,
      "Ġhero": 3694,
      "Ġnotice": 3695,
      "Ġworry": 3696,
      "Ġamp": 3697,
      "Ġprep": 3698,
      "Ġbedroom": 3699,
      "Ġgenerally": 3700,
      "Ġnative": 3701,
      "Ġtickle": 3702,
      "Ġlaughed": 3703,
      "Ġchina": 3704,
      "Ġships": 3705,
      "Ġissue": 3706,
      "Ġsports": 3707,
      "Ġearlier": 3708,
      "Ġcatherine": 3709,
      "Ġmater": 3710,
      "Ġrap": 3711,
      "Ġjum": 3712,
      "Ġanywhere": 3713,
      "Ġsposta": 3714,
      "Ġfighting": 3715,
      "Ġspirit": 3716,
      "asc": 3717,
      "Ġcomment": 3718,
      "eman": 3719,
      "medi": 3720,
      "Ġsteve": 3721,
      "Ġaircraft": 3722,
      "Ġspeaking": 3723,
      "Ġhenry": 3724,
      "Ġstructure": 3725,
      "nded": 3726,
      "Ġdate": 3727,
      "Ġfool": 3728,
      "Ġtrick": 3729,
      "Ġtext": 3730,
      "Ġcharles": 3731,
      "Ġdesp": 3732,
      "Ġcampaign": 3733,
      "Ġdescrib": 3734,
      "Ġwound": 3735,
      "Ġpill": 3736,
      "Ġthus": 3737,
      "Ġ2000": 3738,
      "Ġ2003": 3739,
      "Ġtalked": 3740,
      "Ġwarren": 3741,
      "Ġteams": 3742,
      "Ġpaint": 3743,
      "Ġhonor": 3744,
      "Ġrichard": 3745,
      "Ġenvironment": 3746,
      "can": 3747,
      "Ġcart": 3748,
      "Ġbeach": 3749,
      "Ġforth": 3750,
      "Ġmob": 3751,
      "Ġtwice": 3752,
      "Ġacqu": 3753,
      "Ġzoo": 3754,
      "Ġlocated": 3755,
      "gle": 3756,
      "mar": 3757,
      "night": 3758,
      "ensive": 3759,
      "ĠBe": 3760,
      "Ġdiscuss": 3761,
      "Ġbaseball": 3762,
      "Ġcrowd": 3763,
      "Ġlying": 3764,
      "Ġdeg": 3765,
      "Ġthinks": 3766,
      "Ġcrash": 3767,
      "Ġdragon": 3768,
      "Ġsharp": 3769,
      "Ġchat": 3770,
      "Ġloud": 3771,
      "anda": 3772,
      "ests": 3773,
      "Ġsinger": 3774,
      "Ġdressed": 3775,
      "oom": 3776,
      "Ġplane": 3777,
      "Ġsnake": 3778,
      "Ġsandwich": 3779,
      "ech": 3780,
      "old": 3781,
      "pan": 3782,
      "uct": 3783,
      "ini": 3784,
      "Ġmolly": 3785,
      "ola": 3786,
      "ĠCos": 3787,
      "Ġmissing": 3788,
      "Ġawful": 3789,
      "ĠJust": 3790,
      "Ġdrew": 3791,
      "Ġcorre": 3792,
      "Ġlaughing": 3793,
      "ashed": 3794,
      "roll": 3795,
      "Ġquality": 3796,
      "Ġaddition": 3797,
      "Ġbesides": 3798,
      "Ġitalian": 3799,
      "Ġmedicine": 3800,
      "Ġq": 3801,
      "Ġsid": 3802,
      "atic": 3803,
      "Ġhaw": 3804,
      "ĠAye": 3805,
      "Ġprime": 3806,
      "Ġskin": 3807,
      "Ġstreng": 3808,
      "Ġsour": 3809,
      "Ġder": 3810,
      "Ġlines": 3811,
      "Ġnur": 3812,
      "ators": 3813,
      "Ġafterwards": 3814,
      "Ġ1990": 3815,
      "Ġentered": 3816,
      "Ġpalace": 3817,
      "ker": 3818,
      "inct": 3819,
      "Ġna": 3820,
      "ites": 3821,
      "Ġdoc": 3822,
      "Ġbrothers": 3823,
      "ointed": 3824,
      "van": 3825,
      "Ġdunn": 3826,
      "Ġexec": 3827,
      "Ġprice": 3828,
      "Ġschools": 3829,
      "Ġstorm": 3830,
      "Ġangry": 3831,
      "Ġrule": 3832,
      "Ġeuropean": 3833,
      "kins": 3834,
      "Ġtar": 3835,
      "Ġmult": 3836,
      "orm": 3837,
      "Ġspread": 3838,
      "Ġlaid": 3839,
      "Ġmachine": 3840,
      "yer": 3841,
      "Ġdepend": 3842,
      "Ġperm": 3843,
      "Ġinvolved": 3844,
      "Ġavail": 3845,
      "ĠJohn": 3846,
      "Ġawww": 3847,
      "Ġcad": 3848,
      "Ġnea": 3849,
      "Ġprince": 3850,
      "ashion": 3851,
      "erve": 3852,
      "otte": 3853,
      "Ġthrew": 3854,
      "ession": 3855,
      "Ġcompl": 3856,
      "Ġbits": 3857,
      "Ġjesus": 3858,
      "Ġwal": 3859,
      "Ġtoast": 3860,
      "sty": 3861,
      "iance": 3862,
      "Ġsixty": 3863,
      "Ġsaturday": 3864,
      "Ġladies": 3865,
      "Ġwelcome": 3866,
      "gin": 3867,
      "lant": 3868,
      "itor": 3869,
      "Ġsem": 3870,
      "Ġplaced": 3871,
      "Ġcarl": 3872,
      "Ġmagaz": 3873,
      "Ġcamera": 3874,
      "Ġsens": 3875,
      "Ġoil": 3876,
      "Ġplain": 3877,
      "Ġbrave": 3878,
      "Ġphot": 3879,
      "Ġhunting": 3880,
      "Ġsociety": 3881,
      "Ġtractor": 3882,
      "Ġenergy": 3883,
      "Ġmissed": 3884,
      "Ġ1980": 3885,
      "Ġhate": 3886,
      "Ġtitle": 3887,
      "Ġdemocratic": 3888,
      "Ġthee": 3889,
      "Ġcass": 3890,
      "Ġyay": 3891,
      "Ġloss": 3892,
      "Ġanymore": 3893,
      "Ġclap": 3894,
      "Ġpleasant": 3895,
      "Ġpleasure": 3896,
      "Ġagreed": 3897,
      "Ġflorida": 3898,
      "igsaw": 3899,
      "Ġheaven": 3900,
      "Ġtheyre": 3901,
      "Ġshown": 3902,
      "Ġtrip": 3903,
      "Ġparticularly": 3904,
      "Ġmap": 3905,
      "ays": 3906,
      "ively": 3907,
      "ĠWh": 3908,
      "Ġimmedi": 3909,
      "Ġcollect": 3910,
      "Ġprize": 3911,
      "Ġfac": 3912,
      "Ġstock": 3913,
      "Ġgrown": 3914,
      "Ġspoken": 3915,
      "Ġsimple": 3916,
      "Ġetc": 3917,
      "Ġsult": 3918,
      "Ġliber": 3919,
      "nah": 3920,
      "Ġelected": 3921,
      "Ġsarah": 3922,
      "Ġfemale": 3923,
      "ĠChairman": 3924,
      "lend": 3925,
      "pping": 3926,
      "Ġscott": 3927,
      "Ġimm": 3928,
      "Ġnature": 3929,
      "Ġyummy": 3930,
      "Ġgentleman": 3931,
      "ax": 3932,
      "Ġcanada": 3933,
      "umn": 3934,
      "Ġeasily": 3935,
      "bell": 3936,
      "Ġol": 3937,
      "Ġroof": 3938,
      "ours": 3939,
      "Ġmeaning": 3940,
      "Ġmatt": 3941,
      "Ġsteps": 3942,
      "Ġsurprised": 3943,
      "you": 3944,
      "Ġaud": 3945,
      "Ġtrail": 3946,
      "Ġexist": 3947,
      "Ġtid": 3948,
      "oma": 3949,
      "Ġeager": 3950,
      "Ġrange": 3951,
      "Ġjigsaw": 3952,
      "Ġvote": 3953,
      "Ġdinosaur": 3954,
      "Ġbecky": 3955,
      "ios": 3956,
      "Ġcere": 3957,
      "iles": 3958,
      "Ġplenty": 3959,
      "olic": 3960,
      "Ġpoet": 3961,
      "ĠDon": 3962,
      "Ġterrit": 3963,
      "Ġwriter": 3964,
      "Ġlearned": 3965,
      "Ġarrived": 3966,
      "Ġrepublic": 3967,
      "Ġnecessary": 3968,
      "Ġmut": 3969,
      "Ġslide": 3970,
      "Ġeighteen": 3971,
      "Ġbelieved": 3972,
      "Ġjennie": 3973,
      "Ġoccasion": 3974,
      "Ġwolf": 3975,
      "ita": 3976,
      "Ġbrill": 3977,
      "Ġgrave": 3978,
      "Ġplayers": 3979,
      "Ġkinda": 3980,
      "Ġdancing": 3981,
      "vious": 3982,
      "Ġtight": 3983,
      "hah": 3984,
      "Ġtrade": 3985,
      "Ġentertain": 3986,
      "iament": 3987,
      "Ġduty": 3988,
      "Ġspanish": 3989,
      "wh": 3990,
      "Ġfrogs": 3991,
      "Ġmotion": 3992,
      "Ġtaste": 3993,
      "Ġairplane": 3994,
      "Ġthy": 3995,
      "Ġtrunk": 3996,
      "Ġ2001": 3997,
      "Ġsmaller": 3998,
      "Ġpurpose": 3999,
      "bout": 4000,
      "Ġaye": 4001,
      "ulf": 4002,
      "Ġfarmer": 4003,
      "Ġkeeping": 4004,
      "Ġviol": 4005,
      "Ġsultan": 4006,
      "Ġaver": 4007,
      "Ġbert": 4008,
      "erc": 4009,
      "Ġrand": 4010,
      "iction": 4011,
      "Ġislands": 4012,
      "Ġdeveloped": 4013,
      "Ġsoup": 4014,
      "Ġreck": 4015,
      "ĠWhere": 4016,
      "Ġchris": 4017,
      "Ġtelephone": 4018,
      "bles": 4019,
      "name": 4020,
      "Ġmail": 4021,
      "icious": 4022,
      "Ġupper": 4023,
      "Ġgrap": 4024,
      "ĠWhen": 4025,
      "Ġ1960": 4026,
      "Ġgolden": 4027,
      "Ġsilver": 4028,
      "iot": 4029,
      "Ġtoes": 4030,
      "athe": 4031,
      "Ġthick": 4032,
      "Ġsoldiers": 4033,
      "Ġchinese": 4034,
      "Ġbin": 4035,
      "ening": 4036,
      "Ġinj": 4037,
      "Ġcanad": 4038,
      "Ġshad": 4039,
      "Ġ2002": 4040,
      "Ġmovement": 4041,
      "ex": 4042,
      "rist": 4043,
      "Ġwick": 4044,
      "Ġdim": 4045,
      "Ġgab": 4046,
      "ste": 4047,
      "Ġneither": 4048,
      "Ġabe": 4049,
      "Ġexcell": 4050,
      "Ġprinc": 4051,
      "ification": 4052,
      "Ġmexico": 4053,
      "Ġnurse": 4054,
      "?'": 4055,
      "ining": 4056,
      "Ġpony": 4057,
      "enne": 4058,
      "enth": 4059,
      "Ġsuit": 4060,
      "Ġbrief": 4061,
      "Ġpeas": 4062,
      "Ġ50": 4063,
      "Ġproperly": 4064,
      "Ġtongue": 4065,
      "Ġdey": 4066,
      "Ġwoods": 4067,
      "Ġdemand": 4068,
      "light": 4069,
      "aboo": 4070,
      "Ġ190": 4071,
      "Ġmont": 4072,
      "Ġgeorg": 4073,
      "Ġwatched": 4074,
      "Ġabsolutely": 4075,
      "chan": 4076,
      "kn": 4077,
      "Ġoce": 4078,
      "Ġpath": 4079,
      "Ġoffe": 4080,
      "Ġforces": 4081,
      "Ġsearch": 4082,
      "Ġneat": 4083,
      "Ġplants": 4084,
      "ĠAre": 4085,
      "Ġflag": 4086,
      "Ġofficial": 4087,
      "Ġhorsie": 4088,
      "17": 4089,
      "bits": 4090,
      "nament": 4091,
      "hest": 4092,
      "Ġpool": 4093,
      "arily": 4094,
      "Ġsocks": 4095,
      "Ġmyster": 4096,
      "Ġtells": 4097,
      "Ġheads": 4098,
      "Ġ188": 4099,
      "Ġ1970": 4100,
      "Ġmainly": 4101,
      "Ġdiscovered": 4102,
      "Ġcards": 4103,
      "vere": 4104,
      "ĠWhy": 4105,
      "Ġscience": 4106,
      "Ġretired": 4107,
      "Ġlucky": 4108,
      "Ġassociation": 4109,
      "ja": 4110,
      "eds": 4111,
      "Ġjam": 4112,
      "Ġchanges": 4113,
      "Ġoccup": 4114,
      "Ġbeside": 4115,
      "Ġpilchard": 4116,
      "Ġescape": 4117,
      "ores": 4118,
      "Ġmud": 4119,
      "Ġdick": 4120,
      "Ġnav": 4121,
      "lebr": 4122,
      "ilda": 4123,
      "Ġourselves": 4124,
      "Ġdrama": 4125,
      "ucle": 4126,
      "Ġobl": 4127,
      "Ġcookie": 4128,
      "oved": 4129,
      "set": 4130,
      "Ġpants": 4131,
      "rugg": 4132,
      "Ġslaves": 4133,
      "Ġrelations": 4134,
      "Ġfavour": 4135,
      "vey": 4136,
      "Ġstaff": 4137,
      "aming": 4138,
      "Ġuses": 4139,
      "Ġotherwise": 4140,
      "Ġprint": 4141,
      "ression": 4142,
      "bered": 4143,
      "ĠFr": 4144,
      "Ġpractice": 4145,
      "Ġprincip": 4146,
      "fa": 4147,
      "Ġpant": 4148,
      "ena": 4149,
      "oming": 4150,
      "Ġala": 4151,
      "Ġasking": 4152,
      "Ġfalling": 4153,
      "Ġperforman": 4154,
      "Ġbrilliant": 4155,
      "ero": 4156,
      "oring": 4157,
      "Ġdoin": 4158,
      "Ġconvers": 4159,
      "Ġdolls": 4160,
      "Ġevents": 4161,
      "Ġroles": 4162,
      "Ġscarce": 4163,
      "cue": 4164,
      "hod": 4165,
      "oe": 4166,
      "Ġbern": 4167,
      "Ġcra": 4168,
      "Ġnan": 4169,
      "Ġnoticed": 4170,
      "Ġfruit": 4171,
      "Ġmuse": 4172,
      "Ġobviously": 4173,
      "nal": 4174,
      "Ġhomes": 4175,
      "Ġprefect": 4176,
      "Ġremem": 4177,
      "Ġremained": 4178,
      "box": 4179,
      "Ġcheek": 4180,
      "Ġexpected": 4181,
      "Ġ185": 4182,
      "ledge": 4183,
      "Ġlights": 4184,
      "Ġfallen": 4185,
      "Ġofficers": 4186,
      "Ġfairly": 4187,
      "ima": 4188,
      "Ġamaz": 4189,
      "cles": 4190,
      "Ġcontract": 4191,
      "Ġartist": 4192,
      "Ġprotect": 4193,
      "Ġdunno": 4194,
      "po": 4195,
      "Ġsite": 4196,
      "Ġpiz": 4197,
      "Ġserious": 4198,
      "pered": 4199,
      "Ġnewsp": 4200,
      "Ġopport": 4201,
      "Ġdefinitely": 4202,
      "Ġtie": 4203,
      "Ġwit": 4204,
      "Ġpow": 4205,
      "iti": 4206,
      "usion": 4207,
      "elly": 4208,
      "azil": 4209,
      "Ġfairy": 4210,
      "Ġhappening": 4211,
      "Ġcurrently": 4212,
      "Ġfilled": 4213,
      "Ġwashington": 4214,
      "Ġstyle": 4215,
      "die": 4216,
      "ua": 4217,
      "Ġfest": 4218,
      "ishes": 4219,
      "itation": 4220,
      "ari": 4221,
      "Ġeld": 4222,
      "ado": 4223,
      "Ġnovel": 4224,
      "ria": 4225,
      "ateg": 4226,
      "Ġintend": 4227,
      "Ġfishing": 4228,
      "Ġpeekaboo": 4229,
      "colm": 4230,
      "aly": 4231,
      "Ġash": 4232,
      "Ġmax": 4233,
      "Ġcircum": 4234,
      "Ġexperience": 4235,
      "Ġrepublican": 4236,
      "Ġparliament": 4237,
      "but": 4238,
      "Ġfancy": 4239,
      "Ġfashion": 4240,
      "Ġnic": 4241,
      "Ġheat": 4242,
      "lden": 4243,
      "ify": 4244,
      "Ġmanager": 4245,
      "fection": 4246,
      "ĠOne": 4247,
      "Ġrelated": 4248,
      "Ġprincess": 4249,
      "18": 4250,
      "fly": 4251,
      "ram": 4252,
      "rated": 4253,
      "Ġduh": 4254,
      "Ġonto": 4255,
      "Ġcancer": 4256,
      "Ġchicago": 4257,
      "Ġcousin": 4258,
      "Ġsex": 4259,
      "Ġknife": 4260,
      "Ġfourth": 4261,
      "Ġangeles": 4262,
      "Ġtucker": 4263,
      "Ġfederal": 4264,
      "heart": 4265,
      "Ġwipe": 4266,
      "Ġclearly": 4267,
      "Ġdangerous": 4268,
      "Ġsanta": 4269,
      "Ġopportun": 4270,
      "Ġtip": 4271,
      "Ġwinn": 4272,
      "Ġsides": 4273,
      "Ġemb": 4274,
      "Ġchannel": 4275,
      "Ġbobby": 4276,
      "Ġbowl": 4277,
      "Ġcases": 4278,
      "ugg": 4279,
      "heast": 4280,
      "Ġaffect": 4281,
      "ĠHave": 4282,
      "Ġballoon": 4283,
      "Ġnormally": 4284,
      "Ġsettled": 4285,
      "oured": 4286,
      "Ġshake": 4287,
      "Ġslave": 4288,
      "ails": 4289,
      "Ġincludes": 4290,
      "Ġtransport": 4291,
      "Ġrequire": 4292,
      "Ġrussian": 4293,
      "Ġvirgin": 4294,
      "Ġbush": 4295,
      "ences": 4296,
      "allas": 4297,
      "Ġshore": 4298,
      "Ġ1994": 4299,
      "Ġinstit": 4300,
      "Ġaddress": 4301,
      "Ġdata": 4302,
      "Ġmartin": 4303,
      "Ġprivate": 4304,
      "Ġble": 4305,
      "Ġcud": 4306,
      "Ġnucle": 4307,
      "etch": 4308,
      "Ġves": 4309,
      "Ġarab": 4310,
      "Ġclaim": 4311,
      "lands": 4312,
      "Ġbenef": 4313,
      "Ġgerald": 4314,
      "Ġbegin": 4315,
      "Ġappearance": 4316,
      "Ġaverage": 4317,
      "Ġess": 4318,
      "Ġast": 4319,
      "Ġthreat": 4320,
      "Ġweak": 4321,
      "Ġemer": 4322,
      "Ġknight": 4323,
      "Ġqual": 4324,
      "Ġpenn": 4325,
      "Ġpainting": 4326,
      "Ġdread": 4327,
      "Ġcopy": 4328,
      "Ġsuggested": 4329,
      "Ġperfectly": 4330,
      "Ġconcerned": 4331,
      "Ġcit": 4332,
      "eddin": 4333,
      "Ġasian": 4334,
      "Ġbrazil": 4335,
      "Ġgreater": 4336,
      "Ġcompos": 4337,
      "Ġ1995": 4338,
      "Ġleading": 4339,
      "Ġdouble": 4340,
      "Ġmodel": 4341,
      "Ġtummy": 4342,
      "Ġalaeddin": 4343,
      "Ġtaught": 4344,
      "Ġcath": 4345,
      "Ġdoggy": 4346,
      "Ġstan": 4347,
      "Ġsaf": 4348,
      "Ġplat": 4349,
      "Ġbarry": 4350,
      "Ġpossum": 4351,
      "Ġexplain": 4352,
      "af": 4353,
      "Ġsoul": 4354,
      "Ġdallas": 4355,
      "Ġnut": 4356,
      "Ġhal": 4357,
      "ols": 4358,
      "Ġtroops": 4359,
      "Ġusual": 4360,
      "Ġcarefully": 4361,
      "Ġmalcolm": 4362,
      "Ġchoose": 4363,
      "Ġnormal": 4364,
      "lished": 4365,
      "Ġharo": 4366,
      "Ġweight": 4367,
      "aching": 4368,
      "ruction": 4369,
      "Ġolympics": 4370,
      "Ġmobile": 4371,
      "ban": 4372,
      "Ġnation": 4373,
      "ird": 4374,
      "Ġknee": 4375,
      "Ġplans": 4376,
      "wo": 4377,
      "Ġsmart": 4378,
      "ĠCouncil": 4379,
      "Ġbatter": 4380,
      "Ġassist": 4381,
      "Ġpulled": 4382,
      "Ġcelebr": 4383,
      "Ġtradition": 4384,
      "Ġavailable": 4385,
      "Ġharold": 4386,
      "bon": 4387,
      "jam": 4388,
      "Ġbother": 4389,
      "Ġpour": 4390,
      "Ġstrugg": 4391,
      "Ġfinding": 4392,
      "Ġlarger": 4393,
      "Ġthirteen": 4394,
      "Ġpatty": 4395,
      "Ġlanguages": 4396,
      "Ġfixed": 4397,
      "Ġepisode": 4398,
      "Ġdare": 4399,
      "Ġstro": 4400,
      "Ġexam": 4401,
      "Ġarro": 4402,
      "Ġstruck": 4403,
      "Ġtraining": 4404,
      "Ġgradu": 4405,
      "Ġexcellent": 4406,
      "Ġfer": 4407,
      "Ġstairs": 4408,
      "Ġsaved": 4409,
      "Ġproud": 4410,
      "Ġfold": 4411,
      "Ġkinds": 4412,
      "ĠGre": 4413,
      "Ġenter": 4414,
      "rica": 4415,
      "Ġnursery": 4416,
      "Ġestablished": 4417,
      "Ġstrength": 4418,
      "Ġpizza": 4419,
      "oms": 4420,
      "Ġrout": 4421,
      "Ġtrous": 4422,
      "Ġspain": 4423,
      "Ġconv": 4424,
      "Ġamb": 4425,
      "Ġsmith": 4426,
      "Ġdrag": 4427,
      "Ġeasier": 4428,
      "Ġstret": 4429,
      "Ġstudied": 4430,
      "Ġgently": 4431,
      "Ġcorrect": 4432,
      "Ġcu": 4433,
      "Ġnick": 4434,
      "isse": 4435,
      "Ġhadn": 4436,
      "Ġcomedy": 4437,
      "Ġenemy": 4438,
      "Ġcalling": 4439,
      "Ġ1996": 4440,
      "iety": 4441,
      "Ġshopping": 4442,
      "lers": 4443,
      "Ġpra": 4444,
      "Ġalive": 4445,
      "Ġtend": 4446,
      "Ġopening": 4447,
      "Ġanxious": 4448,
      "Ġscholars": 4449,
      "Ġbisc": 4450,
      "Ġruth": 4451,
      "Ġvaud": 4452,
      "ishop": 4453,
      "Ġapparent": 4454,
      "Ġempty": 4455,
      "Ġbloody": 4456,
      "views": 4457,
      "Ġrepeated": 4458,
      "bow": 4459,
      "Ġhee": 4460,
      "Ġhorn": 4461,
      "sequ": 4462,
      "Ġriding": 4463,
      "Ġ1997": 4464,
      "Ġjudge": 4465,
      "Ġmagazine": 4466,
      "15": 4467,
      "ole": 4468,
      "Ġbump": 4469,
      "Ġkm": 4470,
      "Ġsomewhat": 4471,
      "Ġmayenne": 4472,
      "Ġfond": 4473,
      "Ġchew": 4474,
      "Ġyounger": 4475,
      "Ġdriver": 4476,
      "Ġpromise": 4477,
      "Ġmountains": 4478,
      "ceeded": 4479,
      "Ġshouted": 4480,
      "Ġpooh": 4481,
      "rig": 4482,
      "ona": 4483,
      "isher": 4484,
      "Ġscot": 4485,
      "Ġspeech": 4486,
      "Ġ1992": 4487,
      "Ġgrowing": 4488,
      "Ġmoo": 4489,
      "Ġhind": 4490,
      "Ġlemme": 4491,
      "Ġmargaret": 4492,
      "Ġtrousers": 4493,
      "rid": 4494,
      "Ġga": 4495,
      "Ġvac": 4496,
      "Ġspider": 4497,
      "eme": 4498,
      "Ġcoal": 4499,
      "anced": 4500,
      "Ġhonest": 4501,
      "Ġvessel": 4502,
      "Ġfranc": 4503,
      "Ġsuc": 4504,
      "Ġvot": 4505,
      "Ġprevent": 4506,
      "Ġharm": 4507,
      "Ġbreath": 4508,
      "Ġsusp": 4509,
      "Ġsmoke": 4510,
      "Ġocean": 4511,
      "Ġtub": 4512,
      "hal": 4513,
      "Ġselected": 4514,
      "Ġvall": 4515,
      "Ġmanaged": 4516,
      "Ġafrican": 4517,
      "Ġoffer": 4518,
      "Ġfirm": 4519,
      "Ġscared": 4520,
      "Ġtomato": 4521,
      "Ġexcited": 4522,
      "Ġguns": 4523,
      "Ġachie": 4524,
      "Ġindividual": 4525,
      "Ġpred": 4526,
      "asing": 4527,
      "atory": 4528,
      "Ġteach": 4529,
      "Ġpolly": 4530,
      "Ġremi": 4531,
      "Ġsurround": 4532,
      "Ġmickey": 4533,
      "Ġevident": 4534,
      "Ġbutterfly": 4535,
      "Ġtournament": 4536,
      "Ġqueer": 4537,
      "Ġpuppy": 4538,
      "Ġmuseum": 4539,
      "Ġfal": 4540,
      "ingu": 4541,
      "isions": 4542,
      "Ġexerc": 4543,
      "Ġpoem": 4544,
      "Ġscrew": 4545,
      "wa": 4546,
      "ware": 4547,
      "Ġpair": 4548,
      "icient": 4549,
      "Ġnope": 4550,
      "Ġath": 4551,
      "Ġshoulder": 4552,
      "Ġattract": 4553,
      "Ġmedal": 4554,
      "Ġexplained": 4555,
      "Ġpromised": 4556,
      "Ġmcdon": 4557,
      "Ġperformed": 4558,
      "Ġincrease": 4559,
      "Ġrules": 4560,
      "Ġpossibly": 4561,
      "bc": 4562,
      "writ": 4563,
      "Ġsore": 4564,
      "Ġdecision": 4565,
      "Ġsigned": 4566,
      "Ġveget": 4567,
      "Ġvalue": 4568,
      "Ġsuccessful": 4569,
      "Ġtribe": 4570,
      "oll": 4571,
      "ties": 4572,
      "Ġcraw": 4573,
      "Ġdoo": 4574,
      "Ġyuck": 4575,
      "Ġhell": 4576,
      "Ġkore": 4577,
      "Ġknowledge": 4578,
      "Ġspill": 4579,
      "Ġbrand": 4580,
      "venue": 4581,
      "tained": 4582,
      "Ġhelping": 4583,
      "Ġedge": 4584,
      "Ġ1998": 4585,
      "Ġsurv": 4586,
      "anned": 4587,
      "Ġboats": 4588,
      "Ġzeal": 4589,
      "Ġwheels": 4590,
      "igan": 4591,
      "Ġbranch": 4592,
      "Ġadult": 4593,
      "Ġstayed": 4594,
      "Ġrelease": 4595,
      "chester": 4596,
      "Ġrecognized": 4597,
      "Ġsecretary": 4598,
      "Ġreckon": 4599,
      "Ġsis": 4600,
      "Ġsac": 4601,
      "Ġpic": 4602,
      "Ġgim": 4603,
      "Ġgang": 4604,
      "Ġned": 4605,
      "vering": 4606,
      "Ġparticip": 4607,
      "Ġprem": 4608,
      "Ġactive": 4609,
      "Ġfourteen": 4610,
      "Ġshower": 4611,
      "Ġmagnet": 4612,
      "Ġrecords": 4613,
      "ription": 4614,
      "Ġimmediately": 4615,
      "Ġforms": 4616,
      "Ġshell": 4617,
      "uments": 4618,
      "Ġquack": 4619,
      "Ġacid": 4620,
      "Ġmale": 4621,
      "play": 4622,
      "Ġpurs": 4623,
      "Ġestim": 4624,
      "Ġolympic": 4625,
      "bu": 4626,
      "Ġwave": 4627,
      "Ġcoun": 4628,
      "Ġweap": 4629,
      "aled": 4630,
      "Ġgoal": 4631,
      "Ġafrica": 4632,
      "Ġblind": 4633,
      "Ġmummie": 4634,
      "Ġ189": 4635,
      "gypt": 4636,
      "Ġknocked": 4637,
      "Ġitaly": 4638,
      "Ġcompletely": 4639,
      "Ġgabrie": 4640,
      "uction": 4641,
      "Ġmister": 4642,
      "Ġsplend": 4643,
      "Ġarrest": 4644,
      "Ġindic": 4645,
      "Ġgreatest": 4646,
      "Ġcontent": 4647,
      "ĠGood": 4648,
      "Ġpresently": 4649,
      "Ġrocks": 4650,
      "Ġextreme": 4651,
      "Ġchemical": 4652,
      "ias": 4653,
      "over": 4654,
      "ata": 4655,
      "Ġkansas": 4656,
      "Ġwhist": 4657,
      "urt": 4658,
      "Ġsees": 4659,
      "Ġgraeme": 4660,
      "lah": 4661,
      "Ġbike": 4662,
      "Ġgaz": 4663,
      "Ġasse": 4664,
      "Ġlibr": 4665,
      "Ġgram": 4666,
      "Ġbringing": 4667,
      "Ġthrowing": 4668,
      "Ġbathroom": 4669,
      "Ġlistening": 4670,
      "Ġvictor": 4671,
      "Ġimagine": 4672,
      "Ġnuclear": 4673,
      "10": 4674,
      "12": 4675,
      "under": 4676,
      "ndisse": 4677,
      "Ġpud": 4678,
      "Ġgor": 4679,
      "Ġhasta": 4680,
      "utive": 4681,
      "Ġevidence": 4682,
      "Ġturtle": 4683,
      "Ġrobin": 4684,
      "Ġwhispered": 4685,
      "Ġarrondisse": 4686,
      "ials": 4687,
      "Ġtooth": 4688,
      "eta": 4689,
      "istic": 4690,
      "Ġcats": 4691,
      "Ġsubst": 4692,
      "Ġoriginally": 4693,
      "Ġlatter": 4694,
      "Ġtowel": 4695,
      "mother": 4696,
      "Ġtal": 4697,
      "Ġwid": 4698,
      "Ġward": 4699,
      "uten": 4700,
      "Ġknowing": 4701,
      "Ġtrump": 4702,
      "Ġlee": 4703,
      "Ġsignific": 4704,
      "Ġcharacters": 4705,
      "Ġprogramme": 4706,
      "Ġukrain": 4707,
      "Ġgeorgia": 4708,
      "Ġdia": 4709,
      "Ġhook": 4710,
      "alds": 4711,
      "Ġrang": 4712,
      "Ġstones": 4713,
      "Ġprogress": 4714,
      "Ġmatches": 4715,
      "Ġbarb": 4716,
      "Ġjobs": 4717,
      "Ġwearing": 4718,
      "bl": 4719,
      "tles": 4720,
      "uits": 4721,
      "Ġfenn": 4722,
      "Ġpostman": 4723,
      "Ġnetwork": 4724,
      "Ġseparate": 4725,
      "Ġcanadian": 4726,
      "Ġsafety": 4727,
      "fall": 4728,
      "Ġwars": 4729,
      "Ġmort": 4730,
      "ndered": 4731,
      "aring": 4732,
      "Ġhid": 4733,
      "oph": 4734,
      "Ġafford": 4735,
      "Ġtypes": 4736,
      "Ġauthority": 4737,
      "Ġblanket": 4738,
      "onia": 4739,
      "ashing": 4740,
      "Ġdoors": 4741,
      "ability": 4742,
      "berry": 4743,
      "izing": 4744,
      "Ġthroughout": 4745,
      "Ġ1993": 4746,
      "Ġsixteen": 4747,
      "Ġouch": 4748,
      "Ġcarrying": 4749,
      "Ġmistake": 4750,
      "Ġchoice": 4751,
      "Ġscarcely": 4752,
      "Ġcircumst": 4753,
      "eral": 4754,
      "Ġkang": 4755,
      "Ġbutt": 4756,
      "aked": 4757,
      "Ġsword": 4758,
      "mend": 4759,
      "Ġreplaced": 4760,
      "Ġcomfortable": 4761,
      "Ġlin": 4762,
      "Ġven": 4763,
      "Ġunc": 4764,
      "ounce": 4765,
      "Ġmammy": 4766,
      "Ġ1986": 4767,
      "Ġsalt": 4768,
      "Ġhighest": 4769,
      "Ġsettlement": 4770,
      "ai": 4771,
      "Ġlap": 4772,
      "Ġlwww": 4773,
      "Ġlips": 4774,
      "Ġtears": 4775,
      "Ġruns": 4776,
      "Ġcooking": 4777,
      "ĠBecause": 4778,
      "Ġfought": 4779,
      "Ġbend": 4780,
      "Ġgrace": 4781,
      "Ġeverywhere": 4782,
      "Ġinstr": 4783,
      "Ġgiant": 4784,
      "host": 4785,
      "thew": 4786,
      "Ġsilence": 4787,
      "Ġwalls": 4788,
      "Ġcondition": 4789,
      "Ġhuge": 4790,
      "Ġpakistan": 4791,
      "Ġprepared": 4792,
      "Ġdescribed": 4793,
      "Ġoffered": 4794,
      "hl": 4795,
      "Ġpsy": 4796,
      "Ġgy": 4797,
      "Ġhug": 4798,
      "Ġjung": 4799,
      "Ġsection": 4800,
      "Ġ183": 4801,
      "Ġmetal": 4802,
      "Ġconfeder": 4803,
      "Ġproduction": 4804,
      "Ġstatement": 4805,
      "Ġpropos": 4806,
      "Ġperformance": 4807,
      "hib": 4808,
      "uf": 4809,
      "Ġtha": 4810,
      "Ġwitch": 4811,
      "Ġbac": 4812,
      "ilities": 4813,
      "Ġsake": 4814,
      "asty": 4815,
      "Ġlets": 4816,
      "Ġcarp": 4817,
      "Ġcromer": 4818,
      "Ġmagic": 4819,
      "Ġicecre": 4820,
      "Ġforgotten": 4821,
      "Ġautom": 4822,
      "Ġconnect": 4823,
      "Ġindependent": 4824,
      "Ġfrightened": 4825,
      "ease": 4826,
      "oid": 4827,
      "reg": 4828,
      "Ġmia": 4829,
      "Ġinn": 4830,
      "aches": 4831,
      "Ġkat": 4832,
      "Ġwilling": 4833,
      "Ġprefer": 4834,
      "Ġwentworth": 4835,
      "Ġpapers": 4836,
      "inois": 4837,
      "Ġdum": 4838,
      "Ġwhee": 4839,
      "using": 4840,
      "Ġconver": 4841,
      "ague": 4842,
      "Ġflight": 4843,
      "Ġprevious": 4844,
      "Ġ1991": 4845,
      "Ġmagn": 4846,
      "ipper": 4847,
      "Ġmedical": 4848,
      "Ġordered": 4849,
      "Ġnominated": 4850,
      "Ġdetermined": 4851,
      "known": 4852,
      "back": 4853,
      "fish": 4854,
      "Ġwil": 4855,
      "Ġwagon": 4856,
      "owed": 4857,
      "Ġboots": 4858,
      "Ġswed": 4859,
      "Ġcontrib": 4860,
      "Ġtreas": 4861,
      "Ġillinois": 4862,
      "Ġfrequ": 4863,
      "Ġtask": 4864,
      "Ġopposite": 4865,
      "tin": 4866,
      "Ġly": 4867,
      "Ġstom": 4868,
      "Ġarth": 4869,
      "Ġfoc": 4870,
      "Ġopin": 4871,
      "ograph": 4872,
      "Ġslightly": 4873,
      "Ġvirginia": 4874,
      "Ġcitiz": 4875,
      "gain": 4876,
      "viet": 4877,
      "Ġmig": 4878,
      "Ġgreek": 4879,
      "lled": 4880,
      "Ġlamb": 4881,
      "agu": 4882,
      "Ġdisease": 4883,
      "Ġorganization": 4884,
      "Ġhammer": 4885,
      "Ġconstitution": 4886,
      "ux": 4887,
      "Ġcot": 4888,
      "Ġcam": 4889,
      "Ġdru": 4890,
      "Ġhast": 4891,
      "Ġreasons": 4892,
      "Ġforced": 4893,
      "ims": 4894,
      "Ġshh": 4895,
      "Ġprec": 4896,
      "Ġwarri": 4897,
      "Ġ1988": 4898,
      "Ġfully": 4899,
      "Ġbradley": 4900,
      "Ġtribes": 4901,
      "Ġdistributed": 4902,
      "gi": 4903,
      "lor": 4904,
      "Ġcel": 4905,
      "Ġfurn": 4906,
      "inger": 4907,
      "ulated": 4908,
      "ĠAs": 4909,
      "Ġbaba": 4910,
      "Ġ1987": 4911,
      "Ġ40": 4912,
      "Ġcookies": 4913,
      "Ġorders": 4914,
      "Ġcharlotte": 4915,
      "Ġelectric": 4916,
      "Ġjourney": 4917,
      "Ġoklah": 4918,
      "Ġopportunity": 4919,
      "Ġgimme": 4920,
      "mund": 4921,
      "tilda": 4922,
      "Ġsink": 4923,
      "Ġoak": 4924,
      "Ġpip": 4925,
      "Ġrib": 4926,
      "cho": 4927,
      "Ġbricks": 4928,
      "Ġproced": 4929,
      "Ġgrant": 4930,
      "Ġobserved": 4931,
      "Ġrisk": 4932,
      "Ġpac": 4933,
      "Ġlid": 4934,
      "Ġnah": 4935,
      "Ġinha": 4936,
      "Ġrice": 4937,
      "Ġstir": 4938,
      "Ġjun": 4939,
      "oles": 4940,
      "Ġsomehow": 4941,
      "berg": 4942,
      "Ġamend": 4943,
      "Ġsurely": 4944,
      "Ġstandard": 4945,
      "Ġhotel": 4946,
      "Ġpoliceman": 4947,
      "Ġmexican": 4948,
      "Ġscreen": 4949,
      "rim": 4950,
      "hett": 4951,
      "Ġbent": 4952,
      "Ġheav": 4953,
      "Ġdozen": 4954,
      "ulty": 4955,
      "Ġpros": 4956,
      "ĠCome": 4957,
      "Ġtrains": 4958,
      "Ġforeign": 4959,
      "Ġcircus": 4960,
      "Ġhills": 4961,
      "Ġrolan": 4962,
      "Ġinfluence": 4963,
      "Ġjumbo": 4964,
      "Ġdocument": 4965,
      "Ġterritory": 4966,
      "Ġfrancis": 4967,
      "dies": 4968,
      "Ġcarriage": 4969,
      "Ġ184": 4970,
      "Ġempire": 4971,
      "Ġmessage": 4972,
      "Ġauntie": 4973,
      "Ġmirror": 4974,
      "Ġassemb": 4975,
      "Ġlibrary": 4976,
      "Ġoklahoma": 4977,
      "rison": 4978,
      "rey": 4979,
      "Ġdom": 4980,
      "Ġdeck": 4981,
      "Ġworst": 4982,
      "Ġcommer": 4983,
      "Ġpengu": 4984,
      "Ġspecific": 4985,
      "Ġhyd": 4986,
      "Ġaustralian": 4987,
      "Ġicecream": 4988,
      "ĠQ": 4989,
      "urb": 4990,
      "Ġmere": 4991,
      "Ġlil": 4992,
      "Ġsax": 4993,
      "Ġstranger": 4994,
      "Ġkeeps": 4995,
      "Ġuseful": 4996,
      "Ġburst": 4997,
      "Ġlaws": 4998,
      "Ġstudents": 4999,
      "Ġlieuten": 5000,
      "Ġdegree": 5001,
      "Ġbones": 5002,
      "Ġbishop": 5003,
      "itar": 5004,
      "Ġthro": 5005,
      "Ġee": 5006,
      "see": 5007,
      "Ġrank": 5008,
      "kend": 5009,
      "Ġrod": 5010,
      "Ġacting": 5011,
      "Ġsmiling": 5012,
      "Ġresour": 5013,
      "Ġmusical": 5014,
      "Ġpattern": 5015,
      "Ġpale": 5016,
      "Ġturk": 5017,
      "Ġmajority": 5018,
      "Ġissues": 5019,
      "Ġarrange": 5020,
      "Ġitems": 5021,
      "Ġfestival": 5022,
      "Ġzealand": 5023,
      "bra": 5024,
      "inter": 5025,
      "Ġnep": 5026,
      "Ġconference": 5027,
      "ĠOoh": 5028,
      "mond": 5029,
      "place": 5030,
      "Ġcalm": 5031,
      "Ġdesigned": 5032,
      "asa": 5033,
      "urance": 5034,
      "Ġchips": 5035,
      "Ġark": 5036,
      "Ġcla": 5037,
      "Ġbiggest": 5038,
      "Ġreply": 5039,
      "Ġprovide": 5040,
      "Ġvillages": 5041,
      "Ġfault": 5042,
      "Ġreported": 5043,
      "Ġrepresentatives": 5044,
      "ropical": 5045,
      "Ġlucy": 5046,
      "Ġmanagement": 5047,
      "Ġnewspaper": 5048,
      "uly": 5049,
      "Ġtan": 5050,
      "Ġopt": 5051,
      "Ġcred": 5052,
      "Ġcub": 5053,
      "Ġdump": 5054,
      "Ġpump": 5055,
      "Ġbears": 5056,
      "Ġaside": 5057,
      "chief": 5058,
      "Ġsaving": 5059,
      "Ġfoll": 5060,
      "Ġcompound": 5061,
      "ĠOr": 5062,
      "Ġcru": 5063,
      "Ġminor": 5064,
      "Ġhipp": 5065,
      "Ġimposs": 5066,
      "Ġballs": 5067,
      "Ġchairs": 5068,
      "Ġprovided": 5069,
      "Ġcompanies": 5070,
      "Ġresults": 5071,
      "Ġindustry": 5072,
      "Ġjungle": 5073,
      "ned": 5074,
      "Ġnapp": 5075,
      "omed": 5076,
      "Ġkh": 5077,
      "urity": 5078,
      "aps": 5079,
      "Ġclar": 5080,
      "Ġscene": 5081,
      "Ġmatthew": 5082,
      "chair": 5083,
      "Ġbene": 5084,
      "ĠChrist": 5085,
      "Ġsplendid": 5086,
      "bury": 5087,
      "oons": 5088,
      "uous": 5089,
      "ouch": 5090,
      "Ġmate": 5091,
      "Ġrare": 5092,
      "Ġkings": 5093,
      "Ġtrian": 5094,
      "Ġfeatures": 5095,
      "reeks": 5096,
      "Ġprepar": 5097,
      "Ġcris": 5098,
      "Ġserve": 5099,
      "ĠGo": 5100,
      "Ġ1972": 5101,
      "Ġprovin": 5102,
      "Ġgeography": 5103,
      "Ġladder": 5104,
      "Ġadvant": 5105,
      "Ġdirectly": 5106,
      "Ġcandy": 5107,
      "Ġrachel": 5108,
      "iliar": 5109,
      "Ġwished": 5110,
      "Ġdiam": 5111,
      "Ġnations": 5112,
      "Ġchos": 5113,
      "apt": 5114,
      "Ġremind": 5115,
      "Ġrespond": 5116,
      "Ġclimate": 5117,
      "orkshire": 5118,
      "Ġprefecture": 5119,
      "ĠGreater": 5120,
      "li": 5121,
      "nie": 5122,
      "ran": 5123,
      "ses": 5124,
      "Ġug": 5125,
      "Ġsole": 5126,
      "Ġcrown": 5127,
      "Ġcontr": 5128,
      "Ġrecently": 5129,
      "formed": 5130,
      "Ġ1985": 5131,
      "Ġsymp": 5132,
      "Ġ1979": 5133,
      "ological": 5134,
      "Ġpresidential": 5135,
      "Ġsweetie": 5136,
      "Ġbanana": 5137,
      "Ġdutch": 5138,
      "Ġlieutenant": 5139,
      "gers": 5140,
      "Ġfile": 5141,
      "Ġfaces": 5142,
      "Ġpup": 5143,
      "Ġbecoming": 5144,
      "cod": 5145,
      "Ġowned": 5146,
      "Ġ1989": 5147,
      "Ġartic": 5148,
      "Ġvehic": 5149,
      "Ġreceive": 5150,
      "Ġfailure": 5151,
      "Ġinquired": 5152,
      "iraffe": 5153,
      "nic": 5154,
      "Ġcute": 5155,
      "Ġmars": 5156,
      "Ġmike": 5157,
      "ila": 5158,
      "inky": 5159,
      "ishment": 5160,
      "Ġmarilla": 5161,
      "boy": 5162,
      "Ġeaten": 5163,
      "Ġ1982": 5164,
      "Ġstream": 5165,
      "Ġrecognize": 5166,
      "Ġdialect": 5167,
      "father": 5168,
      "iber": 5169,
      "ost": 5170,
      "Ġtheat": 5171,
      "Ġbid": 5172,
      "Ġbible": 5173,
      "Ġmich": 5174,
      "Ġsoap": 5175,
      "Ġsoviet": 5176,
      "rael": 5177,
      "Ġbatala": 5178,
      "Ġrecorded": 5179,
      "Ġburied": 5180,
      "Ġlawyer": 5181,
      "Ġadmir": 5182,
      "Ġcandid": 5183,
      "Ġtravel": 5184,
      "Ġdamage": 5185,
      "Ġearnest": 5186,
      "Ġculture": 5187,
      "iation": 5188,
      "rick": 5189,
      "tub": 5190,
      "Ġtu": 5191,
      "Ġwoo": 5192,
      "Ġtheory": 5193,
      "arm": 5194,
      "Ġhabit": 5195,
      "ential": 5196,
      "Ġboom": 5197,
      "eping": 5198,
      "ĠOn": 5199,
      "Ġcrick": 5200,
      "Ġideas": 5201,
      "Ġaware": 5202,
      "ipping": 5203,
      "year": 5204,
      "Ġfortune": 5205,
      "Ġportug": 5206,
      "Ġsenate": 5207,
      "Ġcrayons": 5208,
      "Ġrapid": 5209,
      "down": 5210,
      "look": 5211,
      "oke": 5212,
      "that": 5213,
      "Ġbare": 5214,
      "Ġding": 5215,
      "pper": 5216,
      "Ġuseta": 5217,
      "Ġpresence": 5218,
      "aws": 5219,
      "Ġsquir": 5220,
      "Ġpowerful": 5221,
      "Ġgarage": 5222,
      "Ġcritic": 5223,
      "Ġproducer": 5224,
      "Ġpillow": 5225,
      "Ġremembered": 5226,
      "24": 5227,
      "Ġbul": 5228,
      "Ġpension": 5229,
      "Ġgiraffe": 5230,
      "Ġnavy": 5231,
      "ooke": 5232,
      "Ġsaus": 5233,
      "osh": 5234,
      "ĠAny": 5235,
      "Ġcrime": 5236,
      "Ġstarts": 5237,
      "Ġbuildings": 5238,
      "Ġpiggy": 5239,
      "Ġreligion": 5240,
      "Ġaint": 5241,
      "Ġegypt": 5242,
      "Ġextend": 5243,
      "Ġlog": 5244,
      "Ġsomethin": 5245,
      "Ġleaf": 5246,
      "Ġmaisy": 5247,
      "Ġcutting": 5248,
      "Ġsentence": 5249,
      "Ġmerc": 5250,
      "Ġproposed": 5251,
      "Ġhannah": 5252,
      "Ġencour": 5253,
      "Ġentirely": 5254,
      "Ġchosen": 5255,
      "Ġts": 5256,
      "Ġbark": 5257,
      "Ġles": 5258,
      "Ġjul": 5259,
      "Ġsequ": 5260,
      "cend": 5261,
      "ilies": 5262,
      "Ġcock": 5263,
      "Ġpron": 5264,
      "Ġcruel": 5265,
      "ĠGod": 5266,
      "Ġstaying": 5267,
      "Ġdecide": 5268,
      "Ġsumm": 5269,
      "Ġbombas": 5270,
      "Ġbeauty": 5271,
      "Ġlatin": 5272,
      "Ġdebut": 5273,
      "Ġintroduced": 5274,
      "Ġconversation": 5275,
      "western": 5276,
      "Ġghost": 5277,
      "Ġstup": 5278,
      "Ġmeal": 5279,
      "aging": 5280,
      "Ġclay": 5281,
      "gged": 5282,
      "Ġshowing": 5283,
      "Ġcolour": 5284,
      "Ġemper": 5285,
      "Ġordinary": 5286,
      "Ġenjoyed": 5287,
      "Ġseventy": 5288,
      "Ġscientists": 5289,
      "50": 5290,
      "book": 5291,
      "ship": 5292,
      "Ġiv": 5293,
      "Ġbounc": 5294,
      "Ġdust": 5295,
      "Ġtoile": 5296,
      "Ġec": 5297,
      "aling": 5298,
      "ental": 5299,
      "Ġalto": 5300,
      "rawn": 5301,
      "ĠAll": 5302,
      "Ġpolish": 5303,
      "Ġillust": 5304,
      "Ġ1950": 5305,
      "Ġiran": 5306,
      "Ġrolling": 5307,
      "Ġpositive": 5308,
      "engers": 5309,
      "Ġstrike": 5310,
      "Ġescap": 5311,
      "Ġsource": 5312,
      "bour": 5313,
      "rr": 5314,
      "Ġtun": 5315,
      "Ġign": 5316,
      "Ġsang": 5317,
      "Ġbum": 5318,
      "Ġpy": 5319,
      "otion": 5320,
      "Ġkar": 5321,
      "Ġfriday": 5322,
      "Ġplanning": 5323,
      "Ġbrid": 5324,
      "Ġagnes": 5325,
      "rences": 5326,
      "Ġcounties": 5327,
      "ĠNorth": 5328,
      "izes": 5329,
      "Ġedward": 5330,
      "Ġweekend": 5331,
      "Ġfoods": 5332,
      "Ġdivided": 5333,
      "Ġmunicipal": 5334,
      "Ġurs": 5335,
      "rate": 5336,
      "ridge": 5337,
      "tie": 5338,
      "Ġtiss": 5339,
      "Ġodd": 5340,
      "Ġfame": 5341,
      "Ġfanning": 5342,
      "Ġwaste": 5343,
      "keys": 5344,
      "Ġboston": 5345,
      "rif": 5346,
      "Ġpean": 5347,
      "Ġchilds": 5348,
      "Ġhighly": 5349,
      "Ġcompanion": 5350,
      "Ġducks": 5351,
      "Ġhonour": 5352,
      "Ġlearning": 5353,
      "Ġrepresented": 5354,
      "Ġjournal": 5355,
      "Ġramsey": 5356,
      "Ġoblig": 5357,
      "Ġmcdonalds": 5358,
      "writer": 5359,
      "Ġpages": 5360,
      "Ġbee": 5361,
      "Ġwhoo": 5362,
      "Ġknees": 5363,
      "Ġappointed": 5364,
      "Ġlaura": 5365,
      "Ġmatters": 5366,
      "Ġskill": 5367,
      "Ġinterrupt": 5368,
      "Ġcorpor": 5369,
      "Ġracing": 5370,
      "Ġmixed": 5371,
      "Ġfolk": 5372,
      "Ġmemory": 5373,
      "hetti": 5374,
      "Ġimpossible": 5375,
      "Ġbelly": 5376,
      "Ġsav": 5377,
      "rier": 5378,
      "Ġjoint": 5379,
      "Ġbuck": 5380,
      "Ġahhah": 5381,
      "Ġglo": 5382,
      "Ġparis": 5383,
      "Ġtransl": 5384,
      "Ġstudies": 5385,
      "Ġquietly": 5386,
      "Ġexpression": 5387,
      "Ġrussia": 5388,
      "Ġnarrow": 5389,
      "Ġcircumstances": 5390,
      "born": 5391,
      "gt": 5392,
      "rant": 5393,
      "lling": 5394,
      "ette": 5395,
      "opher": 5396,
      "Ġdelicious": 5397,
      "Ġmedia": 5398,
      "Ġdaily": 5399,
      "Ġstarring": 5400,
      "fortun": 5401,
      "Ġprotest": 5402,
      "Ġequal": 5403,
      "Ġfolks": 5404,
      "Ġpotatoes": 5405,
      "Ġexcitement": 5406,
      "Ġvalley": 5407,
      "Ġmichigan": 5408,
      "bet": 5409,
      "pri": 5410,
      "Ġtony": 5411,
      "Ġthin": 5412,
      "Ġupside": 5413,
      "Ġbrace": 5414,
      "Ġthrown": 5415,
      "action": 5416,
      "Ġsquee": 5417,
      "Ġsweetheart": 5418,
      "Ġlimited": 5419,
      "Ġaccepted": 5420,
      "Ġborder": 5421,
      "Ġreferred": 5422,
      "Ġgabriella": 5423,
      "Ġarthur": 5424,
      "of": 5425,
      "Ġdiss": 5426,
      "itage": 5427,
      "oto": 5428,
      "Ġplus": 5429,
      "Ġseek": 5430,
      "Ġworkers": 5431,
      "Ġcalls": 5432,
      "Ġharris": 5433,
      "Ġmississ": 5434,
      "Ġdrinking": 5435,
      "Ġclimbing": 5436,
      "Ġcrocod": 5437,
      "Ġreligious": 5438,
      "Ġmaterial": 5439,
      "Ġcatholic": 5440,
      "ok": 5441,
      "Ġwag": 5442,
      "Ġsher": 5443,
      "Ġcash": 5444,
      "Ġlick": 5445,
      "Ġren": 5446,
      "Ġnoisy": 5447,
      "Ġmarry": 5448,
      "Ġcourage": 5449,
      "ibility": 5450,
      "Ġpossess": 5451,
      "Ġcommunic": 5452,
      "Ġsilent": 5453,
      "Ġfreed": 5454,
      "Ġoccurred": 5455,
      "Ġapparently": 5456,
      "Ġarrondissement": 5457,
      "Ġmississipp": 5458,
      "Ġdip": 5459,
      "Ġfu": 5460,
      "isa": 5461,
      "Ġrejo": 5462,
      "Ġshock": 5463,
      "Ġtraff": 5464,
      "Ġsuffe": 5465,
      "Ġwhenever": 5466,
      "Ġclown": 5467,
      "Ġadop": 5468,
      "Ġactual": 5469,
      "Ġfalls": 5470,
      "Ġhanging": 5471,
      "Ġcaptured": 5472,
      "Ġcooper": 5473,
      "rs": 5474,
      "Ġaile": 5475,
      "Ġwig": 5476,
      "Ġpushed": 5477,
      "Ġlam": 5478,
      "Ġisrael": 5479,
      "Ġshel": 5480,
      "Ġsale": 5481,
      "Ġplot": 5482,
      "Ġvent": 5483,
      "Ġwouldnt": 5484,
      "ounty": 5485,
      "Ġoldest": 5486,
      "Ġ1976": 5487,
      "ĠFor": 5488,
      "Ġdistricts": 5489,
      "Ġdavis": 5490,
      "Ġevil": 5491,
      "Ġchampionships": 5492,
      "Ġtoilet": 5493,
      "13": 5494,
      "Ġos": 5495,
      "rees": 5496,
      "hand": 5497,
      "Ġdwell": 5498,
      "onse": 5499,
      "Ġry": 5500,
      "Ġdoct": 5501,
      "Ġconcent": 5502,
      "Ġbrook": 5503,
      "Ġpatient": 5504,
      "Ġpaying": 5505,
      "Ġstuffed": 5506,
      "Ġfifth": 5507,
      "Ġproperty": 5508,
      "Ġbroadcast": 5509,
      "Ġcycl": 5510,
      "Ġscratch": 5511,
      "Ġdestroyed": 5512,
      "Ġcrazy": 5513,
      "Ġstomach": 5514,
      "14": 5515,
      "Ġcraft": 5516,
      "Ġjr": 5517,
      "Ġjess": 5518,
      "tering": 5519,
      "Ġvice": 5520,
      "ifle": 5521,
      "Ġarts": 5522,
      "Ġsche": 5523,
      "Ġappl": 5524,
      "Ġthoughts": 5525,
      "Ġchanging": 5526,
      "Ġfamiliar": 5527,
      "Ġpassing": 5528,
      "Ġbiography": 5529,
      "Ġmississippi": 5530,
      "16": 5531,
      "war": 5532,
      "Ġbrain": 5533,
      "Ġdesire": 5534,
      "Ġ1981": 5535,
      "Ġ1984": 5536,
      "Ġ1969": 5537,
      "Ġstudio": 5538,
      "Ġholes": 5539,
      "Ġfailed": 5540,
      "Ġrevolution": 5541,
      "Ġtechnology": 5542,
      "Ġmicrophone": 5543,
      "bel": 5544,
      "hew": 5545,
      "Ġpian": 5546,
      "enced": 5547,
      "ador": 5548,
      "abeth": 5549,
      "Ġbubb": 5550,
      "Ġdisney": 5551,
      "igned": 5552,
      "Ġfriendly": 5553,
      "Ġvoc": 5554,
      "Ġrecording": 5555,
      "Ġjumping": 5556,
      "Ġproduce": 5557,
      "Ġwilliams": 5558,
      "Ġhousing": 5559,
      "hta": 5560,
      "tr": 5561,
      "has": 5562,
      "Ġbone": 5563,
      "Ġyard": 5564,
      "Ġlack": 5565,
      "Ġhed": 5566,
      "Ġsel": 5567,
      "anton": 5568,
      "Ġbra": 5569,
      "ĠCom": 5570,
      "Ġhousehold": 5571,
      "Ġturns": 5572,
      "Ġaccess": 5573,
      "iences": 5574,
      "idae": 5575,
      "ĠAlright": 5576,
      "Ġyu": 5577,
      "Ġisnt": 5578,
      "alph": 5579,
      "Ġrise": 5580,
      "Ġeats": 5581,
      "Ġfinan": 5582,
      "Ġedmund": 5583,
      "Ġengines": 5584,
      "Ġmmm": 5585,
      "Ġleaders": 5586,
      "Ġresponse": 5587,
      "Ġpressure": 5588,
      "Ġburning": 5589,
      "Ġdaniel": 5590,
      "Ġadventure": 5591,
      "Ġshadow": 5592,
      "gues": 5593,
      "hall": 5594,
      "Ġdyn": 5595,
      "Ġgri": 5596,
      "Ġnit": 5597,
      "isl": 5598,
      "isha": 5599,
      "Ġreve": 5600,
      "Ġki": 5601,
      "Ġjason": 5602,
      "Ġdewe": 5603,
      "Ġgrab": 5604,
      "Ġlean": 5605,
      "Ġ36": 5606,
      "Ġfamilies": 5607,
      "Ġsleepy": 5608,
      "Ġ1975": 5609,
      "Ġdefend": 5610,
      "bal": 5611,
      "gal": 5612,
      "llen": 5613,
      "Ġhoo": 5614,
      "Ġstern": 5615,
      "chool": 5616,
      "rol": 5617,
      "Ġalpha": 5618,
      "Ġchuck": 5619,
      "Ġshame": 5620,
      "Ġcrab": 5621,
      "Ġhelps": 5622,
      "Ġbasically": 5623,
      "Ġbarty": 5624,
      "Ġsoldier": 5625,
      "Ġmultip": 5626,
      "Ġnearer": 5627,
      "Ġelder": 5628,
      "Ġscholarship": 5629,
      "sp": 5630,
      "icop": 5631,
      "Ġbeast": 5632,
      "Ġatlant": 5633,
      "ĠWho": 5634,
      "Ġnights": 5635,
      "Ġsymb": 5636,
      "Ġprior": 5637,
      "Ġprograms": 5638,
      "Ġadministration": 5639,
      "Ġimprove": 5640,
      "Ġenvironmental": 5641,
      "kia": 5642,
      "Ġtied": 5643,
      "Ġbilly": 5644,
      "Ġmile": 5645,
      "Ġlamp": 5646,
      "Ġinvent": 5647,
      "Ġugh": 5648,
      "Ġrug": 5649,
      "Ġspon": 5650,
      "Ġcloud": 5651,
      "Ġroger": 5652,
      "Ġrobb": 5653,
      "Ġours": 5654,
      "Ġremoved": 5655,
      "Ġhelicop": 5656,
      "Ġapples": 5657,
      "Ġrivers": 5658,
      "Ġ1964": 5659,
      "Ġgalley": 5660,
      "Ġporter": 5661,
      "Ġtarget": 5662,
      "Ġdewey": 5663,
      "ige": 5664,
      "ners": 5665,
      "Ġsock": 5666,
      "ĠAha": 5667,
      "Ġholly": 5668,
      "bey": 5669,
      "ocks": 5670,
      "Ġfeels": 5671,
      "Ġ60": 5672,
      "Ġconfir": 5673,
      "Ġjumped": 5674,
      "Ġwedding": 5675,
      "Ġexercise": 5676,
      "Ġarkansas": 5677,
      "oot": 5678,
      "Ġaim": 5679,
      "Ġwore": 5680,
      "Ġwise": 5681,
      "Ġdea": 5682,
      "athan": 5683,
      "quar": 5684,
      "Ġcomed": 5685,
      "acks": 5686,
      "Ġmarriage": 5687,
      "Ġswitch": 5688,
      "Ġsubm": 5689,
      "Ġcollection": 5690,
      "Ġextent": 5691,
      "Ġcloth": 5692,
      "Ġfields": 5693,
      "Ġeffects": 5694,
      "Ġaffairs": 5695,
      "stein": 5696,
      "Ġpowder": 5697,
      "Ġathlet": 5698,
      "Ġstupid": 5699,
      "Ġchildsname": 5700,
      "het": 5701,
      "Ġot": 5702,
      "Ġgained": 5703,
      "Ġhunt": 5704,
      "Ġdod": 5705,
      "Ġwhats": 5706,
      "Ġanal": 5707,
      "Ġcovers": 5708,
      "ĠYorkshire": 5709,
      "Ġscore": 5710,
      "Ġappre": 5711,
      "Ġinstance": 5712,
      "Ġcountryside": 5713,
      "Ġsystems": 5714,
      "Ġopera": 5715,
      "Ġcompetition": 5716,
      "Ġfleet": 5717,
      "Ġmeasure": 5718,
      "Ġalfgar": 5719,
      "Ġopinion": 5720,
      "Ġsuffered": 5721,
      "rot": 5722,
      "Ġwings": 5723,
      "Ġwinning": 5724,
      "Ġdun": 5725,
      "Ġped": 5726,
      "Ġpowers": 5727,
      "lection": 5728,
      "Ġwashed": 5729,
      "sely": 5730,
      "antic": 5731,
      "oln": 5732,
      "Ġunfortun": 5733,
      "Ġintell": 5734,
      "iana": 5735,
      "order": 5736,
      "unnel": 5737,
      "Ġ2023": 5738,
      "Ġtyp": 5739,
      "Ġtraffic": 5740,
      "bble": 5741,
      "dad": 5742,
      "mad": 5743,
      "rative": 5744,
      "Ġdrawn": 5745,
      "stood": 5746,
      "Ġvas": 5747,
      "Ġgrate": 5748,
      "Ġholy": 5749,
      "neath": 5750,
      "Ġgreatly": 5751,
      "Ġbreaking": 5752,
      "Ġcreate": 5753,
      "Ġgenus": 5754,
      "Ġbuilder": 5755,
      "Ġ90": 5756,
      "Ġcauses": 5757,
      "Ġcontinue": 5758,
      "Ġincome": 5759,
      "Ġrichards": 5760,
      "Ġentertainment": 5761,
      "Ġthroat": 5762,
      "Ġbeneath": 5763,
      "Ġemperor": 5764,
      "Ġalden": 5765,
      "Ġfence": 5766,
      "Ġka": 5767,
      "Ġseasons": 5768,
      "Ġohio": 5769,
      "Ġmos": 5770,
      "Ġmole": 5771,
      "Ġalas": 5772,
      "Ġshook": 5773,
      "Ġbold": 5774,
      "ĠSe": 5775,
      "Ġinstant": 5776,
      "awa": 5777,
      "Ġcurious": 5778,
      "Ġpresented": 5779,
      "Ġinvestig": 5780,
      "ĠWhich": 5781,
      "ean": 5782,
      "Ġfed": 5783,
      "Ġpushing": 5784,
      "enger": 5785,
      "lyn": 5786,
      "Ġsevere": 5787,
      "Ġmonday": 5788,
      "Ġspag": 5789,
      "emic": 5790,
      "Ġmayor": 5791,
      "Ġstring": 5792,
      "Ġpassengers": 5793,
      "Ġ1973": 5794,
      "Ġeventually": 5795,
      "incoln": 5796,
      "Ġcontains": 5797,
      "Ġresponsible": 5798,
      "ufact": 5799,
      "Ġaer": 5800,
      "Ġaid": 5801,
      "ouri": 5802,
      "Ġgain": 5803,
      "oray": 5804,
      "Ġhut": 5805,
      "Ġhavent": 5806,
      "ache": 5807,
      "Ġkir": 5808,
      "Ġlies": 5809,
      "Ġliqu": 5810,
      "road": 5811,
      "Ġmanufact": 5812,
      "Ġgrey": 5813,
      "Ġcommander": 5814,
      "Ġunderneath": 5815,
      "Ġcontest": 5816,
      "char": 5817,
      "Ġ1968": 5818,
      "Ġhearts": 5819,
      "Ġpotty": 5820,
      "Ġmarked": 5821,
      "Ġstarred": 5822,
      "syl": 5823,
      "athered": 5824,
      "Ġbuttons": 5825,
      "Ġaltogether": 5826,
      "Ġscheme": 5827,
      "30": 5828,
      "ule": 5829,
      "Ġcord": 5830,
      "enc": 5831,
      "Ġfork": 5832,
      "ading": 5833,
      "Ġnokia": 5834,
      "Ġalice": 5835,
      "Ġchop": 5836,
      "Ġcode": 5837,
      "ishing": 5838,
      "Ġapplic": 5839,
      "Ġrecom": 5840,
      "Ġsorts": 5841,
      "Ġhurried": 5842,
      "Ġbadly": 5843,
      "Ġbasis": 5844,
      "Ġpulling": 5845,
      "Ġraining": 5846,
      "Ġshark": 5847,
      "Ġjeff": 5848,
      "burgh": 5849,
      "Ġbanks": 5850,
      "Ġsmooth": 5851,
      "Ġsplit": 5852,
      "Ġexecutive": 5853,
      "Ġtidy": 5854,
      "Ġpacific": 5855,
      "Ġdiamond": 5856,
      "iy": 5857,
      "Ġdraft": 5858,
      "Ġlola": 5859,
      "Ġrot": 5860,
      "Ġkenn": 5861,
      "Ġmanip": 5862,
      "Ġpond": 5863,
      "Ġsmiled": 5864,
      "ĠCounty": 5865,
      "Ġminnes": 5866,
      "Ġjohnson": 5867,
      "Ġchampion": 5868,
      "Ġpilot": 5869,
      "Ġjerry": 5870,
      "Ġcarolina": 5871,
      "Ġrelationship": 5872,
      "Ġminnesota": 5873,
      "ients": 5874,
      "Ġralph": 5875,
      "Ġboot": 5876,
      "ĠMy": 5877,
      "ĠSh": 5878,
      "Ġcrim": 5879,
      "Ġ179": 5880,
      "Ġburton": 5881,
      "Ġtransfer": 5882,
      "Ġinspect": 5883,
      "Ġprotection": 5884,
      "Ġadams": 5885,
      "Ġincreased": 5886,
      "Ġcompeted": 5887,
      "Ġsnakes": 5888,
      "Ġeconomic": 5889,
      "Ġsecurity": 5890,
      "Ġcrayon": 5891,
      "Ġcheeky": 5892,
      "corn": 5893,
      "til": 5894,
      "yl": 5895,
      "Ġtent": 5896,
      "Ġpure": 5897,
      "Ġbeans": 5898,
      "Ġconce": 5899,
      "Ġdism": 5900,
      "Ġdishes": 5901,
      "Ġpicking": 5902,
      "Ġ1974": 5903,
      "Ġpoorly": 5904,
      "Ġ1930": 5905,
      "Ġbritain": 5906,
      "Ġvictory": 5907,
      "Ġneighbor": 5908,
      "while": 5909,
      "'.": 5910,
      "bled": 5911,
      "Ġsin": 5912,
      "Ġfaster": 5913,
      "Ġloose": 5914,
      "Ġtoe": 5915,
      "Ġnhl": 5916,
      "atured": 5917,
      "Ġjing": 5918,
      "Ġchamber": 5919,
      "Ġkeys": 5920,
      "Ġcommission": 5921,
      "Ġharder": 5922,
      "Ġphr": 5923,
      "Ġrecent": 5924,
      "anche": 5925,
      "Ġconserv": 5926,
      "Ġjacket": 5927,
      "Ġaileen": 5928,
      "gate": 5929,
      "erable": 5930,
      "Ġdish": 5931,
      "Ġyah": 5932,
      "Ġlink": 5933,
      "Ġinno": 5934,
      "sters": 5935,
      "Ġrising": 5936,
      "Ġmechan": 5937,
      "Ġnotes": 5938,
      "hang": 5939,
      "Ġjustice": 5940,
      "Ġwillie": 5941,
      "Ġgoodbye": 5942,
      "Ġagent": 5943,
      "ĠWill": 5944,
      "ĠAn": 5945,
      "Ġshoulders": 5946,
      "Ġguid": 5947,
      "izabeth": 5948,
      "inton": 5949,
      "Ġdesper": 5950,
      "Ġcathed": 5951,
      "Ġtreated": 5952,
      "Ġ1977": 5953,
      "Ġhorrible": 5954,
      "Ġmcgl": 5955,
      "Ġlabor": 5956,
      "Ġdebate": 5957,
      "Ġintended": 5958,
      "Ġmcglory": 5959,
      "bage": 5960,
      "Ġbib": 5961,
      "Ġcreeks": 5962,
      "Ġfant": 5963,
      "Ġyoull": 5964,
      "Ġnane": 5965,
      "ases": 5966,
      "Ġsauce": 5967,
      "Ġconsequ": 5968,
      "Ġgrape": 5969,
      "Ġtender": 5970,
      "Ġflu": 5971,
      "Ġsites": 5972,
      "Ġkindly": 5973,
      "Ġhurts": 5974,
      "Ġhearing": 5975,
      "nesday": 5976,
      "Ġdifficulty": 5977,
      "Ġexciting": 5978,
      "Ġinhabit": 5979,
      "Ġresources": 5980,
      "Ġprovinces": 5981,
      "mark": 5982,
      "Ġfart": 5983,
      "Ġgathered": 5984,
      "Ġstanton": 5985,
      "ented": 5986,
      "umpt": 5987,
      "Ġserge": 5988,
      "Ġdistinct": 5989,
      "Ġpersons": 5990,
      "ĠLet": 5991,
      "Ġlads": 5992,
      "Ġorganis": 5993,
      "Ġrequest": 5994,
      "Ġwaters": 5995,
      "Ġeconomy": 5996,
      "Ġwrestling": 5997,
      "Ġscotland": 5998,
      "Ġfinancial": 5999,
      "Ġnanew": 6000,
      "21": 6001,
      "five": 6002,
      "min": 6003,
      "met": 6004,
      "ois": 6005,
      "vid": 6006,
      "Ġaz": 6007,
      "Ġken": 6008,
      "Ġanna": 6009,
      "Ġasia": 6010,
      "Ġtries": 6011,
      "Ġbranc": 6012,
      "Ġanyhow": 6013,
      "Ġuns": 6014,
      "Ġbackground": 6015,
      "Ġscrap": 6016,
      "ĠSorry": 6017,
      "Ġhooray": 6018,
      "ailed": 6019,
      "Ġglor": 6020,
      "Ġsteel": 6021,
      "Ġengaged": 6022,
      "Ġcoloring": 6023,
      "Ġamongst": 6024,
      "Ġpigs": 6025,
      "Ġapproach": 6026,
      "Ġseventeen": 6027,
      "Ġhydro": 6028,
      "ture": 6029,
      "rels": 6030,
      "Ġcows": 6031,
      "Ġmall": 6032,
      "Ġyup": 6033,
      "Ġisab": 6034,
      "Ġrag": 6035,
      "Ġgoals": 6036,
      "iece": 6037,
      "cture": 6038,
      "Ġplastic": 6039,
      "olph": 6040,
      "Ġsup": 6041,
      "Ġconqu": 6042,
      "Ġunit": 6043,
      "Ġchest": 6044,
      "Ġends": 6045,
      "Ġsetting": 6046,
      "Ġfeelings": 6047,
      "Ġwinds": 6048,
      "Ġfrost": 6049,
      "Ġinvited": 6050,
      "Ġtigger": 6051,
      "Ġrubb": 6052,
      "adesh": 6053,
      "Ġcherry": 6054,
      "Ġcuddle": 6055,
      "Ġsisters": 6056,
      "Ġspaghetti": 6057,
      "bes": 6058,
      "sing": 6059,
      "Ġtropical": 6060,
      "Ġwire": 6061,
      "Ġfier": 6062,
      "Ġgather": 6063,
      "icy": 6064,
      "Ġaltern": 6065,
      "Ġgray": 6066,
      "Ġscored": 6067,
      "Ġhandle": 6068,
      "ĠBrit": 6069,
      "Ġswall": 6070,
      "Ġchart": 6071,
      "Ġ1978": 6072,
      "Ġdecor": 6073,
      "Ġillness": 6074,
      "Ġbasic": 6075,
      "Ġowl": 6076,
      "Ġmadam": 6077,
      "Ġsuffer": 6078,
      "Ġbalance": 6079,
      "Ġaffair": 6080,
      "Ġefforts": 6081,
      "Ġadvantage": 6082,
      "ev": 6083,
      "Ġire": 6084,
      "Ġoy": 6085,
      "Ġruff": 6086,
      "Ġrear": 6087,
      "Ġrefe": 6088,
      "gend": 6089,
      "Ġpeep": 6090,
      "Ġjolly": 6091,
      "Ġkelly": 6092,
      "achus": 6093,
      "Ġsteady": 6094,
      "Ġreliance": 6095,
      "Ġ1966": 6096,
      "Ġlegal": 6097,
      "Ġmerged": 6098,
      "Ġphilipp": 6099,
      "Ġconstant": 6100,
      "Ġfortun": 6101,
      "Ġconditions": 6102,
      "Ġprimary": 6103,
      "ault": 6104,
      "sed": 6105,
      "Ġavenue": 6106,
      "Ġbol": 6107,
      "Ġcave": 6108,
      "Ġcwww": 6109,
      "Ġpity": 6110,
      "Ġere": 6111,
      "Ġrhy": 6112,
      "Ġford": 6113,
      "Ġupset": 6114,
      "Ġworn": 6115,
      "Ġbecomes": 6116,
      "Ġscript": 6117,
      "ĠSat": 6118,
      "Ġprecious": 6119,
      "ĠEng": 6120,
      "Ġmissouri": 6121,
      "Ġnicely": 6122,
      "Ġwaited": 6123,
      "Ġdesert": 6124,
      "Ġmothers": 6125,
      "phia": 6126,
      "Ġdeput": 6127,
      "ussy": 6128,
      "Ġphilos": 6129,
      "Ġutter": 6130,
      "Ġwhale": 6131,
      "Ġregarded": 6132,
      "Ġeagerly": 6133,
      "Ġpennsyl": 6134,
      "Ġpicnic": 6135,
      "Ġcricket": 6136,
      "Ġpennsylvan": 6137,
      "Ġ0": 6138,
      "haw": 6139,
      "Ġcough": 6140,
      "Ġfuck": 6141,
      "Ġpha": 6142,
      "Ġpope": 6143,
      "Ġbeep": 6144,
      "iring": 6145,
      "Ġjelly": 6146,
      "Ġdeer": 6147,
      "ppy": 6148,
      "Ġbos": 6149,
      "Ġeddie": 6150,
      "Ġfunction": 6151,
      "Ġappears": 6152,
      "Ġcommonly": 6153,
      "Ġbelongs": 6154,
      "Ġarrang": 6155,
      "nam": 6156,
      "Ġau": 6157,
      "Ġaah": 6158,
      "Ġcf": 6159,
      "Ġcateg": 6160,
      "Ġmwww": 6161,
      "Ġni": 6162,
      "oman": 6163,
      "Ġstove": 6164,
      "eable": 6165,
      "ilton": 6166,
      "Ġworried": 6167,
      "Ġunf": 6168,
      "Ġ...": 6169,
      "Ġgodd": 6170,
      "Ġadvice": 6171,
      "Ġlabour": 6172,
      "Ġlevels": 6173,
      "Ġcaroline": 6174,
      "Ġrailway": 6175,
      "Ġtemperature": 6176,
      "Ġwicked": 6177,
      "Ġtissue": 6178,
      "Ġcrocodile": 6179,
      "Ġpennsylvania": 6180,
      "lam": 6181,
      "wan": 6182,
      "wyn": 6183,
      "Ġcater": 6184,
      "Ġyards": 6185,
      "att": 6186,
      "ching": 6187,
      "outs": 6188,
      "ello": 6189,
      "Ġsla": 6190,
      "Ġresist": 6191,
      "Ġpresents": 6192,
      "Ġrelative": 6193,
      "Ġlessons": 6194,
      "Ġshops": 6195,
      "Ġdescription": 6196,
      "Ġamendment": 6197,
      "Ġfollows": 6198,
      "Ġwinner": 6199,
      "ora": 6200,
      "iting": 6201,
      "iture": 6202,
      "Ġnod": 6203,
      "Ġspare": 6204,
      "aph": 6205,
      "inda": 6206,
      "Ġshapes": 6207,
      "Ġunderstood": 6208,
      "Ġbeds": 6209,
      "Ġrooms": 6210,
      "ception": 6211,
      "Ġpirates": 6212,
      "belt": 6213,
      "ox": 6214,
      "Ġaston": 6215,
      "Ġfits": 6216,
      "arian": 6217,
      "Ġtruly": 6218,
      "Ġclou": 6219,
      "Ġnumer": 6220,
      "Ġpointed": 6221,
      "Ġgrandfather": 6222,
      "Ġdeliver": 6223,
      "ĠLab": 6224,
      "Ġconfl": 6225,
      "Ġtouched": 6226,
      "Ġmurder": 6227,
      "Ġglasses": 6228,
      "Ġdelighted": 6229,
      "Ġdestroy": 6230,
      "Ġdreadful": 6231,
      "Ġachieve": 6232,
      "Ġcathedral": 6233,
      "heas": 6234,
      "inem": 6235,
      "Ġpit": 6236,
      "Ġgay": 6237,
      "Ġnord": 6238,
      "Ġray": 6239,
      "Ġnoble": 6240,
      "Ġdele": 6241,
      "Ġhers": 6242,
      "Ġputs": 6243,
      "Ġunlike": 6244,
      "ept": 6245,
      "Ġflood": 6246,
      "Ġcontact": 6247,
      "Ġ35": 6248,
      "Ġzero": 6249,
      "Ġamericans": 6250,
      "Ġentr": 6251,
      "Ġ1971": 6252,
      "Ġawake": 6253,
      "Ġlegisl": 6254,
      "Ġwondering": 6255,
      "Ġsticks": 6256,
      "Ġturkey": 6257,
      "Ġexamples": 6258,
      "Ġarchite": 6259,
      "Ġcasson": 6260,
      "Ġwinnie": 6261,
      "Ġcups": 6262,
      "cest": 6263,
      "mes": 6264,
      "Ġtools": 6265,
      "Ġweve": 6266,
      "Ġgoat": 6267,
      "Ġdonkey": 6268,
      "Ġvain": 6269,
      "istry": 6270,
      "istics": 6271,
      "Ġbron": 6272,
      "Ġpoll": 6273,
      "Ġpartly": 6274,
      "Ġmomma": 6275,
      "boat": 6276,
      "Ġwondered": 6277,
      "Ġ1983": 6278,
      "Ġinterp": 6279,
      "Ġinterview": 6280,
      "Ġcompleted": 6281,
      "Ġvolume": 6282,
      "Ġteachers": 6283,
      "Ġspending": 6284,
      "Ġattended": 6285,
      "Ġmuttered": 6286,
      "Ġtraditional": 6287,
      "ĠSaturday": 6288,
      "eks": 6289,
      "Ġbah": 6290,
      "etts": 6291,
      "utions": 6292,
      "stone": 6293,
      "Ġstool": 6294,
      "elled": 6295,
      "Ġlegend": 6296,
      "ĠSee": 6297,
      "Ġmighty": 6298,
      "Ġbelt": 6299,
      "Ġ32": 6300,
      "Ġanimated": 6301,
      "Ġvoices": 6302,
      "Ġbelief": 6303,
      "Ġdelay": 6304,
      "Ġcalcul": 6305,
      "Ġregional": 6306,
      "Ġsupported": 6307,
      "Ġcomplex": 6308,
      "Ġrepresentative": 6309,
      "Ġassembly": 6310,
      "Ġturkish": 6311,
      "Ġbubbles": 6312,
      "dh": 6313,
      "Ġsofa": 6314,
      "ulous": 6315,
      "agn": 6316,
      "Ġpear": 6317,
      "Ġparties": 6318,
      "Ġbund": 6319,
      "Ġguitar": 6320,
      "Ġraise": 6321,
      "Ġseats": 6322,
      "Ġsales": 6323,
      "Ġpolicies": 6324,
      "Ġkissed": 6325,
      "Ġsara": 6326,
      "Ġsplash": 6327,
      "Ġcustom": 6328,
      "Ġsatisfied": 6329,
      "Ġfalse": 6330,
      "Ġpenguin": 6331,
      "Ġlilian": 6332,
      "Ġinhabitants": 6333,
      "ĠLabour": 6334,
      "aur": 6335,
      "not": 6336,
      "she": 6337,
      "Ġax": 6338,
      "Ġwww": 6339,
      "Ġdomin": 6340,
      "oned": 6341,
      "Ġyouve": 6342,
      "Ġrome": 6343,
      "acher": 6344,
      "urally": 6345,
      "Ġproved": 6346,
      "ĠTo": 6347,
      "Ġscary": 6348,
      "Ġelizabeth": 6349,
      "Ġslip": 6350,
      "lings": 6351,
      "Ġdrum": 6352,
      "Ġexped": 6353,
      "chant": 6354,
      "Ġfifa": 6355,
      "Ġservants": 6356,
      "uesday": 6357,
      "Ġincident": 6358,
      "american": 6359,
      "Ġrubber": 6360,
      "Ġsenior": 6361,
      "Ġjersey": 6362,
      "Ġcongressional": 6363,
      "Ġaccompan": 6364,
      "Ġireland": 6365,
      "achusetts": 6366,
      "bi": 6367,
      "pot": 6368,
      "wide": 6369,
      "Ġtunnel": 6370,
      "Ġsons": 6371,
      "orpor": 6372,
      "Ġstad": 6373,
      "Ġkil": 6374,
      "Ġlif": 6375,
      "ribe": 6376,
      "Ġquant": 6377,
      "Ġcreature": 6378,
      "Ġmethod": 6379,
      "Ġ1957": 6380,
      "Ġroads": 6381,
      "ursday": 6382,
      "Ġmurm": 6383,
      "Ġsusan": 6384,
      "Ġmassachusetts": 6385,
      "Ġhistorical": 6386,
      "Ġmemor": 6387,
      "Ġmissionary": 6388,
      "ĠUn": 6389,
      "Ġcitizens": 6390,
      "Ġtheatre": 6391,
      "Ġsponge": 6392,
      "Ġbranches": 6393,
      "Ġgoddess": 6394,
      "',": 6395,
      "racy": 6396,
      "Ġgift": 6397,
      "ito": 6398,
      "Ġthorough": 6399,
      "Ġjur": 6400,
      "Ġshed": 6401,
      "estic": 6402,
      "Ġspect": 6403,
      "Ġprove": 6404,
      "Ġcovid": 6405,
      "Ġjoey": 6406,
      "Ġdesk": 6407,
      "Ġattacks": 6408,
      "Ġdora": 6409,
      "Ġstroke": 6410,
      "Ġevidently": 6411,
      "Ġukraine": 6412,
      "Ġobliged": 6413,
      "Ġmanipur": 6414,
      "bor": 6415,
      "now": 6416,
      "wick": 6417,
      "Ġwip": 6418,
      "Ġcakes": 6419,
      "Ġded": 6420,
      "Ġgal": 6421,
      "any": 6422,
      "Ġlincoln": 6423,
      "Ġandy": 6424,
      "Ġrifle": 6425,
      "Ġanth": 6426,
      "Ġgods": 6427,
      "Ġasha": 6428,
      "Ġsheet": 6429,
      "umed": 6430,
      "Ġbodies": 6431,
      "Ġconclud": 6432,
      "Ġunus": 6433,
      "Ġpole": 6434,
      "ĠAmer": 6435,
      "Ġbug": 6436,
      "manrat": 6437,
      "Ġslipp": 6438,
      "Ġmonkeys": 6439,
      "Ġ180": 6440,
      "Ġowner": 6441,
      "Ġgrandad": 6442,
      "Ġ1967": 6443,
      "Ġ1958": 6444,
      "nerinter": 6445,
      "Ġequip": 6446,
      "Ġtracks": 6447,
      "Ġchapter": 6448,
      "Ġcredit": 6449,
      "Ġdoctors": 6450,
      "Ġnanewmanrat": 6451,
      "nerinterviews": 6452,
      "Ġnanewmanratnerinterviews": 6453,
      "iar": 6454,
      "Ġbour": 6455,
      "Ġdull": 6456,
      "Ġlane": 6457,
      "Ġnest": 6458,
      "Ġstations": 6459,
      "Ġproceed": 6460,
      "Ġgran": 6461,
      "Ġdoesnt": 6462,
      "Ġkeen": 6463,
      "Ġbitter": 6464,
      "Ġresident": 6465,
      "Ġbreast": 6466,
      "Ġmathem": 6467,
      "Ġcents": 6468,
      "Ġstands": 6469,
      "Ġrealize": 6470,
      "Ġlanding": 6471,
      "Ġinvol": 6472,
      "Ġshortly": 6473,
      "Ġ1956": 6474,
      "Ġ1940": 6475,
      "Ġreports": 6476,
      "Ġappropri": 6477,
      "Ġrequired": 6478,
      "Ġsolid": 6479,
      "Ġassociated": 6480,
      "Ġadventures": 6481,
      "Ġgrapes": 6482,
      "Ġmystery": 6483,
      "Ġcounter": 6484,
      "Ġpiano": 6485,
      "Ġhelicopter": 6486,
      "Ġmathemat": 6487,
      "gog": 6488,
      "wing": 6489,
      "Ġtag": 6490,
      "reck": 6491,
      "Ġlone": 6492,
      "Ġheight": 6493,
      "asp": 6494,
      "ett": 6495,
      "Ġrope": 6496,
      "Ġrushed": 6497,
      "Ġstamp": 6498,
      "Ġjake": 6499,
      "Ġancest": 6500,
      "Ġgosh": 6501,
      "Ġmend": 6502,
      "resp": 6503,
      "Ġscare": 6504,
      "Ġcompared": 6505,
      "Ġcheeks": 6506,
      "Ġpersu": 6507,
      "Ġchairman": 6508,
      "Ġofficially": 6509,
      "ĠMrs": 6510,
      "Ġauthorities": 6511,
      "glas": 6512,
      "Ġcarrots": 6513,
      "Ġdemanded": 6514,
      "ez": 6515,
      "rom": 6516,
      "works": 6517,
      "Ġtale": 6518,
      "Ġwand": 6519,
      "Ġsor": 6520,
      "Ġyoun": 6521,
      "Ġthumb": 6522,
      "Ġroo": 6523,
      "Ġrig": 6524,
      "Ġreign": 6525,
      "Ġkay": 6526,
      "chin": 6527,
      "Ġtra": 6528,
      "esty": 6529,
      "Ġspots": 6530,
      "Ġages": 6531,
      "Ġaffection": 6532,
      "Ġloads": 6533,
      "Ġblues": 6534,
      "ĠWas": 6535,
      "Ġmeanwhile": 6536,
      "Ġcompar": 6537,
      "Ġguil": 6538,
      "ibi": 6539,
      "Ġfathers": 6540,
      "Ġspeaker": 6541,
      "Ġsticky": 6542,
      "Ġcrossed": 6543,
      "Ġbasketball": 6544,
      "Ġextremely": 6545,
      "Ġsignificant": 6546,
      "tis": 6547,
      "yy": 6548,
      "Ġborough": 6549,
      "Ġfetch": 6550,
      "Ġnana": 6551,
      "iter": 6552,
      "Ġstol": 6553,
      "adel": 6554,
      "Ġmeite": 6555,
      "usted": 6556,
      "Ġalger": 6557,
      "orted": 6558,
      "Ġmans": 6559,
      "akin": 6560,
      "Ġloving": 6561,
      "Ġmarks": 6562,
      "Ġguest": 6563,
      "Ġundert": 6564,
      "iverse": 6565,
      "Ġsupply": 6566,
      "Ġlisted": 6567,
      "Ġconsist": 6568,
      "Ġ80": 6569,
      "Ġcompanions": 6570,
      "Ġdollar": 6571,
      "Ġimportance": 6572,
      "Ġadvance": 6573,
      "Ġrevol": 6574,
      "Ġsnap": 6575,
      "Ġsufficient": 6576,
      "Ġfreder": 6577,
      "Ġvotes": 6578,
      "aa": 6579,
      "des": 6580,
      "lim": 6581,
      "Ġpile": 6582,
      "Ġlas": 6583,
      "Ġnay": 6584,
      "itan": 6585,
      "Ġhamb": 6586,
      "Ġhadta": 6587,
      "rial": 6588,
      "Ġcouldnt": 6589,
      "Ġumbre": 6590,
      "angers": 6591,
      "ĠCould": 6592,
      "Ġexpensive": 6593,
      "Ġlaun": 6594,
      "umpy": 6595,
      "Ġlands": 6596,
      "ondon": 6597,
      "Ġgentlemen": 6598,
      "Ġlifted": 6599,
      "Ġcadet": 6600,
      "Ġvegetables": 6601,
      "Ġtriangle": 6602,
      "Ġsqueeze": 6603,
      "Ġslavery": 6604,
      "22": 6605,
      "car": 6606,
      "hus": 6607,
      "uals": 6608,
      "Ġiii": 6609,
      "Ġwine": 6610,
      "Ġcott": 6611,
      "Ġfaint": 6612,
      "itz": 6613,
      "acing": 6614,
      "Ġko": 6615,
      "Ġplanned": 6616,
      "Ġgettin": 6617,
      "ements": 6618,
      "iffe": 6619,
      "Ġchase": 6620,
      "Ġteen": 6621,
      "Ġremains": 6622,
      "Ġapply": 6623,
      "Ġrecall": 6624,
      "Ġterror": 6625,
      "Ġretire": 6626,
      "Ġgrandpa": 6627,
      "Ġgrandmother": 6628,
      "Ġ1962": 6629,
      "Ġstreets": 6630,
      "Ġsending": 6631,
      "Ġsoftware": 6632,
      "Ġsoutheast": 6633,
      "Ġdespite": 6634,
      "Ġwitness": 6635,
      "Ġbenefit": 6636,
      "Ġequipment": 6637,
      "ares": 6638,
      "ear": 6639,
      "pill": 6640,
      "Ġsally": 6641,
      "Ġwealth": 6642,
      "Ġrh": 6643,
      "Ġreview": 6644,
      "uries": 6645,
      "Ġseas": 6646,
      "Ġalt": 6647,
      "Ġmyth": 6648,
      "Ġchim": 6649,
      "Ġbrick": 6650,
      "Ġgranny": 6651,
      "athy": 6652,
      "Ġglance": 6653,
      "Ġsuppl": 6654,
      "Ġdaisy": 6655,
      "Ġrefused": 6656,
      "Ġclosely": 6657,
      "Ġsigns": 6658,
      "hammad": 6659,
      "Ġthousands": 6660,
      "Ġlimit": 6661,
      "Ġmeitei": 6662,
      "Ġhambur": 6663,
      "11": 6664,
      "Ġtack": 6665,
      "onic": 6666,
      "anas": 6667,
      "Ġjus": 6668,
      "ctions": 6669,
      "ilst": 6670,
      "inkle": 6671,
      "Ġoverall": 6672,
      "Ġdisplay": 6673,
      "ĠEx": 6674,
      "Ġconsult": 6675,
      "Ġ1961": 6676,
      "Ġjeann": 6677,
      "Ġavoid": 6678,
      "Ġcondu": 6679,
      "Ġburned": 6680,
      "Ġearned": 6681,
      "Ġlocked": 6682,
      "Ġaccompl": 6683,
      "Ġwounded": 6684,
      "Ġsucceeded": 6685,
      "Ġfreedom": 6686,
      "Ġfarther": 6687,
      "hun": 6688,
      "Ġwaves": 6689,
      "Ġwishes": 6690,
      "Ġdying": 6691,
      "Ġpier": 6692,
      "Ġisa": 6693,
      "sec": 6694,
      "entine": 6695,
      "Ġkr": 6696,
      "umber": 6697,
      "Ġabc": 6698,
      "Ġspite": 6699,
      "Ġenem": 6700,
      "Ġcomposed": 6701,
      "Ġacted": 6702,
      "Ġcolumb": 6703,
      "Ġ33": 6704,
      "Ġimper": 6705,
      "Ġcapac": 6706,
      "ĠGet": 6707,
      "Ġprovision": 6708,
      "ricult": 6709,
      "Ġlawrence": 6710,
      "Ġstudent": 6711,
      "Ġmurd": 6712,
      "Ġautumn": 6713,
      "ointment": 6714,
      "Ġshooting": 6715,
      "Ġactivist": 6716,
      "Ġepisodes": 6717,
      "Ġargument": 6718,
      "Ġhayden": 6719,
      "Ġemergen": 6720,
      "Ġescaped": 6721,
      "Ġcaterpill": 6722,
      "Ġguilty": 6723,
      "hs": 6724,
      "Ġbbc": 6725,
      "Ġtox": 6726,
      "iser": 6727,
      "itated": 6728,
      "Ġjac": 6729,
      "eally": 6730,
      "ros": 6731,
      "Ġspin": 6732,
      "aste": 6733,
      "Ġagricult": 6734,
      "Ġfeature": 6735,
      "Ġload": 6736,
      "ĠTwo": 6737,
      "aving": 6738,
      "Ġelement": 6739,
      "Ġpoland": 6740,
      "Ġcurly": 6741,
      "Ġboxes": 6742,
      "ĠLondon": 6743,
      "Ġpurcha": 6744,
      "Ġbearing": 6745,
      "Ġ1952": 6746,
      "Ġartists": 6747,
      "Ġprompt": 6748,
      "Ġformerly": 6749,
      "Ġnapkin": 6750,
      "Ġsettlements": 6751,
      "Ġmigration": 6752,
      "Ġhippo": 6753,
      "bud": 6754,
      "iya": 6755,
      "kie": 6756,
      "Ġaro": 6757,
      "Ġcage": 6758,
      "Ġdot": 6759,
      "Ġpeak": 6760,
      "eding": 6761,
      "aroo": 6762,
      "owing": 6763,
      "Ġkas": 6764,
      "Ġseal": 6765,
      "Ġmeg": 6766,
      "illing": 6767,
      "Ġability": 6768,
      "Ġleon": 6769,
      "Ġunable": 6770,
      "Ġcarter": 6771,
      "Ġmoments": 6772,
      "Ġcolumn": 6773,
      "Ġide": 6774,
      "Ġcurtain": 6775,
      "Ġsquad": 6776,
      "Ġeaster": 6777,
      "Ġhandsome": 6778,
      "ĠLook": 6779,
      "Ġchristopher": 6780,
      "Ġjackson": 6781,
      "Ġgarth": 6782,
      "Ġrainbow": 6783,
      "Ġvari": 6784,
      "Ġgrowth": 6785,
      "Ġtorn": 6786,
      "Ġroute": 6787,
      "Ġjeannine": 6788,
      "40": 6789,
      "hu": 6790,
      "heim": 6791,
      "Ġwales": 6792,
      "Ġsi": 6793,
      "Ġsne": 6794,
      "Ġcinem": 6795,
      "onom": 6796,
      "Ġgle": 6797,
      "ani": 6798,
      "Ġhend": 6799,
      "Ġrider": 6800,
      "Ġresolution": 6801,
      "Ġlasted": 6802,
      "Ġfactory": 6803,
      "Ġsignal": 6804,
      "Ġ1943": 6805,
      "Ġdrove": 6806,
      "Ġcleaning": 6807,
      "Ġbillboard": 6808,
      "Ġethn": 6809,
      "Ġjean": 6810,
      "Ġawarded": 6811,
      "Ġpirate": 6812,
      "Ġcotton": 6813,
      "Ġresponded": 6814,
      "Ġphrase": 6815,
      "Ġfrederick": 6816,
      "90": 6817,
      "Ġairl": 6818,
      "Ġshan": 6819,
      "Ġpars": 6820,
      "lle": 6821,
      "Ġwhilst": 6822,
      "umin": 6823,
      "Ġvig": 6824,
      "oses": 6825,
      "Ġexceed": 6826,
      "Ġguide": 6827,
      "Ġrescue": 6828,
      "ĠReally": 6829,
      "Ġpointing": 6830,
      "azz": 6831,
      "Ġlanded": 6832,
      "Ġvisited": 6833,
      "zech": 6834,
      "Ġorganized": 6835,
      "Ġattacked": 6836,
      "Ġteaching": 6837,
      "ĠDoes": 6838,
      "Ġconnected": 6839,
      "Ġdisappeared": 6840,
      "Ġcloser": 6841,
      "Ġbertha": 6842,
      "Ġcarpet": 6843,
      "Ġfrancisco": 6844,
      "Ġbouncy": 6845,
      "Ġalphabet": 6846,
      "dling": 6847,
      "erman": 6848,
      "Ġginger": 6849,
      "Ġlic": 6850,
      "Ġarmed": 6851,
      "Ġsched": 6852,
      "Ġhond": 6853,
      "ĠThen": 6854,
      "Ġstepped": 6855,
      "ĠDav": 6856,
      "Ġrelief": 6857,
      "Ġseconds": 6858,
      "Ġdouglas": 6859,
      "Ġ1942": 6860,
      "Ġvariety": 6861,
      "Ġspirits": 6862,
      "Ġsprang": 6863,
      "Ġcereal": 6864,
      "Ġweapons": 6865,
      "Ġwarriors": 6866,
      "Ġgrateful": 6867,
      "bar": 6868,
      "Ġom": 6869,
      "Ġbrian": 6870,
      "oni": 6871,
      "Ġgit": 6872,
      "Ġgates": 6873,
      "Ġwebs": 6874,
      "Ġeag": 6875,
      "Ġinte": 6876,
      "Ġbuzz": 6877,
      "Ġcheap": 6878,
      "Ġdivor": 6879,
      "Ġdinosaurs": 6880,
      "Ġliberal": 6881,
      "Ġyucky": 6882,
      "Ġpsych": 6883,
      "Ġsolemn": 6884,
      "Ġconflict": 6885,
      "Ġstadium": 6886,
      "Ġashamed": 6887,
      "iqu": 6888,
      "ji": 6889,
      "with": 6890,
      "yard": 6891,
      "Ġtoss": 6892,
      "Ġincl": 6893,
      "Ġnoted": 6894,
      "Ġdee": 6895,
      "Ġalab": 6896,
      "Ġtrial": 6897,
      "ella": 6898,
      "Ġgrat": 6899,
      "Ġscen": 6900,
      "Ġharvey": 6901,
      "Ġslipped": 6902,
      "Ġmustn": 6903,
      "Ġpolar": 6904,
      "Ġreduced": 6905,
      "Ġsingles": 6906,
      "hens": 6907,
      "Ġadvanced": 6908,
      "Ġelectron": 6909,
      "Ġactivities": 6910,
      "Ġflew": 6911,
      "Ġlux": 6912,
      "Ġappropriate": 6913,
      "Ġtam": 6914,
      "Ġstores": 6915,
      "Ġframe": 6916,
      "Ġvast": 6917,
      "Ġchip": 6918,
      "Ġunha": 6919,
      "Ġconfidence": 6920,
      "ologist": 6921,
      "Ġcampbell": 6922,
      "Ġengineering": 6923,
      "Ġsuffering": 6924,
      "Ġnecessarily": 6925,
      "Ġnaval": 6926,
      "Ġpeanut": 6927,
      "Ġjingle": 6928,
      "Ġumbrella": 6929,
      "gart": 6930,
      "jac": 6931,
      "jab": 6932,
      "Ġwing": 6933,
      "Ġborrow": 6934,
      "Ġmand": 6935,
      "Ġfired": 6936,
      "Ġgord": 6937,
      "Ġboss": 6938,
      "Ġunits": 6939,
      "Ġpoly": 6940,
      "inned": 6941,
      "Ġjapaz": 6942,
      "Ġrecorder": 6943,
      "Ġsunsh": 6944,
      "theless": 6945,
      "Ġwooden": 6946,
      "Ġlosing": 6947,
      "Ġtreatment": 6948,
      "Ġproducts": 6949,
      "Ġcomplain": 6950,
      "Ġruthven": 6951,
      "Ġclouds": 6952,
      "uing": 6953,
      "win": 6954,
      "reet": 6955,
      "Ġbor": 6956,
      "Ġmath": 6957,
      "asy": 6958,
      "Ġult": 6959,
      "Ġrings": 6960,
      "Ġdol": 6961,
      "umes": 6962,
      "Ġroar": 6963,
      "Ġelo": 6964,
      "Ġeditor": 6965,
      "Ġsixth": 6966,
      "inson": 6967,
      "Ġlistened": 6968,
      "Ġsooner": 6969,
      "Ġ1959": 6970,
      "Ġurban": 6971,
      "Ġwhisper": 6972,
      "Ġhidden": 6973,
      "Ġsergeant": 6974,
      "Ġlaunched": 6975,
      "pir": 6976,
      "Ġtang": 6977,
      "Ġczech": 6978,
      "Ġyer": 6979,
      "Ġfate": 6980,
      "orter": 6981,
      "keep": 6982,
      "eaks": 6983,
      "Ġmosely": 6984,
      "aba": 6985,
      "ighed": 6986,
      "Ġsue": 6987,
      "Ġblame": 6988,
      "Ġadver": 6989,
      "Ġpreviously": 6990,
      "ysis": 6991,
      "Ġgranddad": 6992,
      "Ġrestaur": 6993,
      "ĠJean": 6994,
      "Ġstickers": 6995,
      "Ġannie": 6996,
      "Ġbegins": 6997,
      "Ġstronger": 6998,
      "Ġorganiz": 6999,
      "Ġoperation": 7000,
      "Ġcosts": 7001,
      "Ġbaa": 7002,
      "Ġtotally": 7003,
      "ropol": 7004,
      "Ġoxford": 7005,
      "Ġresponsibility": 7006,
      "Ġmagnetic": 7007,
      "Ġtreasure": 7008,
      "Ġcommercial": 7009,
      "lock": 7010,
      "lmer": 7011,
      "oor": 7012,
      "Ġtad": 7013,
      "Ġbuh": 7014,
      "Ġbaker": 7015,
      "Ġreference": 7016,
      "adal": 7017,
      "acha": 7018,
      "irts": 7019,
      "imp": 7020,
      "imum": 7021,
      "Ġvirt": 7022,
      "Ġunknown": 7023,
      "Ġfee": 7024,
      "Ġtear": 7025,
      "aren": 7026,
      "Ġpride": 7027,
      "phy": 7028,
      "Ġbenjam": 7029,
      "Ġdawn": 7030,
      "Ġsouthwest": 7031,
      "shire": 7032,
      "Ġdefence": 7033,
      "Ġcommunes": 7034,
      "Ġhistoric": 7035,
      "Ġholidays": 7036,
      "Ġliterature": 7037,
      "Ġstanley": 7038,
      "Ġbiscuit": 7039,
      "Ġnephew": 7040,
      "Ġappreci": 7041,
      "Ġhenderson": 7042,
      "gb": 7043,
      "rul": 7044,
      "Ġpanda": 7045,
      "Ġshaking": 7046,
      "Ġdisag": 7047,
      "Ġtryin": 7048,
      "Ġ34": 7049,
      "Ġstrict": 7050,
      "Ġpassage": 7051,
      "Ġparish": 7052,
      "Ġrealized": 7053,
      "Ġpenny": 7054,
      "Ġ1955": 7055,
      "Ġ1945": 7056,
      "Ġpainted": 7057,
      "standing": 7058,
      "Ġforgive": 7059,
      "Ġphysical": 7060,
      "Ġstrawberry": 7061,
      "Ġassistant": 7062,
      "Ġugly": 7063,
      "Ġadopted": 7064,
      "Ġintellig": 7065,
      "Ġenemies": 7066,
      "eys": 7067,
      "lar": 7068,
      "pro": 7069,
      "ti": 7070,
      "Ġsom": 7071,
      "Ġsung": 7072,
      "Ġsigh": 7073,
      "Ġod": 7074,
      "Ġdart": 7075,
      "Ġpatch": 7076,
      "Ġpipe": 7077,
      "Ġgum": 7078,
      "ller": 7079,
      "Ġner": 7080,
      "atlant": 7081,
      "iders": 7082,
      "Ġwasnt": 7083,
      "Ġkong": 7084,
      "Ġsod": 7085,
      "Ġplates": 7086,
      "Ġcomin": 7087,
      "Ġspark": 7088,
      "Ġconcl": 7089,
      "Ġconvent": 7090,
      "Ġchain": 7091,
      "teenth": 7092,
      "Ġcolored": 7093,
      "Ġregions": 7094,
      "Ġballoons": 7095,
      "Ġalongside": 7096,
      "Ġ70": 7097,
      "Ġexchan": 7098,
      "Ġ1947": 7099,
      "Ġportion": 7100,
      "Ġnether": 7101,
      "Ġlemon": 7102,
      "Ġhamilton": 7103,
      "Ġqueens": 7104,
      "Ġwednesday": 7105,
      "Ġcabinet": 7106,
      "Ġsaxony": 7107,
      "Ġatlantic": 7108,
      "Ġneighborhood": 7109,
      "aul": 7110,
      "yal": 7111,
      "zburg": 7112,
      "Ġislam": 7113,
      "Ġstated": 7114,
      "Ġjon": 7115,
      "iger": 7116,
      "Ġchose": 7117,
      "Ġbond": 7118,
      "Ġuniverse": 7119,
      "Ġflash": 7120,
      "Ġbuff": 7121,
      "Ġmonarch": 7122,
      "Ġmaid": 7123,
      "Ġsteam": 7124,
      "Ġslept": 7125,
      "Ġtommy": 7126,
      "ĠPro": 7127,
      "Ġsneak": 7128,
      "Ġtennes": 7129,
      "Ġmerry": 7130,
      "Ġmerrim": 7131,
      "Ġdressing": 7132,
      "Ġcryst": 7133,
      "Ġexplan": 7134,
      "Ġtroubles": 7135,
      "chest": 7136,
      "Ġconduct": 7137,
      "Ġnortheast": 7138,
      "Ġaylmer": 7139,
      "Ġangel": 7140,
      "iji": 7141,
      "Ġcapture": 7142,
      "Ġaffected": 7143,
      "Ġwhistle": 7144,
      "Ġkangaroo": 7145,
      "Ġinstrument": 7146,
      "Ġcomedian": 7147,
      "Ġunusual": 7148,
      "Ġtennessee": 7149,
      "case": 7150,
      "Ġbun": 7151,
      "escue": 7152,
      "Ġny": 7153,
      "Ġhah": 7154,
      "Ġkim": 7155,
      "Ġconcept": 7156,
      "Ġgrac": 7157,
      "Ġpee": 7158,
      "Ġfever": 7159,
      "Ġpoison": 7160,
      "mann": 7161,
      "Ġkindness": 7162,
      "Ġimpact": 7163,
      "Ġreality": 7164,
      "Ġassured": 7165,
      "Ġannual": 7166,
      "Ġforever": 7167,
      "Ġphiladel": 7168,
      "Ġblowing": 7169,
      "Ġverb": 7170,
      "Ġbelonged": 7171,
      "Ġbonnet": 7172,
      "Ġrapidly": 7173,
      "Ġsymbol": 7174,
      "heastern": 7175,
      "Ġsunshine": 7176,
      "dale": 7177,
      "Ġtel": 7178,
      "Ġsamp": 7179,
      "iny": 7180,
      "Ġfc": 7181,
      "Ġlisa": 7182,
      "Ġnab": 7183,
      "arks": 7184,
      "imate": 7185,
      "Ġpecul": 7186,
      "Ġbackwards": 7187,
      "Ġens": 7188,
      "Ġmuhammad": 7189,
      "mod": 7190,
      "Ġdese": 7191,
      "Ġimpression": 7192,
      "Ġobtained": 7193,
      "meal": 7194,
      "Ġgreenbelt": 7195,
      "Ġhorror": 7196,
      "Ġnatives": 7197,
      "Ġdeaths": 7198,
      "Ġlately": 7199,
      "Ġhoped": 7200,
      "Ġactivity": 7201,
      "Ġindependence": 7202,
      "Ġpoetry": 7203,
      "Ġoccupied": 7204,
      "Ġinstitute": 7205,
      "Ġstruggle": 7206,
      "Ġsweden": 7207,
      "Ġdynasty": 7208,
      "Ġexpedition": 7209,
      "Ġalabama": 7210,
      "Ġpeculiar": 7211,
      "25": 7212,
      "26": 7213,
      "law": 7214,
      "inity": 7215,
      "Ġmau": 7216,
      "Ġdub": 7217,
      "esh": 7218,
      "itter": 7219,
      "sect": 7220,
      "Ġanch": 7221,
      "eau": 7222,
      "olk": 7223,
      "eless": 7224,
      "ivered": 7225,
      "Ġarrow": 7226,
      "Ġbucket": 7227,
      "Ġdistingu": 7228,
      "Ġ1963": 7229,
      "bridge": 7230,
      "Ġsounded": 7231,
      "Ġdoubs": 7232,
      "Ġ1946": 7233,
      "Ġadmitted": 7234,
      "umbled": 7235,
      "Ġsoftly": 7236,
      "Ġprojects": 7237,
      "Ġdepends": 7238,
      "Ġbiscuits": 7239,
      "Ġphiladelphia": 7240,
      "bly": 7241,
      "eva": 7242,
      "water": 7243,
      "Ġgulf": 7244,
      "Ġthunder": 7245,
      "iches": 7246,
      "Ġviz": 7247,
      "Ġwilln": 7248,
      "Ġcoch": 7249,
      "Ġfeather": 7250,
      "text": 7251,
      "Ġhanded": 7252,
      "Ġfinds": 7253,
      "Ġregul": 7254,
      "Ġinstruct": 7255,
      "Ġcatal": 7256,
      "lessly": 7257,
      "Ġladyb": 7258,
      "Ġbags": 7259,
      "iii": 7260,
      "Ġeducated": 7261,
      "Ġobjects": 7262,
      "Ġzebra": 7263,
      "Ġprisoner": 7264,
      "Ġfoolish": 7265,
      "Ġoccasionally": 7266,
      "Ġbattery": 7267,
      "Ġarrested": 7268,
      "Ġmultiple": 7269,
      "mith": 7270,
      "uch": 7271,
      "zes": 7272,
      "Ġpussy": 7273,
      "Ġnancy": 7274,
      "ophy": 7275,
      "geun": 7276,
      "oli": 7277,
      "Ġscat": 7278,
      "Ġcomplic": 7279,
      "ĠEur": 7280,
      "Ġdrown": 7281,
      "Ġglob": 7282,
      "Ġwarning": 7283,
      "ĠRo": 7284,
      "Ġattached": 7285,
      "Ġpatrick": 7286,
      "Ġdriven": 7287,
      "Ġawa": 7288,
      "Ġnaturally": 7289,
      "Ġpriest": 7290,
      "Ġ1948": 7291,
      "Ġkilling": 7292,
      "apped": 7293,
      "Ġconstruction": 7294,
      "Ġtemp": 7295,
      "Ġtemple": 7296,
      "Ġstatus": 7297,
      "comt": 7298,
      "Ġlabel": 7299,
      "Ġclimbed": 7300,
      "Ġwrestler": 7301,
      "Ġremaining": 7302,
      "Ġadministrative": 7303,
      "Ġpudding": 7304,
      "Ġgloves": 7305,
      "umption": 7306,
      "Ġcottage": 7307,
      "Ġnetherlands": 7308,
      "tan": 7309,
      "hered": 7310,
      "Ġbc": 7311,
      "Ġcouch": 7312,
      "Ġgif": 7313,
      "Ġlung": 7314,
      "arr": 7315,
      "Ġrhod": 7316,
      "Ġky": 7317,
      "Ġnotable": 7318,
      "Ġdemon": 7319,
      "umm": 7320,
      "Ġsuck": 7321,
      "Ġcomments": 7322,
      "apers": 7323,
      "soft": 7324,
      "Ġnevertheless": 7325,
      "nefr": 7326,
      "Ġexpand": 7327,
      "Ġdeser": 7328,
      "Ġvoy": 7329,
      "Ġrefers": 7330,
      "Ġsticking": 7331,
      "Ġoperations": 7332,
      "Ġalbums": 7333,
      "Ġvisitors": 7334,
      "Ġestablish": 7335,
      "Ġjewish": 7336,
      "Ġinnit": 7337,
      "Ġmunicipalities": 7338,
      "ĠComm": 7339,
      "anchecomt": 7340,
      "Ġbourgog": 7341,
      "Ġyoungeun": 7342,
      "Ġemergency": 7343,
      "Ġbenjamin": 7344,
      "nefranchecomt": 7345,
      "Ġbourgognefranchecomt": 7346,
      "Ġtro": 7347,
      "Ġwwe": 7348,
      "Ġswww": 7349,
      "ington": 7350,
      "Ġecho": 7351,
      "imately": 7352,
      "illed": 7353,
      "Ġtwe": 7354,
      "berries": 7355,
      "Ġamuse": 7356,
      "ĠWould": 7357,
      "Ġguadal": 7358,
      "Ġcreatures": 7359,
      "gery": 7360,
      "Ġpassion": 7361,
      "Ġdepression": 7362,
      "...": 7363,
      "Ġminds": 7364,
      "Ġmusician": 7365,
      "ika": 7366,
      "Ġrolled": 7367,
      "Ġticket": 7368,
      "Ġsupporting": 7369,
      "Ġrabbits": 7370,
      "ĠFriday": 7371,
      "ĠChristmas": 7372,
      "looking": 7373,
      "Ġextended": 7374,
      "Ġbracelet": 7375,
      "Ġmurmured": 7376,
      "Ġarose": 7377,
      "Ġintegr": 7378,
      "rand": 7379,
      "Ġdak": 7380,
      "icing": 7381,
      "station": 7382,
      "sell": 7383,
      "Ġstout": 7384,
      "unte": 7385,
      "Ġshy": 7386,
      "iga": 7387,
      "Ġchums": 7388,
      "ĠSund": 7389,
      "Ġharrison": 7390,
      "ancing": 7391,
      "Ġparam": 7392,
      "Ġtremb": 7393,
      "Ġpaused": 7394,
      "brush": 7395,
      "Ġpolitics": 7396,
      "Ġ1951": 7397,
      "Ġfortescue": 7398,
      "Ġcatching": 7399,
      "Ġbangl": 7400,
      "Ġterminal": 7401,
      "Ġmiserable": 7402,
      "Ġtesting": 7403,
      "enez": 7404,
      "Ġobserv": 7405,
      "Ġjimmy": 7406,
      "canal": 7407,
      "Ġvehicle": 7408,
      "Ġarranged": 7409,
      "80": 7410,
      "mont": 7411,
      "pool": 7412,
      "xide": 7413,
      "Ġfisher": 7414,
      "Ġiniti": 7415,
      "Ġjar": 7416,
      "Ġalarm": 7417,
      "Ġvenez": 7418,
      "Ġspy": 7419,
      "aug": 7420,
      "Ġchum": 7421,
      "Ġenqu": 7422,
      "ĠSome": 7423,
      "Ġmines": 7424,
      "Ġstrateg": 7425,
      "ĠFre": 7426,
      "Ġemily": 7427,
      "Ġcommunities": 7428,
      "Ġclasses": 7429,
      "Ġberlin": 7430,
      "Ġloireatlant": 7431,
      "Ġsandwiches": 7432,
      "Ġmicrosoft": 7433,
      "Ġadditional": 7434,
      "Ġnearest": 7435,
      "Ġkorea": 7436,
      "Ġkorean": 7437,
      "Ġdrug": 7438,
      "Ġheavily": 7439,
      "Ġdomestic": 7440,
      "Ġinterrupted": 7441,
      "Ġinnocent": 7442,
      "Ġstolen": 7443,
      "Ġunhappy": 7444,
      "Ġguadalcanal": 7445,
      "Ġloireatlantique": 7446,
      "lav": 7447,
      "mat": 7448,
      "Ġtch": 7449,
      "Ġoat": 7450,
      "Ġbounce": 7451,
      "Ġdough": 7452,
      "Ġfel": 7453,
      "Ġbore": 7454,
      "Ġclaimed": 7455,
      "Ġletting": 7456,
      "ĠNew": 7457,
      "Ġnearby": 7458,
      "Ġholds": 7459,
      "Ġconscious": 7460,
      "hips": 7461,
      "Ġhorrid": 7462,
      "Ġhundreds": 7463,
      "Ġ1954": 7464,
      "Ġ1939": 7465,
      "Ġdarkness": 7466,
      "Ġaustria": 7467,
      "Ġtempor": 7468,
      "Ġarrival": 7469,
      "Ġborders": 7470,
      "Ġseparated": 7471,
      "Ġdiscussion": 7472,
      "Ġimmig": 7473,
      "Ġinjured": 7474,
      "Ġplatform": 7475,
      "Ġprospect": 7476,
      "Ġconfirmed": 7477,
      "Ġfierce": 7478,
      "Ġlonely": 7479,
      "long": 7480,
      "master": 7481,
      "Ġtables": 7482,
      "Ġsorrow": 7483,
      "Ġcush": 7484,
      "Ġpand": 7485,
      "Ġpist": 7486,
      "Ġpens": 7487,
      "Ġpitch": 7488,
      "Ġnak": 7489,
      "Ġnerv": 7490,
      "icated": 7491,
      "ieved": 7492,
      "ops": 7493,
      "Ġtheme": 7494,
      "Ġera": 7495,
      "Ġgotten": 7496,
      "Ġworm": 7497,
      "Ġhoward": 7498,
      "Ġmargie": 7499,
      "icted": 7500,
      "Ġlongest": 7501,
      "Ġeliot": 7502,
      "Ġswift": 7503,
      "Ġedition": 7504,
      "Ġbedrul": 7505,
      "Ġlightning": 7506,
      "Ġwoke": 7507,
      "Ġparrot": 7508,
      "Ġgeneration": 7509,
      "Ġfrosty": 7510,
      "Ġsticker": 7511,
      "Ġlocation": 7512,
      "Ġexplore": 7513,
      "Ġirish": 7514,
      "Ġcowboy": 7515,
      "Ġopposed": 7516,
      "Ġexpressed": 7517,
      "Ġextraord": 7518,
      "Ġblessed": 7519,
      "Ġbarnum": 7520,
      "Ġprinted": 7521,
      "Ġcrawl": 7522,
      "Ġjunior": 7523,
      "Ġliquid": 7524,
      "Ġnumerous": 7525,
      "Ġjapazy": 7526,
      "23": 7527,
      "75": 7528,
      "eh": 7529,
      "put": 7530,
      "then": 7531,
      "Ġfan": 7532,
      "Ġpanc": 7533,
      "Ġgag": 7534,
      "itable": 7535,
      "itors": 7536,
      "Ġrural": 7537,
      "acker": 7538,
      "Ġgrim": 7539,
      "Ġshared": 7540,
      "Ġdistant": 7541,
      "Ġsingers": 7542,
      "Ġenthus": 7543,
      "Ġconfess": 7544,
      "Ġ1944": 7545,
      "Ġcorresp": 7546,
      "Ġbuying": 7547,
      "Ġgarbage": 7548,
      "Ġviews": 7549,
      "Ġdemocracy": 7550,
      "Ġdisappointed": 7551,
      "Ġgradually": 7552,
      "Ġrandolph": 7553,
      "Ġthreatened": 7554,
      "Ġdeputy": 7555,
      "budour": 7556,
      "Ġvenezuel": 7557,
      "Ġbedrulbudour": 7558,
      "Ġcorrespond": 7559,
      "200": 7560,
      "ni": 7561,
      "pected": 7562,
      "Ġsought": 7563,
      "Ġoven": 7564,
      "inated": 7565,
      "Ġbapt": 7566,
      "Ġcm": 7567,
      "Ġmast": 7568,
      "Ġgir": 7569,
      "Ġgina": 7570,
      "Ġinit": 7571,
      "aro": 7572,
      "aria": 7573,
      "Ġrus": 7574,
      "Ġrude": 7575,
      "Ġkite": 7576,
      "Ġkath": 7577,
      "eav": 7578,
      "Ġallig": 7579,
      "Ġshining": 7580,
      "Ġeric": 7581,
      "Ġjoke": 7582,
      "Ġmarbles": 7583,
      "onscious": 7584,
      "Ġ65": 7585,
      "Ġmetropol": 7586,
      "Ġ1965": 7587,
      "Ġbegun": 7588,
      "Ġpressed": 7589,
      "Ġabsence": 7590,
      "Ġexception": 7591,
      "Ġhoping": 7592,
      "Ġvolunte": 7593,
      "Ġtechnical": 7594,
      "Ġselling": 7595,
      "Ġsatisfaction": 7596,
      "Ġcadets": 7597,
      "Ġkatie": 7598,
      "Ġfurniture": 7599,
      "Ġrecommend": 7600,
      "aid": 7601,
      "bid": 7602,
      "ĠX": 7603,
      "Ġtut": 7604,
      "Ġwool": 7605,
      "Ġwins": 7606,
      "real": 7607,
      "Ġbass": 7608,
      "Ġbunch": 7609,
      "Ġdies": 7610,
      "Ġdio": 7611,
      "Ġtops": 7612,
      "eness": 7613,
      "Ġraw": 7614,
      "Ġjet": 7615,
      "Ġjeth": 7616,
      "rily": 7617,
      "empl": 7618,
      "venge": 7619,
      "Ġactions": 7620,
      "ĠHere": 7621,
      "Ġglue": 7622,
      "Ġthankful": 7623,
      "brgt": 7624,
      "Ġpossession": 7625,
      "Ġmerchant": 7626,
      "Ġtempt": 7627,
      "Ġfarmers": 7628,
      "Ġdirectors": 7629,
      "Ġcandle": 7630,
      "Ġincreasing": 7631,
      "Ġmistaken": 7632,
      "Ġcultural": 7633,
      "Ġneighbour": 7634,
      "Ġsecure": 7635,
      "Ġdelightful": 7636,
      "Ġindustrial": 7637,
      "Ġnegative": 7638,
      "Ġprincipal": 7639,
      "Ġsuspic": 7640,
      "Ġsupreme": 7641,
      "Ġconcluded": 7642,
      "just": 7643,
      "lan": 7644,
      "mc": 7645,
      "inent": 7646,
      "Ġmcc": 7647,
      "Ġlt": 7648,
      "asion": 7649,
      "Ġjail": 7650,
      "Ġworms": 7651,
      "Ġwherever": 7652,
      "Ġfeast": 7653,
      "Ġblaz": 7654,
      "Ġchallen": 7655,
      "Ġsharing": 7656,
      "ĠAgain": 7657,
      "Ġflung": 7658,
      "izz": 7659,
      "Ġendeav": 7660,
      "aughters": 7661,
      "Ġsubd": 7662,
      "Ġsqueak": 7663,
      "Ġservant": 7664,
      "Ġ1949": 7665,
      "Ġsandy": 7666,
      "Ġ1933": 7667,
      "Ġbusinessman": 7668,
      "Ġ1928": 7669,
      "Ġconsideration": 7670,
      "ĠVery": 7671,
      "Ġcheerful": 7672,
      "Ġgraduated": 7673,
      "Ġguidance": 7674,
      "Ġentrance": 7675,
      "Ġisaac": 7676,
      "four": 7677,
      "py": 7678,
      "sk": 7679,
      "uable": 7680,
      "Ġtib": 7681,
      "Ġwreck": 7682,
      "Ġske": 7683,
      "Ġcav": 7684,
      "Ġpas": 7685,
      "Ġgoo": 7686,
      "Ġnich": 7687,
      "icate": 7688,
      "Ġrect": 7689,
      "Ġrene": 7690,
      "kee": 7691,
      "acement": 7692,
      "gee": 7693,
      "Ġtray": 7694,
      "ifying": 7695,
      "Ġlew": 7696,
      "ĠOx": 7697,
      "Ġperform": 7698,
      "Ġguin": 7699,
      "Ġserving": 7700,
      "Ġdrank": 7701,
      "Ġfoundation": 7702,
      "Ġslee": 7703,
      "Ġhurting": 7704,
      "Ġsnack": 7705,
      "Ġchristians": 7706,
      "Ġmercy": 7707,
      "Ġ1941": 7708,
      "Ġlesson": 7709,
      "Ġfilms": 7710,
      "Ġaustrian": 7711,
      "Ġcontrolled": 7712,
      "Ġdiaper": 7713,
      "Ġconnection": 7714,
      "Ġtitles": 7715,
      "Ġdiscovery": 7716,
      "Ġdefeated": 7717,
      "Ġwidely": 7718,
      "Ġscientific": 7719,
      "Ġfrequently": 7720,
      "ĠDavid": 7721,
      "ĠFreud": 7722,
      "ais": 7723,
      "rons": 7724,
      "Ġtide": 7725,
      "Ġtank": 7726,
      "Ġwah": 7727,
      "Ġmush": 7728,
      "Ġdess": 7729,
      "Ġpause": 7730,
      "Ġgil": 7731,
      "Ġtob": 7732,
      "Ġnas": 7733,
      "Ġnom": 7734,
      "Ġinsect": 7735,
      "lement": 7736,
      "aman": 7737,
      "Ġknot": 7738,
      "Ġerin": 7739,
      "riz": 7740,
      "Ġbrig": 7741,
      "Ġsciss": 7742,
      "Ġscoop": 7743,
      "Ġguards": 7744,
      "Ġharv": 7745,
      "ĠChar": 7746,
      "Ġseriously": 7747,
      "Ġelements": 7748,
      "Ġcolony": 7749,
      "Ġyoungest": 7750,
      "tendo": 7751,
      "Ġhumans": 7752,
      "Ġchickens": 7753,
      "Ġstephen": 7754,
      "Ġcopies": 7755,
      "Ġarrive": 7756,
      "Ġagreement": 7757,
      "Ġprisoners": 7758,
      "Ġprayer": 7759,
      "Ġfunds": 7760,
      "jamas": 7761,
      "Ġmercury": 7762,
      "Ġdesperate": 7763,
      "Ġcaterpillar": 7764,
      "60": 7765,
      "hol": 7766,
      "mony": 7767,
      "mosp": 7768,
      "tar": 7769,
      "Ġtales": 7770,
      "Ġwes": 7771,
      "Ġmental": 7772,
      "Ġdood": 7773,
      "Ġdaughters": 7774,
      "Ġlor": 7775,
      "Ġnasc": 7776,
      "Ġweb": 7777,
      "alo": 7778,
      "Ġrates": 7779,
      "Ġkent": 7780,
      "iments": 7781,
      "Ġselect": 7782,
      "Ġseeds": 7783,
      "Ġshelf": 7784,
      "Ġsobr": 7785,
      "Ġaloud": 7786,
      "elle": 7787,
      "Ġunif": 7788,
      "Ġloft": 7789,
      "Ġcarbon": 7790,
      "issa": 7791,
      "Ġmaria": 7792,
      "ĠMond": 7793,
      "Ġhartle": 7794,
      "Ġsits": 7795,
      "Ġsets": 7796,
      "Ġstopping": 7797,
      "Ġ500": 7798,
      "ribly": 7799,
      "Ġnintendo": 7800,
      "Ġannoy": 7801,
      "Ġdreams": 7802,
      "Ġstrongly": 7803,
      "Ġoperating": 7804,
      "Ġgardens": 7805,
      "chers": 7806,
      "Ġimproved": 7807,
      "Ġweapon": 7808,
      "Ġcelia": 7809,
      "Ġprocedures": 7810,
      "ĠSunday": 7811,
      "Ġsobrin": 7812,
      "ĠMonday": 7813,
      "cuse": 7814,
      "eenth": 7815,
      "lie": 7816,
      "part": 7817,
      "Ġak": 7818,
      "Ġcert": 7819,
      "era": 7820,
      "Ġdv": 7821,
      "Ġpom": 7822,
      "Ġpul": 7823,
      "Ġlun": 7824,
      "Ġbeer": 7825,
      "irst": 7826,
      "Ġsoda": 7827,
      "iev": 7828,
      "usc": 7829,
      "Ġcomr": 7830,
      "Ġcontext": 7831,
      "Ġamr": 7832,
      "Ġperman": 7833,
      "enses": 7834,
      "Ġcharged": 7835,
      "Ġrelation": 7836,
      "Ġ45": 7837,
      "Ġtenn": 7838,
      "Ġrestrict": 7839,
      "Ġnorthwestern": 7840,
      "Ġromantic": 7841,
      "Ġtrucks": 7842,
      "Ġdenver": 7843,
      "Ġdevice": 7844,
      "Ġworthy": 7845,
      "Ġbells": 7846,
      "Ġcritics": 7847,
      "Ġfaithful": 7848,
      "Ġforests": 7849,
      "Ġcarrot": 7850,
      "Ġphotograph": 7851,
      "Ġvictoria": 7852,
      "keeper": 7853,
      "Ġcochran": 7854,
      "Ġoatmeal": 7855,
      "27": 7856,
      "gment": 7857,
      "Ġwret": 7858,
      "Ġbure": 7859,
      "Ġcind": 7860,
      "Ġcort": 7861,
      "Ġcors": 7862,
      "Ġdah": 7863,
      "Ġfuss": 7864,
      "Ġnails": 7865,
      "atia": 7866,
      "Ġhong": 7867,
      "Ġrip": 7868,
      "Ġrud": 7869,
      "Ġramp": 7870,
      "Ġstiff": 7871,
      "verness": 7872,
      "Ġmeow": 7873,
      "Ġclinton": 7874,
      "ĠYep": 7875,
      "Ġroast": 7876,
      "Ġovert": 7877,
      "Ġprague": 7878,
      "Ġcarroll": 7879,
      "Ġunderground": 7880,
      "Ġcamel": 7881,
      "ĠBl": 7882,
      "Ġowners": 7883,
      "cca": 7884,
      "Ġobtain": 7885,
      "Ġhurrican": 7886,
      "Ġtremend": 7887,
      "Ġinterests": 7888,
      "Ġadmit": 7889,
      "Ġdiscip": 7890,
      "Ġmales": 7891,
      "Ġbirdie": 7892,
      "Ġautonom": 7893,
      "Ġduke": 7894,
      "Ġashore": 7895,
      "Ġmerely": 7896,
      "Ġphilippines": 7897,
      "orporated": 7898,
      "Ġcapacity": 7899,
      "Ġextraordinary": 7900,
      "dri": 7901,
      "dles": 7902,
      "yes": 7903,
      "Ġcig": 7904,
      "Ġdaw": 7905,
      "Ġonline": 7906,
      "Ġker": 7907,
      "Ġatmosp": 7908,
      "ills": 7909,
      "Ġvroom": 7910,
      "Ġwanting": 7911,
      "agrap": 7912,
      "Ġplaystation": 7913,
      "Ġrode": 7914,
      "Ġpok": 7915,
      "ĠAt": 7916,
      "ivity": 7917,
      "Ġ37": 7918,
      "Ġworldwide": 7919,
      "Ġreflect": 7920,
      "Ġapproved": 7921,
      "Ġsuspect": 7922,
      "Ġdoubtless": 7923,
      "Ġconsiderable": 7924,
      "Ġcombined": 7925,
      "Ġchapel": 7926,
      "viour": 7927,
      "Ġpunishment": 7928,
      "Ġdegrees": 7929,
      "Ġmysterious": 7930,
      "Ġvessels": 7931,
      "Ġinstruments": 7932,
      "Ġportugal": 7933,
      "Ġjournalist": 7934,
      "quarters": 7935,
      "corder": 7936,
      "gian": 7937,
      "mouth": 7938,
      "ns": 7939,
      "nut": 7940,
      "vation": 7941,
      "Ġdoh": 7942,
      "Ġdose": 7943,
      "Ġreward": 7944,
      "Ġseized": 7945,
      "alled": 7946,
      "Ġtramp": 7947,
      "uled": 7948,
      "Ġworship": 7949,
      "Ġbrooke": 7950,
      "Ġproceeded": 7951,
      "Ġclick": 7952,
      "Ġcoco": 7953,
      "Ġintense": 7954,
      "Ġloyal": 7955,
      "Ġindign": 7956,
      "Ġbeloved": 7957,
      "Ġedric": 7958,
      "Ġcharges": 7959,
      "Ġbroom": 7960,
      "Ġballet": 7961,
      "pleas": 7962,
      "Ġfriendship": 7963,
      "Ġexplos": 7964,
      "Ġtouching": 7965,
      "Ġapproached": 7966,
      "Ġexperiment": 7967,
      "Ġdigital": 7968,
      "Ġyogh": 7969,
      "Ġpermission": 7970,
      "Ġexisting": 7971,
      "Ġceremony": 7972,
      "Ġblew": 7973,
      "Ġfocus": 7974,
      "Ġcandidate": 7975,
      "Ġsausages": 7976,
      "Ġdivorced": 7977,
      "Ġeloise": 7978,
      "Ġwra": 7979,
      "Ġpon": 7980,
      "onna": 7981,
      "Ġhwww": 7982,
      "Ġthursday": 7983,
      "Ġweigh": 7984,
      "acle": 7985,
      "Ġjos": 7986,
      "Ġfries": 7987,
      "Ġheritage": 7988,
      "Ġexha": 7989,
      "Ġmanchester": 7990,
      "Ġgrav": 7991,
      "Ġuncom": 7992,
      "Ġjoel": 7993,
      "ensity": 7994,
      "Ġreserve": 7995,
      "Ġkinder": 7996,
      "Ġtalks": 7997,
      "itsar": 7998,
      "Ġsubs": 7999,
      "Ġreturning": 8000,
      "Ġfootballer": 8001,
      "hard": 8002,
      "flies": 8003,
      "Ġinsurance": 8004,
      "Ġ1929": 8005,
      "Ġdining": 8006,
      "Ġdescribe": 8007,
      "Ġdetect": 8008,
      "Ġpackage": 8009,
      "Ġastron": 8010,
      "Ġtomatoes": 8011,
      "Ġpoems": 8012,
      "Ġearnestly": 8013,
      "Ġshelter": 8014,
      "ĠRoad": 8015,
      "nally": 8016,
      "Ġtough": 8017,
      "Ġbav": 8018,
      "alous": 8019,
      "Ġrebe": 8020,
      "Ġaspect": 8021,
      "Ġsuitc": 8022,
      "ifer": 8023,
      "Ġflows": 8024,
      "Ġscale": 8025,
      "Ġnewman": 8026,
      "into": 8027,
      "Ġchildhood": 8028,
      "Ġelbow": 8029,
      "Ġuseless": 8030,
      "Ġskipper": 8031,
      "Ġadding": 8032,
      "Ġpenins": 8033,
      "Ġhath": 8034,
      "Ġ1931": 8035,
      "Ġ1934": 8036,
      "Ġroland": 8037,
      "Ġarrows": 8038,
      "Ġruled": 8039,
      "Ġgasped": 8040,
      "Ġanxiety": 8041,
      "Ġconstitu": 8042,
      "Ġscottish": 8043,
      "Ġapplied": 8044,
      "Ġlewis": 8045,
      "Ġguinea": 8046,
      "Ġamritsar": 8047,
      "fit": 8048,
      "oa": 8049,
      "rants": 8050,
      "inals": 8051,
      "nda": 8052,
      "Ġfab": 8053,
      "Ġpuff": 8054,
      "asm": 8055,
      "Ġhaz": 8056,
      "eagues": 8057,
      "Ġshes": 8058,
      "igley": 8059,
      "Ġchile": 8060,
      "Ġchlor": 8061,
      "rific": 8062,
      "Ġbrings": 8063,
      "akers": 8064,
      "ryn": 8065,
      "Ġlend": 8066,
      "Ġintention": 8067,
      "rah": 8068,
      "ivia": 8069,
      "Ġattitude": 8070,
      "ĠGot": 8071,
      "Ġsmallest": 8072,
      "Ġaddressed": 8073,
      "Ġpublisher": 8074,
      "Ġwesten": 8075,
      "Ġhitch": 8076,
      "Ġnettie": 8077,
      "Ġellen": 8078,
      "Ġfemales": 8079,
      "Ġaccommod": 8080,
      "Ġlouisiana": 8081,
      "Ġbenefits": 8082,
      "Ġunconscious": 8083,
      "Ġconverted": 8084,
      "Ġursula": 8085,
      "Ġglorious": 8086,
      "Ġmallory": 8087,
      "icycle": 8088,
      "Ġslippers": 8089,
      "Ġautonomous": 8090,
      "jing": 8091,
      "Ġsank": 8092,
      "Ġsulf": 8093,
      "Ġbash": 8094,
      "Ġlan": 8095,
      "Ġtoky": 8096,
      "Ġnons": 8097,
      "Ġhom": 8098,
      "etime": 8099,
      "Ġstam": 8100,
      "Ġstole": 8101,
      "Ġwithd": 8102,
      "abor": 8103,
      "Ġsukie": 8104,
      "Ġvision": 8105,
      "Ġexhib": 8106,
      "aki": 8107,
      "Ġpepper": 8108,
      "Ġfeatured": 8109,
      "Ġenorm": 8110,
      "Ġpartner": 8111,
      "Ġmarvel": 8112,
      "Ġindig": 8113,
      "Ġbabys": 8114,
      "ĠCar": 8115,
      "Ġswiss": 8116,
      "Ġsteamer": 8117,
      "Ġreduce": 8118,
      "ĠDe": 8119,
      "Ġmamie": 8120,
      "Ġhighway": 8121,
      "Ġsyd": 8122,
      "Ġtrained": 8123,
      "ode": 8124,
      "Ġdecisions": 8125,
      "Ġrefrig": 8126,
      "Ġmidnight": 8127,
      "Ġuniversities": 8128,
      "ienna": 8129,
      "Ġtapere": 8130,
      "Ġcracker": 8131,
      "Ġrepeat": 8132,
      "Ġhawkins": 8133,
      "Ġrandom": 8134,
      "Ġdrugs": 8135,
      "Ġarticle": 8136,
      "Ġsquirrel": 8137,
      "Ġmanufacture": 8138,
      "ĠAmerican": 8139,
      "Ġeagle": 8140,
      "Ġrebecca": 8141,
      "Ġwestenra": 8142,
      "66": 8143,
      "cour": 8144,
      "Ġcaut": 8145,
      "Ġmice": 8146,
      "Ġyam": 8147,
      "Ġfare": 8148,
      "Ġfanny": 8149,
      "Ġnuts": 8150,
      "lets": 8151,
      "Ġweird": 8152,
      "Ġrum": 8153,
      "Ġross": 8154,
      "iry": 8155,
      "Ġkit": 8156,
      "Ġkhan": 8157,
      "Ġanger": 8158,
      "Ġdevering": 8159,
      "Ġmoves": 8160,
      "opard": 8161,
      "Ġaband": 8162,
      "Ġvic": 8163,
      "Ġagency": 8164,
      "Ġquit": 8165,
      "pton": 8166,
      "ĠEvery": 8167,
      "Ġresc": 8168,
      "Ġresign": 8169,
      "Ġheadquarters": 8170,
      "Ġbreat": 8171,
      "ancies": 8172,
      "Ġpersian": 8173,
      "Ġcutie": 8174,
      "anner": 8175,
      "ĠLe": 8176,
      "Ġmaintain": 8177,
      "Ġ1937": 8178,
      "Ġlaying": 8179,
      "Ġappearances": 8180,
      "Ġbananas": 8181,
      "Ġdetails": 8182,
      "Ġcritical": 8183,
      "Ġmasters": 8184,
      "Ġindividuals": 8185,
      "Ġinvestment": 8186,
      "Ġinfant": 8187,
      "Ġsensible": 8188,
      "Ġisabel": 8189,
      "Ġanchor": 8190,
      "Ġnascanor": 8191,
      "Ġtokyo": 8192,
      "Ġrefriger": 8193,
      "29": 8194,
      "cat": 8195,
      "lk": 8196,
      "rill": 8197,
      "ups": 8198,
      "uese": 8199,
      "Ġss": 8200,
      "Ġosc": 8201,
      "inburgh": 8202,
      "Ġfaced": 8203,
      "Ġpine": 8204,
      "Ġtoad": 8205,
      "edge": 8206,
      "ichael": 8207,
      "Ġwend": 8208,
      "star": 8209,
      "Ġron": 8210,
      "kel": 8211,
      "Ġstack": 8212,
      "Ġallows": 8213,
      "Ġorient": 8214,
      "Ġplains": 8215,
      "Ġwhoever": 8216,
      "Ġbride": 8217,
      "Ġunex": 8218,
      "Ġflights": 8219,
      "ĠMay": 8220,
      "Ġregret": 8221,
      "Ġcape": 8222,
      "Ġcreation": 8223,
      "Ġhighchair": 8224,
      "Ġthirsty": 8225,
      "Ġdrift": 8226,
      "Ġcolorado": 8227,
      "ussia": 8228,
      "Ġleads": 8229,
      "Ġburnt": 8230,
      "Ġmessy": 8231,
      "Ġinternet": 8232,
      "Ġreasonable": 8233,
      "Ġvaluable": 8234,
      "Ġsharks": 8235,
      "Ġfranklin": 8236,
      "Ġclosing": 8237,
      "Ġexistence": 8238,
      "Ġrequirements": 8239,
      "Ġsurrounding": 8240,
      "Ġsubstant": 8241,
      "Ġgym": 8242,
      "Ġautomob": 8243,
      "Ġswedish": 8244,
      "Ġillustrated": 8245,
      "Ġrenamed": 8246,
      "Ġdwellings": 8247,
      "Ġfucking": 8248,
      "Ġorganizations": 8249,
      "ĠOxford": 8250,
      "Ġsobrinini": 8251,
      "Ġtaperecorder": 8252,
      "boo": 8253,
      "bby": 8254,
      "cont": 8255,
      "Ġwacker": 8256,
      "Ġcd": 8257,
      "Ġyoud": 8258,
      "Ġtool": 8259,
      "Ġandrew": 8260,
      "Ġstable": 8261,
      "Ġkha": 8262,
      "Ġjagu": 8263,
      "Ġgoverness": 8264,
      "Ġfrag": 8265,
      "Ġmosc": 8266,
      "opes": 8267,
      "igg": 8268,
      "agers": 8269,
      "Ġmarine": 8270,
      "aved": 8271,
      "Ġbuggy": 8272,
      "iley": 8273,
      "Ġindones": 8274,
      "Ġcommitted": 8275,
      "Ġ38": 8276,
      "Ġentering": 8277,
      "Ġparagrap": 8278,
      "Ġspoons": 8279,
      "Ġ1938": 8280,
      "Ġcrossing": 8281,
      "Ġplanet": 8282,
      "Ġangle": 8283,
      "Ġbella": 8284,
      "Ġgraham": 8285,
      "Ġsucceed": 8286,
      "Ġnappie": 8287,
      "Ġportuguese": 8288,
      "Ġsausage": 8289,
      "Ġunfortunately": 8290,
      "Ġalaska": 8291,
      "Ġalternative": 8292,
      "Ġdakota": 8293,
      "Ġpeninsula": 8294,
      "35": 8295,
      "cing": 8296,
      "mal": 8297,
      "oard": 8298,
      "tic": 8299,
      "vior": 8300,
      "was": 8301,
      "Ġsession": 8302,
      "Ġdried": 8303,
      "Ġtoads": 8304,
      "owa": 8305,
      "Ġbegged": 8306,
      "Ġrein": 8307,
      "Ġket": 8308,
      "Ġkate": 8309,
      "Ġwhip": 8310,
      "urd": 8311,
      "Ġsean": 8312,
      "emen": 8313,
      "Ġard": 8314,
      "Ġlod": 8315,
      "Ġflour": 8316,
      "Ġmarble": 8317,
      "Ġprey": 8318,
      "Ġhappiness": 8319,
      "Ġdram": 8320,
      "Ġdrunk": 8321,
      "upon": 8322,
      "ampa": 8323,
      "Ġsquash": 8324,
      "Ġawfully": 8325,
      "Ġfactor": 8326,
      "Ġ85": 8327,
      "Ġ1953": 8328,
      "Ġmidst": 8329,
      "Ġuniversal": 8330,
      "they": 8331,
      "Ġestate": 8332,
      "Ġcoward": 8333,
      "Ġpeters": 8334,
      "Ġshouting": 8335,
      "Ġsamuel": 8336,
      "Ġshrine": 8337,
      "Ġemployed": 8338,
      "Ġpossibility": 8339,
      "Ġroughly": 8340,
      "Ġmaterials": 8341,
      "Ġrubbish": 8342,
      "Ġgordon": 8343,
      "Ġnervous": 8344,
      "bas": 8345,
      "hous": 8346,
      "Ġmah": 8347,
      "Ġfires": 8348,
      "Ġfiction": 8349,
      "Ġgens": 8350,
      "Ġlav": 8351,
      "Ġlions": 8352,
      "Ġnag": 8353,
      "ener": 8354,
      "adad": 8355,
      "amma": 8356,
      "Ġwhit": 8357,
      "Ġliver": 8358,
      "Ġcanal": 8359,
      "Ġsoph": 8360,
      "Ġalter": 8361,
      "Ġcomic": 8362,
      "Ġouter": 8363,
      "Ġtwinkle": 8364,
      "Ġpeoples": 8365,
      "Ġacts": 8366,
      "Ġhollow": 8367,
      "Ġcounting": 8368,
      "ahu": 8369,
      "ĠHello": 8370,
      "Ġdifferences": 8371,
      "Ġbushes": 8372,
      "Ġcattle": 8373,
      "Ġfireman": 8374,
      "Ġdecent": 8375,
      "Ġofficials": 8376,
      "Ġconstantly": 8377,
      "Ġbillion": 8378,
      "oba": 8379,
      "Ġengineer": 8380,
      "Ġsuggestion": 8381,
      "Ġdebuted": 8382,
      "ĠStreet": 8383,
      "Ġdiscover": 8384,
      "Ġdefeat": 8385,
      "Ġkicking": 8386,
      "Ġfeeding": 8387,
      "Ġscream": 8388,
      "Ġborden": 8389,
      "Ġchicasa": 8390,
      "Ġcousins": 8391,
      "Ġidentified": 8392,
      "Ġliberty": 8393,
      "Ġpreparation": 8394,
      "Ġcorporation": 8395,
      "ĠEnglish": 8396,
      "Ġethnic": 8397,
      "Ġdolph": 8398,
      "Ġinstructions": 8399,
      "Ġmetropolitan": 8400,
      "Ġnichol": 8401,
      "Ġyoghurt": 8402,
      "28": 8403,
      "Ġvel": 8404,
      "Ġmood": 8405,
      "Ġfuk": 8406,
      "Ġpoop": 8407,
      "Ġnong": 8408,
      "isp": 8409,
      "Ġhump": 8410,
      "Ġbeam": 8411,
      "ali": 8412,
      "Ġkaw": 8413,
      "ami": 8414,
      "Ġjay": 8415,
      "uman": 8416,
      "Ġshit": 8417,
      "quigley": 8418,
      "Ġbru": 8419,
      "Ġgoods": 8420,
      "aka": 8421,
      "Ġclif": 8422,
      "Ġclara": 8423,
      "ĠWest": 8424,
      "bee": 8425,
      "Ġlazy": 8426,
      "Ġglory": 8427,
      "Ġimpat": 8428,
      "Ġcreating": 8429,
      "Ġobst": 8430,
      "Ġstays": 8431,
      "Ġgenerous": 8432,
      "Ġfacts": 8433,
      "Ġcupboard": 8434,
      "Ġassess": 8435,
      "Ġraising": 8436,
      "Ġturtles": 8437,
      "Ġsuperior": 8438,
      "Ġstatistics": 8439,
      "Ġdiagn": 8440,
      "Ġukquigley": 8441,
      "Ġelephants": 8442,
      "Ġoxide": 8443,
      "Ġreacting": 8444,
      "Ġliterally": 8445,
      "Ġgravely": 8446,
      "Ġpipina": 8447,
      "Ġprocedure": 8448,
      "Ġarticles": 8449,
      "Ġkilomet": 8450,
      "mcnally": 8451,
      "Ġscissors": 8452,
      "Ġhartley": 8453,
      "Ġtremendous": 8454,
      "Ġukquigleymcnally": 8455,
      "jor": 8456,
      "mm": 8457,
      "vant": 8458,
      "Ġmant": 8459,
      "Ġmour": 8460,
      "Ġmild": 8461,
      "Ġdow": 8462,
      "Ġfern": 8463,
      "Ġpoured": 8464,
      "Ġlass": 8465,
      "ati": 8466,
      "Ġbeard": 8467,
      "adu": 8468,
      "Ġliz": 8469,
      "Ġnothin": 8470,
      "Ġsailing": 8471,
      "uma": 8472,
      "Ġabund": 8473,
      "ategy": 8474,
      "Ġclo": 8475,
      "Ġfled": 8476,
      "Ġsciences": 8477,
      "Ġdisaster": 8478,
      "Ġholl": 8479,
      "gging": 8480,
      "Ġdistress": 8481,
      "Ġstrategy": 8482,
      "Ġbedtime": 8483,
      "Ġterribly": 8484,
      "Ġ44": 8485,
      "Ġbarcel": 8486,
      "Ġ63": 8487,
      "Ġsimpl": 8488,
      "Ġjealous": 8489,
      "Ġverse": 8490,
      "Ġdigger": 8491,
      "Ġ1870": 8492,
      "Ġopposition": 8493,
      "Ġacquaint": 8494,
      "Ġviolence": 8495,
      "Ġcomposer": 8496,
      "Ġfirmly": 8497,
      "Ġthoroughly": 8498,
      "Ġdisagre": 8499,
      "Ġsodium": 8500,
      "Ġvoyage": 8501,
      "Ġmoscow": 8502,
      "rus": 8503,
      "xy": 8504,
      "Ġdal": 8505,
      "Ġdye": 8506,
      "Ġdirt": 8507,
      "Ġfitted": 8508,
      "Ġpitt": 8509,
      "Ġgwww": 8510,
      "Ġandre": 8511,
      "arl": 8512,
      "Ġbeads": 8513,
      "stan": 8514,
      "Ġreaching": 8515,
      "Ġwhoop": 8516,
      "Ġsoil": 8517,
      "thou": 8518,
      "Ġbloom": 8519,
      "ĠTr": 8520,
      "Ġpock": 8521,
      "Ġcarrier": 8522,
      "mpi": 8523,
      "Ġsitu": 8524,
      "Ġpopcorn": 8525,
      "force": 8526,
      "ĠGerman": 8527,
      "Ġmeters": 8528,
      "Ġcircles": 8529,
      "hart": 8530,
      "Ġdefense": 8531,
      "Ġtroubled": 8532,
      "Ġbands": 8533,
      "Ġbandage": 8534,
      "Ġunderstanding": 8535,
      "Ġprotected": 8536,
      "Ġ1920": 8537,
      "Ġcontrovers": 8538,
      "Ġequally": 8539,
      "Ġbuddy": 8540,
      "Ġmischief": 8541,
      "Ġdamaged": 8542,
      "Ġbehavior": 8543,
      "Ġwalter": 8544,
      "Ġstretch": 8545,
      "Ġignor": 8546,
      "Ġdearest": 8547,
      "Ġtypical": 8548,
      "Ġsuitcase": 8549,
      "Ġunexpected": 8550,
      "70": 8551,
      "eor": 8552,
      "found": 8553,
      "rane": 8554,
      "uge": 8555,
      "Ġtuesday": 8556,
      "Ġsed": 8557,
      "Ġfi": 8558,
      "Ġloop": 8559,
      "Ġinfection": 8560,
      "Ġbean": 8561,
      "Ġrory": 8562,
      "Ġkitten": 8563,
      "ainted": 8564,
      "Ġproport": 8565,
      "Ġuser": 8566,
      "Ġcliff": 8567,
      "ffin": 8568,
      "ucky": 8569,
      "Ġ39": 8570,
      "Ġdescend": 8571,
      "Ġaccur": 8572,
      "Ġpassenger": 8573,
      "Ġformat": 8574,
      "Ġhats": 8575,
      "Ġspeakers": 8576,
      "flower": 8577,
      "Ġ1936": 8578,
      "Ġ1927": 8579,
      "cretary": 8580,
      "Ġhopes": 8581,
      "Ġukmpi": 8582,
      "Ġenjoying": 8583,
      "Ġsafely": 8584,
      "Ġdistribution": 8585,
      "Ġcartoon": 8586,
      "Ġtrailer": 8587,
      "Ġgraph": 8588,
      "Ġadults": 8589,
      "ĠQu": 8590,
      "Ġwagons": 8591,
      "Ġanalysis": 8592,
      "Ġresistance": 8593,
      "rical": 8594,
      "Ġdiet": 8595,
      "Ġpitc": 8596,
      "Ġgoose": 8597,
      "Ġnail": 8598,
      "Ġink": 8599,
      "Ġejac": 8600,
      "Ġseated": 8601,
      "opl": 8602,
      "ulate": 8603,
      "Ġclip": 8604,
      "Ġunw": 8605,
      "Ġuneas": 8606,
      "Ġflav": 8607,
      "Ġbugs": 8608,
      "Ġhandies": 8609,
      "Ġhired": 8610,
      "Ġsweep": 8611,
      "Ġ75": 8612,
      "Ġmedals": 8613,
      "Ġtransm": 8614,
      "apping": 8615,
      "Ġprofession": 8616,
      "Ġdirections": 8617,
      "Ġexperien": 8618,
      "Ġceiling": 8619,
      "Ġquarters": 8620,
      "Ġduties": 8621,
      "Ġpanel": 8622,
      "Ġhealthy": 8623,
      "Ġcombination": 8624,
      "Ġdiego": 8625,
      "Ġmachines": 8626,
      "Ġtaxes": 8627,
      "Ġbriefly": 8628,
      "Ġsurrounded": 8629,
      "Ġpupils": 8630,
      "Ġselwyn": 8631,
      "Ġmemorial": 8632,
      "Ġsydney": 8633,
      "iven": 8634,
      "Ġack": 8635,
      "Ġcmon": 8636,
      "Ġdared": 8637,
      "Ġfoss": 8638,
      "Ġinner": 8639,
      "Ġhap": 8640,
      "oos": 8641,
      "urbed": 8642,
      "Ġasher": 8643,
      "Ġallies": 8644,
      "Ġspeaks": 8645,
      "Ġclient": 8646,
      "Ġleather": 8647,
      "active": 8648,
      "Ġwarn": 8649,
      "Ġmaam": 8650,
      "Ġcleared": 8651,
      "Ġmuscles": 8652,
      "Ġhoriz": 8653,
      "Ġ64": 8654,
      "Ġ1932": 8655,
      "Ġphilip": 8656,
      "Ġkisses": 8657,
      "Ġapproaching": 8658,
      "Ġproperties": 8659,
      "Ġissued": 8660,
      "Ġhymn": 8661,
      "olutely": 8662,
      "Ġargent": 8663,
      "Ġcustomer": 8664,
      "Ġreaction": 8665,
      "Ġdispos": 8666,
      "Ġamazing": 8667,
      "Ġsavings": 8668,
      "Ġsympathy": 8669,
      "Ġsequel": 8670,
      "Ġjessica": 8671,
      "Ġairlines": 8672,
      "Ġbarcelona": 8673,
      "mies": 8674,
      "pur": 8675,
      "Ġapt": 8676,
      "Ġmi": 8677,
      "erry": 8678,
      "onent": 8679,
      "Ġnasty": 8680,
      "asped": 8681,
      "Ġthre": 8682,
      "Ġewww": 8683,
      "Ġbees": 8684,
      "Ġrevenge": 8685,
      "Ġmeals": 8686,
      "unted": 8687,
      "abled": 8688,
      "elling": 8689,
      "Ġwhereas": 8690,
      "Ġmoreover": 8691,
      "Ġmarve": 8692,
      "Ġyeh": 8693,
      "ĠCon": 8694,
      "ĠCity": 8695,
      "Ġserb": 8696,
      "Ġsteal": 8697,
      "Ġregister": 8698,
      "Ġzoe": 8699,
      "Ġpersonality": 8700,
      "Ġmovements": 8701,
      "Ġdelivered": 8702,
      "Ġwriters": 8703,
      "Ġcommunist": 8704,
      "ographer": 8705,
      "Ġringing": 8706,
      "Ġconcert": 8707,
      "Ġceased": 8708,
      "castle": 8709,
      "Ġnursing": 8710,
      "Ġnomination": 8711,
      "Ġfavourite": 8712,
      "Ġclaims": 8713,
      "Ġbatteries": 8714,
      "Ġscrewdri": 8715,
      "Ġestimated": 8716,
      "Ġgranted": 8717,
      "bourne": 8718,
      "Ġanthony": 8719,
      "Ġvizier": 8720,
      "Ġtennis": 8721,
      "Ġpockets": 8722,
      "aver": 8723,
      "borough": 8724,
      "Ġtons": 8725,
      "Ġfeared": 8726,
      "Ġps": 8727,
      "Ġbecket": 8728,
      "Ġrunn": 8729,
      "Ġrent": 8730,
      "Ġjosh": 8731,
      "Ġanton": 8732,
      "Ġseed": 8733,
      "Ġsaul": 8734,
      "Ġdeed": 8735,
      "opus": 8736,
      "ushes": 8737,
      "Ġroot": 8738,
      "Ġproof": 8739,
      "Ġscoot": 8740,
      "Ġpregn": 8741,
      "Ġthrill": 8742,
      "Ġhelpless": 8743,
      "Ġsitcom": 8744,
      "Ġswings": 8745,
      "Ġ48": 8746,
      "Ġconsci": 8747,
      "Ġconsists": 8748,
      "crete": 8749,
      "Ġpajamas": 8750,
      "Ġconfusion": 8751,
      "Ġinsp": 8752,
      "Ġkissing": 8753,
      "Ġapprox": 8754,
      "Ġrosy": 8755,
      "Ġbelonging": 8756,
      "Ġgalleys": 8757,
      "Ġpuzzles": 8758,
      "Ġdifficulties": 8759,
      "Ġexpecting": 8760,
      "Ġsnail": 8761,
      "Ġarchie": 8762,
      "Ġaudience": 8763,
      "Ġprinciple": 8764,
      "Ġbrazilian": 8765,
      "Ġambass": 8766,
      "Ġpraise": 8767,
      "Ġwarrior": 8768,
      "Ġcontrast": 8769,
      "ĠSecretary": 8770,
      "Ġcolumbia": 8771,
      "Ġrectang": 8772,
      "Ġnonsense": 8773,
      "65": 8774,
      "cot": 8775,
      "greg": 8776,
      "mpt": 8777,
      "pet": 8778,
      "rors": 8779,
      "hee": 8780,
      "Ġald": 8781,
      "Ġwis": 8782,
      "inate": 8783,
      "Ġbust": 8784,
      "Ġduc": 8785,
      "Ġfid": 8786,
      "Ġfuel": 8787,
      "Ġpence": 8788,
      "Ġgap": 8789,
      "Ġgast": 8790,
      "Ġgree": 8791,
      "orters": 8792,
      "Ġinches": 8793,
      "aya": 8794,
      "Ġelf": 8795,
      "Ġlily": 8796,
      "Ġyourselves": 8797,
      "ople": 8798,
      "ands": 8799,
      "Ġaboard": 8800,
      "inde": 8801,
      "Ġconvin": 8802,
      "osis": 8803,
      "Ġtwins": 8804,
      "Ġquot": 8805,
      "Ġprices": 8806,
      "asses": 8807,
      "Ġdaylight": 8808,
      "Ġdisg": 8809,
      "Ġdisgr": 8810,
      "Ġcounted": 8811,
      "Ġremove": 8812,
      "Ġguar": 8813,
      "ĠHa": 8814,
      "Ġengage": 8815,
      "Ġjohnathan": 8816,
      "Ġmusab": 8817,
      "Ġ49": 8818,
      "Ġentry": 8819,
      "Ġawh": 8820,
      "Ġdrawer": 8821,
      "Ġbattles": 8822,
      "iki": 8823,
      "Ġclothing": 8824,
      "Ġ1935": 8825,
      "Ġappeal": 8826,
      "Ġmounted": 8827,
      "Ġclubs": 8828,
      "Ġabsor": 8829,
      "Ġregarding": 8830,
      "Ġcontained": 8831,
      "Ġtribut": 8832,
      "Ġstretched": 8833,
      "Ġhindu": 8834,
      "Ġhedge": 8835,
      "Ġcinema": 8836,
      "Ġstrategic": 8837,
      "Ġvenezuela": 8838,
      "Ġscrewdriver": 8839,
      "bot": 8840,
      "lon": 8841,
      "pers": 8842,
      "Ġaa": 8843,
      "Ġobe": 8844,
      "Ġbars": 8845,
      "Ġcared": 8846,
      "Ġfict": 8847,
      "Ġfasc": 8848,
      "Ġpets": 8849,
      "Ġnanny": 8850,
      "enous": 8851,
      "Ġheap": 8852,
      "acco": 8853,
      "Ġkam": 8854,
      "Ġjazz": 8855,
      "usie": 8856,
      "Ġtrot": 8857,
      "Ġseeking": 8858,
      "uls": 8859,
      "Ġviet": 8860,
      "Ġconway": 8861,
      "eline": 8862,
      "Ġarct": 8863,
      "raham": 8864,
      "Ġreprod": 8865,
      "Ġguests": 8866,
      "ints": 8867,
      "Ġswept": 8868,
      "Ġstrain": 8869,
      "Ġregist": 8870,
      "Ġstops": 8871,
      "Ġfactors": 8872,
      "Ġassurance": 8873,
      "Ġreplace": 8874,
      "Ġprizes": 8875,
      "Ġwrites": 8876,
      "Ġarmitage": 8877,
      "Ġprotests": 8878,
      "Ġsadly": 8879,
      "Ġchiefs": 8880,
      "Ġmassive": 8881,
      "Ġcombat": 8882,
      "Ġcovering": 8883,
      "Ġtasty": 8884,
      "ĠThanks": 8885,
      "Ġdigging": 8886,
      "Ġdefinition": 8887,
      "Ġtreaty": 8888,
      "Ġsailor": 8889,
      "Ġjumper": 8890,
      "Ġsexual": 8891,
      "Ġgrammy": 8892,
      "Ġukrainian": 8893,
      "Ġproposals": 8894,
      "Ġvehicles": 8895,
      "Ġtransferred": 8896,
      "Ġwebsite": 8897,
      "Ġconclusion": 8898,
      "Ġexchange": 8899,
      "Ġrhodes": 8900,
      "Ġmushroom": 8901,
      "Ġnascanora": 8902,
      "Ġparagraph": 8903,
      "crow": 8904,
      "kers": 8905,
      "lace": 8906,
      "pres": 8907,
      "walk": 8908,
      "Ġtat": 8909,
      "Ġtund": 8910,
      "Ġgross": 8911,
      "Ġgala": 8912,
      "orus": 8913,
      "Ġrebell": 8914,
      "Ġnoises": 8915,
      "Ġcanoe": 8916,
      "aine": 8917,
      "Ġwhereupon": 8918,
      "Ġexcess": 8919,
      "Ġmangan": 8920,
      "Ġpeac": 8921,
      "Ġplayoff": 8922,
      "Ġblake": 8923,
      "ĠAr": 8924,
      "Ġgreg": 8925,
      "ĠMary": 8926,
      "Ġbubble": 8927,
      "Ġneedn": 8928,
      "Ġdrusie": 8929,
      "Ġhelpful": 8930,
      "Ġfounder": 8931,
      "Ġtalkin": 8932,
      "Ġending": 8933,
      "Ġzoom": 8934,
      "Ġdepos": 8935,
      "Ġbengal": 8936,
      "bras": 8937,
      "Ġ77": 8938,
      "Ġshorts": 8939,
      "Ġconfused": 8940,
      "Ġtyler": 8941,
      "Ġemma": 8942,
      "Ġdresses": 8943,
      "Ġindiana": 8944,
      "enny": 8945,
      "Ġclassic": 8946,
      "Ġsilk": 8947,
      "ĠThree": 8948,
      "Ġcopper": 8949,
      "coming": 8950,
      "Ġdestruction": 8951,
      "Ġdanes": 8952,
      "Ġhesitated": 8953,
      "Ġaccordingly": 8954,
      "dded": 8955,
      "Ġjewels": 8956,
      "Ġmontreal": 8957,
      "Ġdummy": 8958,
      "Ġskills": 8959,
      "Ġsavage": 8960,
      "Ġathletes": 8961,
      "Ġapplication": 8962,
      "Ġretirement": 8963,
      "Ġmerriman": 8964,
      "Ġjethro": 8965,
      "Ġbureau": 8966,
      "Ġhurricane": 8967,
      "45": 8968,
      "99": 8969,
      "bag": 8970,
      "cr": 8971,
      "folk": 8972,
      "ivery": 8973,
      "wi": 8974,
      "Ġae": 8975,
      "Ġsunny": 8976,
      "had": 8977,
      "Ġbak": 8978,
      "Ġbicycle": 8979,
      "Ġcem": 8980,
      "Ġdial": 8981,
      "Ġgann": 8982,
      "orous": 8983,
      "organ": 8984,
      "Ġrebu": 8985,
      "Ġsector": 8986,
      "Ġnodded": 8987,
      "Ġalg": 8988,
      "andra": 8989,
      "Ġtrace": 8990,
      "Ġabd": 8991,
      "ounds": 8992,
      "Ġtwist": 8993,
      "Ġpeel": 8994,
      "ĠWith": 8995,
      "Ġflow": 8996,
      "Ġflies": 8997,
      "Ġgreet": 8998,
      "Ġcolomb": 8999,
      "Ġgloom": 9000,
      "Ġfarming": 9001,
      "Ġreduction": 9002,
      "Ġzip": 9003,
      "ĠPut": 9004,
      "Ġ47": 9005,
      "Ġpatience": 9006,
      "Ġbatt": 9007,
      "Ġinvite": 9008,
      "Ġinterfe": 9009,
      "Ġburden": 9010,
      "Ġfuneral": 9011,
      "shirt": 9012,
      "Ġvisits": 9013,
      "Ġdefined": 9014,
      "Ġfiles": 9015,
      "Ġreceiving": 9016,
      "Ġinsisted": 9017,
      "Ġapolog": 9018,
      "Ġroller": 9019,
      "Ġplanes": 9020,
      "Ġincred": 9021,
      "Ġpretending": 9022,
      "Ġrosie": 9023,
      "Ġhunter": 9024,
      "Ġrecognizes": 9025,
      "Ġchecking": 9026,
      "Ġsolution": 9027,
      "Ġsmoking": 9028,
      "Ġmistress": 9029,
      "Ġcommanded": 9030,
      "Ġearliest": 9031,
      "Ġscrub": 9032,
      "Ġjoining": 9033,
      "Ġshrines": 9034,
      "Ġmaps": 9035,
      "Ġviolent": 9036,
      "Ġnutt": 9037,
      "Ġfolded": 9038,
      "Ġwidow": 9039,
      "Ġpumpkin": 9040,
      "Ġhamburger": 9041,
      "ĠAgainst": 9042,
      "Ġconvinced": 9043,
      "Ġcemeter": 9044,
      "fs": 9045,
      "giving": 9046,
      "hop": 9047,
      "lia": 9048,
      "och": 9049,
      "uan": 9050,
      "vo": 9051,
      "wart": 9052,
      "woman": 9053,
      "Ġsou": 9054,
      "Ġoink": 9055,
      "rett": 9056,
      "Ġbree": 9057,
      "Ġpunch": 9058,
      "Ġlorry": 9059,
      "Ġweas": 9060,
      "Ġridge": 9061,
      "Ġreviews": 9062,
      "Ġrevenue": 9063,
      "Ġkap": 9064,
      "Ġjin": 9065,
      "Ġsolo": 9066,
      "iels": 9067,
      "ustomed": 9068,
      "Ġalliance": 9069,
      "Ġtwin": 9070,
      "ela": 9071,
      "Ġpeck": 9072,
      "Ġaggie": 9073,
      "Ġcole": 9074,
      "Ġloan": 9075,
      "Ġshakes": 9076,
      "Ġafterward": 9077,
      "Ġnewton": 9078,
      "ĠSp": 9079,
      "Ġactors": 9080,
      "Ġsmack": 9081,
      "Ġchess": 9082,
      "Ġmissus": 9083,
      "Ġstead": 9084,
      "Ġcapable": 9085,
      "Ġsurre": 9086,
      "Ġ46": 9087,
      "Ġinstantly": 9088,
      "Ġ55": 9089,
      "Ġsyn": 9090,
      "Ġspoil": 9091,
      "Ġpickle": 9092,
      "ouncill": 9093,
      "ĠFirst": 9094,
      "ĠJim": 9095,
      "Ġlargely": 9096,
      "Ġdivine": 9097,
      "Ġvisible": 9098,
      "Ġapal": 9099,
      "Ġsharply": 9100,
      "Ġeducational": 9101,
      "Ġsenator": 9102,
      "Ġcomputers": 9103,
      "Ġswinging": 9104,
      "Ġsuitable": 9105,
      "Ġessay": 9106,
      "Ġhastily": 9107,
      "Ġelderly": 9108,
      "Ġcategory": 9109,
      "Ġbronze": 9110,
      "away": 9111,
      "care": 9112,
      "mble": 9113,
      "vis": 9114,
      "Ġtune": 9115,
      "Ġsack": 9116,
      "Ġcries": 9117,
      "Ġmaced": 9118,
      "Ġdur": 9119,
      "Ġdug": 9120,
      "Ġtoot": 9121,
      "Ġinformed": 9122,
      "Ġbew": 9123,
      "Ġbeef": 9124,
      "Ġri": 9125,
      "entions": 9126,
      "Ġkin": 9127,
      "amation": 9128,
      "Ġjord": 9129,
      "Ġmeiji": 9130,
      "Ġshinto": 9131,
      "apa": 9132,
      "Ġleima": 9133,
      "ĠTw": 9134,
      "Ġpartners": 9135,
      "Ġpercy": 9136,
      "Ġcommit": 9137,
      "ogy": 9138,
      "Ġdisturb": 9139,
      "Ġcapit": 9140,
      "Ġlighter": 9141,
      "Ġrelax": 9142,
      "Ġcurios": 9143,
      "Ġdelivery": 9144,
      "Ġbreaks": 9145,
      "Ġinvasion": 9146,
      "Ġreflected": 9147,
      "Ġ178": 9148,
      "Ġtai": 9149,
      "Ġhonours": 9150,
      "Ġsalary": 9151,
      "Ġbutterflies": 9152,
      "Ġchecked": 9153,
      "Ġdevoted": 9154,
      "Ġpuzzled": 9155,
      "Ġsubjects": 9156,
      "Ġbroadway": 9157,
      "Ġhosted": 9158,
      "Ġoxid": 9159,
      "Ġdespair": 9160,
      "Ġheathen": 9161,
      "Ġparticipated": 9162,
      "Ġpremier": 9163,
      "Ġgrammar": 9164,
      "Ġtoothbrush": 9165,
      "Ġmagnific": 9166,
      "Ġnappy": 9167,
      "Ġutterly": 9168,
      "Ġnoddy": 9169,
      "Ġconductor": 9170,
      "Ġideal": 9171,
      "Ġawhile": 9172,
      "48": 9173,
      "ajo": 9174,
      "cut": 9175,
      "gun": 9176,
      "gage": 9177,
      "kind": 9178,
      "oki": 9179,
      "pher": 9180,
      "wed": 9181,
      "Ġtire": 9182,
      "Ġira": 9183,
      "Ġole": 9184,
      "Ġowe": 9185,
      "erts": 9186,
      "Ġpork": 9187,
      "Ġlent": 9188,
      "Ġlith": 9189,
      "Ġreform": 9190,
      "Ġreception": 9191,
      "Ġforbid": 9192,
      "irs": 9193,
      "Ġfridge": 9194,
      "umps": 9195,
      "Ġallied": 9196,
      "Ġali": 9197,
      "Ġalan": 9198,
      "Ġalar": 9199,
      "Ġtrap": 9200,
      "Ġabbey": 9201,
      "Ġspit": 9202,
      "Ġerror": 9203,
      "ĠWil": 9204,
      "Ġtee": 9205,
      "Ġshade": 9206,
      "Ġcargo": 9207,
      "Ġflesh": 9208,
      "Ġmarc": 9209,
      "Ġbetray": 9210,
[...]
