{
  "version": "1.0",
  "truncation": null,
  "padding": null,
  "added_tokens": [
    {
      "id": 0,
      "content": "<pad>",
      "single_word": false,
      "lstrip": false,
      "rstrip": false,
      "normalized": false,
      "special": true
    },
    {
      "id": 1,
      "content": "<s>",
      "single_word": false,
      "lstrip": false,
      "rstrip": false,
      "normalized": false,
      "special": true
    },
    {
      "id": 2,
      "content": "</s>",
      "single_word": false,
      "lstrip": false,
      "rstrip": false,
      "normalized": false,
      "special": true
    }
  ],
  "normalizer": {
    "type": "NFKC"
  },
  "pre_tokenizer": {
    "type": "ByteLevel",
    "add_prefix_space": true,
    "trim_offsets": true,
    "use_regex": true
  },
  "post_processor": {
    "type": "ByteLevel",
    "add_prefix_space": true,
    "trim_offsets": true,
    "use_regex": true
  },
  "decoder": {
    "type": "ByteLevel",
    "add_prefix_space": true,
    "trim_offsets": true,
    "use_regex": true
  },
  "model": {
    "type": "BPE",
    "dropout": null,
    "unk_token": null,
    "continuing_subword_prefix": null,
    "end_of_word_suffix": null,
    "fuse_unk": false,
    "byte_fallback": false,
    "ignore_merges": false,
    "vocab": {
      "<pad>": 0,
      "<s>": 1,
      "</s>": 2,
      "!": 3,
      "'": 4,
      ",": 5,
      "-": 6,
      ".": 7,
      "0": 8,
      "1": 9,
      "2": 10,
      "3": 11,
      "4": 12,
      "5": 13,
      "6": 14,
      "7": 15,
      "8": 16,
      "9": 17,
      "?": 18,
      "A": 19,
      "B": 20,
      "C": 21,
      "D": 22,
      "E": 23,
      "F": 24,
      "G": 25,
      "H": 26,
      "I": 27,
      "J": 28,
      "K": 29,
      "L": 30,
      "M": 31,
      "N": 32,
      "O": 33,
      "P": 34,
      "Q": 35,
      "R": 36,
      "S": 37,
      "T": 38,
      "U": 39,
      "V": 40,
      "W": 41,
      "X": 42,
      "Y": 43,
      "Z": 44,
      "_": 45,
      "a": 46,
      "b": 47,
      "c": 48,
      "d": 49,
      "e": 50,
      "f": 51,
      "g": 52,
      "h": 53,
      "i": 54,
      "j": 55,
      "k": 56,
      "l": 57,
      "m": 58,
      "n": 59,
      "o": 60,
      "p": 61,
      "q": 62,
      "r": 63,
      "s": 64,
      "t": 65,
      "u": 66,
      "v": 67,
      "w": 68,
      "x": 69,
      "y": 70,
      "z": 71,
      "¦": 72,
      "©": 73,
      "·": 74,
      "Ã": 75,
      "É": 76,
      "Ê": 77,
      "Ċ": 78,
      "Ġ": 79,
      "Į": 80,
      "Ļ": 81,
      "Ľ": 82,
      "ł": 83,
      "Ġt": 84,
      "he": 85,
      "Ġa": 86,
      "Ġi": 87,
      "Ġw": 88,
      "Ġs": 89,
      "Ġthe": 90,
      "ou": 91,
      "re": 92,
      "Ġo": 93,
      "ha": 94,
      "in": 95,
      "Ġb": 96,
      "Ġm": 97,
      "Ġy": 98,
      "Ġc": 99,
      "Ġd": 100,
      "er": 101,
      "nd": 102,
      "Ġyou": 103,
      "Ġf": 104,
      "on": 105,
      "Ġg": 106,
      "Ġp": 107,
      "ll": 108,
      "ing": 109,
      "Ġl": 110,
      "Ġto": 111,
      "an": 112,
      "Ġn": 113,
      "hat": 114,
      "or": 115,
      "es": 116,
      "ed": 117,
      "en": 118,
      "Ġand": 119,
      "is": 120,
      "Ġhe": 121,
      "it": 122,
      "Ġin": 123,
      "Ġit": 124,
      "ar": 125,
      "Ġof": 126,
      "as": 127,
      "Ġh": 128,
      "om": 129,
      "at": 130,
      "'s": 131,
      "ow": 132,
      "Ġha": 133,
      "Ġthat": 134,
      "Ġth": 135,
      "ot": 136,
      "ve": 137,
      "et": 138,
      "ay": 139,
      "Ġon": 140,
      "le": 141,
      "Ġwe": 142,
      "ic": 143,
      "us": 144,
      "Ġis": 145,
      "Ġbe": 146,
      "Ġe": 147,
      "id": 148,
      "gh": 149,
      "Ġr": 150,
      "ld": 151,
      "ut": 152,
      "al": 153,
      "Ġdo": 154,
      "Ġu": 155,
      "Ġk": 156,
      "oo": 157,
      "Ġwas": 158,
      "'t": 159,
      "Ġre": 160,
      "Ġst": 161,
      "Ġfor": 162,
      "ke": 163,
      "ver": 164,
      "Ġwhat": 165,
      "ght": 166,
      "ac": 167,
      "ad": 168,
      "Ġj": 169,
      "im": 170,
      "ir": 171,
      "se": 172,
      "Ġme": 173,
      "ion": 174,
      "am": 175,
      "ent": 176,
      "ly": 177,
      "Ġan": 178,
      "Ġgo": 179,
      "Ġwh": 180,
      "out": 181,
      "st": 182,
      "ight": 183,
      "ea": 184,
      "Ġthis": 185,
      "ith": 186,
      "Ġse": 187,
      "Ġno": 188,
      "ome": 189,
      "Ġwith": 190,
      "Ġli": 191,
      "Ġnot": 192,
      "Ġas": 193,
      "her": 194,
      "Ġhave": 195,
      "Ġthere": 196,
      "all": 197,
      "Ġare": 198,
      "ur": 199,
      "Ġshe": 200,
      "ch": 201,
      "Ġkn": 202,
      "ould": 203,
      "Ġthey": 204,
      "Ġcan": 205,
      "ill": 206,
      "Ġat": 207,
      "Ġso": 208,
      "Ġdon": 209,
      "ro": 210,
      "ter": 211,
      "Ġwhe": 212,
      "Ġyour": 213,
      "ce": 214,
      "Ġbut": 215,
      "Ġone": 216,
      "ie": 217,
      "Ġfr": 218,
      "ust": 219,
      "Ġknow": 220,
      "xx": 221,
      "Ġne": 222,
      "ant": 223,
      "Ġmy": 224,
      "eah": 225,
      "ct": 226,
      "Ġoh": 227,
      "Ġall": 228,
      "il": 229,
      "Ġde": 230,
      "un": 231,
      "ook": 232,
      "op": 233,
      "Ġ1": 234,
      "Ġmo": 235,
      "Ġhis": 236,
      "Ġsa": 237,
      "Ġlike": 238,
      "ĠI": 239,
      "ain": 240,
      "Ġher": 241,
      "Ġsh": 242,
      "Ġyeah": 243,
      "Ġup": 244,
      "um": 245,
      "Ġal": 246,
      "Ġget": 247,
      "Ġtr": 248,
      "Ġdid": 249,
      "and": 250,
      "our": 251,
      "Ġab": 252,
      "ge": 253,
      "ink": 254,
      "pp": 255,
      "ood": 256,
      "'re": 257,
      "Ġor": 258,
      "Ġhere": 259,
      "ake": 260,
      "Ġsee": 261,
      "Ġpl": 262,
      "ab": 263,
      "ol": 264,
      "th": 265,
      "Ġsu": 266,
      "Ġout": 267,
      "ig": 268,
      "Ġhad": 269,
      "Ġjust": 270,
      "ul": 271,
      "ck": 272,
      "art": 273,
      "han": 274,
      "Ġhim": 275,
      "..": 276,
      "'m": 277,
      "very": 278,
      "ack": 279,
      "ell": 280,
      "Ġfrom": 281,
      "Ġlook": 282,
      "Ġif": 283,
      "ess": 284,
      "Ġ2": 285,
      "na": 286,
      "Ġby": 287,
      "Ġsome": 288,
      "qu": 289,
      "Ġcom": 290,
      "est": 291,
      "ation": 292,
      "Ġv": 293,
      "red": 294,
      "Ġgot": 295,
      "Ġnow": 296,
      "Ġwho": 297,
      "Ġthink": 298,
      "ers": 299,
      "Ġwant": 300,
      "Ġright": 301,
      "Ġsp": 302,
      "Ġwor": 303,
      "Ġwere": 304,
      "Ġwell": 305,
      "ame": 306,
      "Ġus": 307,
      "ist": 308,
      "ind": 309,
      "one": 310,
      "Ġabout": 311,
      "nt": 312,
      "Ġch": 313,
      "ive": 314,
      "Ġthem": 315,
      "itt": 316,
      "ally": 317,
      "os": 318,
      "res": 319,
      "'ll": 320,
      "ap": 321,
      "Ġwhen": 322,
      "Ġwould": 323,
      "Ġthen": 324,
      "Ġsaid": 325,
      "el": 326,
      "ong": 327,
      "ry": 328,
      "Ġbo": 329,
      "Ġbr": 330,
      "ound": 331,
      "ast": 332,
      "fe": 333,
      "ard": 334,
      "Ġok": 335,
      "Ġwill": 336,
      "Ġgood": 337,
      "Ġany": 338,
      "Ġxx": 339,
      "Ġxxx": 340,
      "ate": 341,
      "Ġhow": 342,
      "Ġex": 343,
      "Ġcon": 344,
      "Ġwhere": 345,
      "ri": 346,
      "Ġcome": 347,
      "Ġman": 348,
      "own": 349,
      "Ġsay": 350,
      "Ġtw": 351,
      "Ġyes": 352,
      "Ġokay": 353,
      "Ġlo": 354,
      "ak": 355,
      "Ġpro": 356,
      "em": 357,
      "Ġtim": 358,
      "ber": 359,
      "ven": 360,
      "Ġer": 361,
      "ort": 362,
      "use": 363,
      "Ġam": 364,
      "Ġlet": 365,
      "Ġ20": 366,
      "ep": 367,
      "ies": 368,
      "ag": 369,
      "Ġput": 370,
      "ice": 371,
      "ick": 372,
      "if": 373,
      "Ġ19": 374,
      "Ġgr": 375,
      "Ġar": 376,
      "ich": 377,
      "ine": 378,
      "Ġag": 379,
      "ca": 380,
      "Ġgoing": 381,
      "hing": 382,
      "Ġle": 383,
      "Ġcl": 384,
      "ough": 385,
      "Ġthan": 386,
      "Ġ'": 387,
      "Ġpe": 388,
      "ittle": 389,
      "'ve": 390,
      "Ġlittle": 391,
      "ther": 392,
      "Ġhas": 393,
      "Ġfe": 394,
      "ore": 395,
      "Ġtime": 396,
      "ous": 397,
      "Ġmore": 398,
      "ide": 399,
      "dy": 400,
      "Ġvery": 401,
      "Ġcould": 402,
      "Ġro": 403,
      "Ġco": 404,
      "other": 405,
      "Ġdown": 406,
      "Ġback": 407,
      "Ġint": 408,
      "Ġun": 409,
      "Ġtwo": 410,
      "way": 411,
      "Ġqu": 412,
      "Ġaf": 413,
      "Ġbeen": 414,
      "ity": 415,
      "Ġtoo": 416,
      "cause": 417,
      "Ġplay": 418,
      "Ġoff": 419,
      "Ġwhich": 420,
      "ose": 421,
      "Ġuh": 422,
      "ree": 423,
      "Ġover": 424,
      "Ġthing": 425,
      "Ġbl": 426,
      "ite": 427,
      "Ġother": 428,
      "lf": 429,
      "ip": 430,
      "Ġwhy": 431,
      "ra": 432,
      "Ġen": 433,
      "ace": 434,
      "ment": 435,
      "Ġgon": 436,
      "Ġdoes": 437,
      "Ġgonna": 438,
      "ish": 439,
      "are": 440,
      "my": 441,
      "ild": 442,
      "ud": 443,
      "Ġtake": 444,
      "ear": 445,
      "Ġcha": 446,
      "Ġtheir": 447,
      "Ġmake": 448,
      "ian": 449,
      "omet": 450,
      "Ġpr": 451,
      "ĠY": 452,
      "orn": 453,
      "Ġtell": 454,
      "ople": 455,
      "ft": 456,
      "Ġmay": 457,
      "Ġpeople": 458,
      "reat": 459,
      "ase": 460,
      "Ġsomet": 461,
      "ure": 462,
      "ought": 463,
      "nder": 464,
      "ia": 465,
      "Ġsha": 466,
      "Ġpo": 467,
      "alk": 468,
      "Ġcar": 469,
      "Ġmar": 470,
      "Ġjo": 471,
      "Ġte": 472,
      "Ġfir": 473,
      "Ġway": 474,
      "age": 475,
      "Ġbecause": 476,
      "Ġwork": 477,
      "Ġagain": 478,
      "Ġafter": 479,
      "iss": 480,
      "ty": 481,
      "ue": 482,
      "uck": 483,
      "Ġneed": 484,
      "ire": 485,
      "Ġevery": 486,
      "Ġfirst": 487,
      "Ġmean": 488,
      "iv": 489,
      "Ġgu": 490,
      "ount": 491,
      "Ġcall": 492,
      "ĠT": 493,
      "Ġfl": 494,
      "Ġour": 495,
      "ary": 496,
      "ĠW": 497,
      "ble": 498,
      "mp": 499,
      "urn": 500,
      "ect": 501,
      "uh": 502,
      "Ġthese": 503,
      "Ġpart": 504,
      "Ġbet": 505,
      "ass": 506,
      "Ġreally": 507,
      "Ġday": 508,
      "Ġsc": 509,
      "Ġinto": 510,
      "Ġshould": 511,
      "ade": 512,
      "Ġad": 513,
      "hed": 514,
      "Ġmu": 515,
      "ater": 516,
      "Ġnew": 517,
      "ys": 518,
      "Ġpre": 519,
      "act": 520,
      "Ġonly": 521,
      "ĠA": 522,
      "Ġfo": 523,
      "Ġdidn": 524,
      "ied": 525,
      "so": 526,
      "Ġmom": 527,
      "Ġwan": 528,
      "av": 529,
      "Ġyear": 530,
      "ren": 531,
      "wn": 532,
      "pl": 533,
      "Ġmuch": 534,
      "day": 535,
      "ather": 536,
      "Ġsomething": 537,
      "ord": 538,
      "self": 539,
      "Ġhapp": 540,
      "Ġwr": 541,
      "we": 542,
      "thing": 543,
      "Ġac": 544,
      "bo": 545,
      "ress": 546,
      "pt": 547,
      "Ġbu": 548,
      "Ġthr": 549,
      "ady": 550,
      "Ġwanna": 551,
      "Ġdad": 552,
      "Ġbig": 553,
      "Ġdis": 554,
      "ile": 555,
      "Ġum": 556,
      "Ġper": 557,
      "Ġthank": 558,
      "Ġhel": 559,
      "ving": 560,
      "fore": 561,
      "ff": 562,
      "ang": 563,
      "ach": 564,
      "Ġact": 565,
      "Ġmr": 566,
      "Ġho": 567,
      "per": 568,
      "ved": 569,
      "Ġple": 570,
      "ool": 571,
      "Ġbab": 572,
      "Ġgir": 573,
      "Ġdr": 574,
      "be": 575,
      "ting": 576,
      "ouse": 577,
      "co": 578,
      "Ġsm": 579,
      "Ġthose": 580,
      "Ġrem": 581,
      "Ġthree": 582,
      "Ġcr": 583,
      "'d": 584,
      "Ġla": 585,
      "Ġnever": 586,
      "Ġhand": 587,
      "Ġlong": 588,
      "Ġdoing": 589,
      "Ġmade": 590,
      "iz": 591,
      "ance": 592,
      "te": 593,
      "Ġgirl": 594,
      "Ġke": 595,
      "Ġbefore": 596,
      "Ġalso": 597,
      "Ġunder": 598,
      "cl": 599,
      "ĠM": 600,
      "Ġhar": 601,
      "Ġgive": 602,
      "Ġtalk": 603,
      "ory": 604,
      "ci": 605,
      "ĠS": 606,
      "ict": 607,
      "ated": 608,
      "Ġask": 609,
      "Ġ201": 610,
      "Ġeven": 611,
      "able": 612,
      "ub": 613,
      "Ġold": 614,
      "ions": 615,
      "Ġlove": 616,
      "Ġwa": 617,
      "man": 618,
      "Ġhome": 619,
      "Ġah": 620,
      "Ġwent": 621,
      "atch": 622,
      "Ġlea": 623,
      "ens": 624,
      "Ġcount": 625,
      "ull": 626,
      "Ġthings": 627,
      "int": 628,
      "Ġchild": 629,
      "Ġhelp": 630,
      "Ġche": 631,
      "Ġaway": 632,
      "Ġits": 633,
      "Ġapp": 634,
      "Ġcomm": 635,
      "Ġgreat": 636,
      "ix": 637,
      "Ġel": 638,
      "Ġmin": 639,
      "Ġhi": 640,
      "Ġbit": 641,
      "Ġthought": 642,
      "ĠO": 643,
      "Ġtry": 644,
      "les": 645,
      "Ġ.": 646,
      "Ġfind": 647,
      "Ġmum": 648,
      "Ġhouse": 649,
      "Ġind": 650,
      "Ġser": 651,
      "ise": 652,
      "Ġcomp": 653,
      "Ġanother": 654,
      "ps": 655,
      "Ġmust": 656,
      "Ġeat": 657,
      "Ġbaby": 658,
      "Ġdone": 659,
      "Ġboy": 660,
      "ath": 661,
      "Ġhey": 662,
      "Ġmany": 663,
      "ful": 664,
      "Ġshow": 665,
      "Ġplease": 666,
      "Ġwon": 667,
      "ons": 668,
      "Ġturn": 669,
      "Ġcont": 670,
      "Ġlast": 671,
      "get": 672,
      "ence": 673,
      "Ġname": 674,
      "Ġmiss": 675,
      "Ġlot": 676,
      "ors": 677,
      "ward": 678,
      "Ġbel": 679,
      "Ġchan": 680,
      "ug": 681,
      "ves": 682,
      "Ġsl": 683,
      "ĠN": 684,
      "ww": 685,
      "Ġstill": 686,
      "Ġcame": 687,
      "Ġsure": 688,
      "Ġstart": 689,
      "Ġma": 690,
      "ling": 691,
      "ious": 692,
      "Ġsch": 693,
      "Ġnight": 694,
      "Ġbook": 695,
      "ave": 696,
      "hm": 697,
      "Ġthrough": 698,
      "Ġmon": 699,
      "Ġcare": 700,
      "Ġres": 701,
      "Ġmost": 702,
      "iend": 703,
      "Ġstr": 704,
      "ĠC": 705,
      "ock": 706,
      "Ġkind": 707,
      "Ġpol": 708,
      "Ġerm": 709,
      "Ġele": 710,
      "00": 711,
      "Ġkeep": 712,
      "ily": 713,
      "ans": 714,
      "Ġfour": 715,
      "body": 716,
      "Ġear": 717,
      "ne": 718,
      "ms": 719,
      "unn": 720,
      "Ġisn": 721,
      "oney": 722,
      "Ġop": 723,
      "Ġmight": 724,
      "Ġhead": 725,
      "Ġbot": 726,
      "ĠYeah": 727,
      "Ġwait": 728,
      "Ġsit": 729,
      "Ġdif": 730,
      "Ġph": 731,
      "Ġbetter": 732,
      "ark": 733,
      "ign": 734,
      "Ġnice": 735,
      "Ġfound": 736,
      "land": 737,
      "Ġfeel": 738,
      "air": 739,
      "tain": 740,
      "ng": 741,
      "ually": 742,
      "ah": 743,
      "up": 744,
      "aking": 745,
      "als": 746,
      "Ġrep": 747,
      "Ġstop": 748,
      "Ġcalled": 749,
      "Ġused": 750,
      "Ġsw": 751,
      "ates": 752,
      "ail": 753,
      "Ġcour": 754,
      "Ġlife": 755,
      "xt": 756,
      "ember": 757,
      "Ġwar": 758,
      "Ġanything": 759,
      "Ġchar": 760,
      "iver": 761,
      "Ġsor": 762,
      "Ġcol": 763,
      "Ġyears": 764,
      "ened": 765,
      "Ġfriend": 766,
      "Ġfin": 767,
      "Ġshall": 768,
      "Ġsuch": 769,
      "Ġpres": 770,
      "hes": 771,
      "Ġown": 772,
      "Ġdaddy": 773,
      "side": 774,
      "Ġgl": 775,
      "Ġ3": 776,
      "Ġimp": 777,
      "Ġschool": 778,
      "og": 779,
      "Ġmother": 780,
      "Ġmummy": 781,
      "uc": 782,
      "Ġspe": 783,
      "Ġbeing": 784,
      "orm": 785,
      "rent": 786,
      "Ġmat": 787,
      "ĠE": 788,
      "Ġsupp": 789,
      "Ġdes": 790,
      "ult": 791,
      "Ġwater": 792,
      "Ġbre": 793,
      "ways": 794,
      "ical": 795,
      "Ġend": 796,
      "Ġsorry": 797,
      "Ġcle": 798,
      "oss": 799,
      "gg": 800,
      "Ġdoesn": 801,
      "Ġsame": 802,
      "Ġed": 803,
      "au": 804,
      "ited": 805,
      "br": 806,
      "eric": 807,
      "Ġplace": 808,
      "ince": 809,
      "Ġ200": 810,
      "mo": 811,
      "ĠB": 812,
      "ute": 813,
      "Ġfar": 814,
      "ek": 815,
      "Ġtoday": 816,
      "rest": 817,
      "Ġaround": 818,
      "ank": 819,
      "pe": 820,
      "Ġelse": 821,
      "Ġfather": 822,
      "Ġmhm": 823,
      "ings": 824,
      "ta": 825,
      "Ġhm": 826,
      "der": 827,
      "anc": 828,
      "Ġtold": 829,
      "Ġalways": 830,
      "Ġnext": 831,
      "sh": 832,
      "Ġtom": 833,
      "mer": 834,
      "ope": 835,
      "mber": 836,
      "Ġwhile": 837,
      "Ġhuh": 838,
      "Ġhell": 839,
      "Ġworld": 840,
      "Ġborn": 841,
      "Ġbus": 842,
      "und": 843,
      "Ġcap": 844,
      "ib": 845,
      "Ġset": 846,
      "inn": 847,
      "Ġdiffe": 848,
      "Ġmaybe": 849,
      "Ġdist": 850,
      "hn": 851,
      "Ġid": 852,
      "Ġfam": 853,
      "Ġacc": 854,
      "Ġread": 855,
      "Ġste": 856,
      "Ġey": 857,
      "Ġfive": 858,
      "Ġmoney": 859,
      "Ġameric": 860,
      "Ġ202": 861,
      "here": 862,
      "ple": 863,
      "ried": 864,
      "ph": 865,
      "Ġlist": 866,
      "Ġnothing": 867,
      "Ġeng": 868,
      "Ġair": 869,
      "ds": 870,
      "Ġwom": 871,
      "Ġfoot": 872,
      "Ġrec": 873,
      "Ġuse": 874,
      "ition": 875,
      "ĠAnd": 876,
      "Ġstay": 877,
      "med": 878,
      "ĠH": 879,
      "Ġgone": 880,
      "Ġleft": 881,
      "Ġbec": 882,
      "Ġpers": 883,
      "io": 884,
      "Ġred": 885,
      "Ġreg": 886,
      "Ġhard": 887,
      "Ġatt": 888,
      "Ġnum": 889,
      "Ġbest": 890,
      "Ġmm": 891,
      "Ġopen": 892,
      "Ġgre": 893,
      "right": 894,
      "ton": 895,
      "Ġ18": 896,
      "Ġz": 897,
      "Ġmommy": 898,
      "Ġdear": 899,
      "Ġunt": 900,
      "ations": 901,
      "Ġreal": 902,
      "Ġhear": 903,
      "Ġbed": 904,
      "Ġever": 905,
      "Ġquite": 906,
      "Ġwatch": 907,
      "Ġmus": 908,
      "outh": 909,
      "Ġgoes": 910,
      "Ġcoming": 911,
      "Ġim": 912,
      "Ġenough": 913,
      "ever": 914,
      "ction": 915,
      "leep": 916,
      "ĠOh": 917,
      "Ġremember": 918,
      "ident": 919,
      "uary": 920,
      "aught": 921,
      "row": 922,
      "Ġgod": 923,
      "Ġter": 924,
      "ane": 925,
      "ss": 926,
      "Ġsix": 927,
      "Ġsing": 928,
      "led": 929,
      "Ġhur": 930,
      "ness": 931,
      "Ġsur": 932,
      "Ġcourse": 933,
      "Ġbro": 934,
      "Ġmil": 935,
      "Ġsaw": 936,
      "oh": 937,
      "Ġhold": 938,
      "ream": 939,
      "Ġknown": 940,
      "vent": 941,
      "Ġroom": 942,
      "Ġbelie": 943,
      "Ġleave": 944,
      "Ġstand": 945,
      "tern": 946,
      "ger": 947,
      "oun": 948,
      "pect": 949,
      "Ġcity": 950,
      "by": 951,
      "Ġgen": 952,
      "Ġnor": 953,
      "fta": 954,
      "Ġlight": 955,
      "Ġbeg": 956,
      "ial": 957,
      "ational": 958,
      "vel": 959,
      "Ġtook": 960,
      "Ġhafta": 961,
      "Ġthough": 962,
      "Ġuntil": 963,
      "ished": 964,
      "ars": 965,
      "Ġkill": 966,
      "Ġsir": 967,
      "eak": 968,
      "ew": 969,
      "Ġasked": 970,
      "pr": 971,
      "Ġmen": 972,
      "Ġyet": 973,
      "Ġrel": 974,
      "akes": 975,
      "Ġbir": 976,
      "Ġca": 977,
      "ump": 978,
      "Ġob": 979,
      "Ġmorn": 980,
      "Ġyoung": 981,
      "Ġlar": 982,
      "uff": 983,
      "ister": 984,
      "az": 985,
      "ames": 986,
      "Ġdifferent": 987,
      "Ġjohn": 988,
      "ork": 989,
      "Ġ199": 990,
      "Ġwo": 991,
      "ung": 992,
      "ces": 993,
      "Ġ,": 994,
      "Ġwalk": 995,
      "gether": 996,
      "Ġbad": 997,
      "ason": 998,
      "Ġsays": 999,
      "Ġpop": 1000,
      "Ġseen": 1001,
      "Ġball": 1002,
      "cond": 1003,
      "Ġuhh": 1004,
      "Ġmorning": 1005,
      "Ġgetting": 1006,
      "cess": 1007,
      "ins": 1008,
      "Ġmind": 1009,
      "Ġeverything": 1010,
      "Ġface": 1011,
      "Ġdar": 1012,
      "Ġboth": 1013,
      "Ġalright": 1014,
      "Ġgrand": 1015,
      "Ġpoint": 1016,
      "Ġmag": 1017,
      "Ġinte": 1018,
      "me": 1019,
      "Ġlater": 1020,
      "Ġpret": 1021,
      "ĠD": 1022,
      "vie": 1023,
      "ower": 1024,
      "ush": 1025,
      "ased": 1026,
      "Ġuhhuh": 1027,
      "Ġpass": 1028,
      "Ġbar": 1029,
      "ash": 1030,
      "Ġ5": 1031,
      "ĠThe": 1032,
      "ows": 1033,
      "Ġchildren": 1034,
      "Ġonce": 1035,
      "Ġret": 1036,
      "Ġround": 1037,
      "Ġsecond": 1038,
      "Ġ4": 1039,
      "Ġstate": 1040,
      "fect": 1041,
      "Ġfell": 1042,
      "Ġhigh": 1043,
      "Ġdoor": 1044,
      "Ġperson": 1045,
      "ier": 1046,
      "Ġsleep": 1047,
      "ĠNo": 1048,
      "Ġcent": 1049,
      "Ġsince": 1050,
      "Ġsho": 1051,
      "Ġlooking": 1052,
      "Ġmove": 1053,
      "ible": 1054,
      "ably": 1055,
      "ts": 1056,
      "Ġmam": 1057,
      "uring": 1058,
      "Ġfall": 1059,
      "Ġtogether": 1060,
      "ĠR": 1061,
      "lly": 1062,
      "Ġwind": 1063,
      "Ġfew": 1064,
      "Ġhello": 1065,
      "Ġrun": 1066,
      "Ġactually": 1067,
      "ired": 1068,
      "Ġanim": 1069,
      "Ġamerican": 1070,
      "aw": 1071,
      "Ġready": 1072,
      "Ġpretty": 1073,
      "Ġinst": 1074,
      "tle": 1075,
      "Ġnear": 1076,
      "Ġent": 1077,
      "Ġmrs": 1078,
      "ters": 1079,
      "gr": 1080,
      "raw": 1081,
      "ĠWell": 1082,
      "Ġdied": 1083,
      "une": 1084,
      "ures": 1085,
      "Ġrest": 1086,
      "Ġpie": 1087,
      "Ġsmall": 1088,
      "cha": 1089,
      "Ġside": 1090,
      "Ġsk": 1091,
      "Ġeach": 1092,
      "ween": 1093,
      "Ġhaving": 1094,
      "Ġsn": 1095,
      "Ġchr": 1096,
      "ctor": 1097,
      "ote": 1098,
      "Ġsort": 1099,
      "Ġbetween": 1100,
      "ĠIt": 1101,
      "Ġwithout": 1102,
      "Ġpap": 1103,
      "Ġweek": 1104,
      "Ġlive": 1105,
      "Ġcons": 1106,
      "ten": 1107,
      "Ġpick": 1108,
      "Ġtown": 1109,
      "ular": 1110,
      "Ġdec": 1111,
      "Ġsy": 1112,
      "Ġbring": 1113,
      "Ġhappened": 1114,
      "ĠEr": 1115,
      "Ġeyes": 1116,
      "Ġwanted": 1117,
      "lic": 1118,
      "Ġnumber": 1119,
      "its": 1120,
      "Ġfamily": 1121,
      "amp": 1122,
      "Ġheart": 1123,
      "oy": 1124,
      "Ġmet": 1125,
      "ma": 1126,
      "Ġeight": 1127,
      "enn": 1128,
      "Ġhalf": 1129,
      "Ġeas": 1130,
      "Ġpa": 1131,
      "Ġhaven": 1132,
      "stand": 1133,
      "Ġdog": 1134,
      "Ġmeet": 1135,
      "llow": 1136,
      "ĠP": 1137,
      "Ġstates": 1138,
      "Ġpay": 1139,
      "Ġcur": 1140,
      "ision": 1141,
      "www": 1142,
      "ross": 1143,
      "Ġunited": 1144,
      "Ġdire": 1145,
      "Ġpar": 1146,
      "Ġkid": 1147,
      "Ġpat": 1148,
      "ange": 1149,
      "Ġdep": 1150,
      "ime": 1151,
      "mb": 1152,
      "Ġbelieve": 1153,
      "Ġtop": 1154,
      "ets": 1155,
      "unny": 1156,
      "ject": 1157,
      "Ġaw": 1158,
      "Ġhot": 1159,
      "Ġteam": 1160,
      "Ġheard": 1161,
      "de": 1162,
      "Ġcut": 1163,
      "Ġsub": 1164,
      "ged": 1165,
      "ann": 1166,
      "Ġgame": 1167,
      "Ġsoon": 1168,
      "ret": 1169,
      "ont": 1170,
      "Ġfire": 1171,
      "cial": 1172,
      "Ġprob": 1173,
      "Ġcounty": 1174,
      "ertain": 1175,
      "Ġmaking": 1176,
      "Ġju": 1177,
      "clud": 1178,
      "cept": 1179,
      "Ġthir": 1180,
      "Ġans": 1181,
      "Ġhat": 1182,
      "Ġexc": 1183,
      "Ġspeak": 1184,
      "ines": 1185,
      "Ġfood": 1186,
      "Ġbreak": 1187,
      "form": 1188,
      "ĠG": 1189,
      "ĠYes": 1190,
      "Ġinterest": 1191,
      "Ġduring": 1192,
      "Ġagainst": 1193,
      "Ġvo": 1194,
      "osed": 1195,
      "Ġhands": 1196,
      "less": 1197,
      "Ġtrain": 1198,
      "Ġson": 1199,
      "Ġjob": 1200,
      "most": 1201,
      "Ġcat": 1202,
      "Ġdays": 1203,
      "Ġinv": 1204,
      "Ġass": 1205,
      "Ġblue": 1206,
      "ball": 1207,
      "iness": 1208,
      "Ġadd": 1209,
      "ĠMm": 1210,
      "Ġben": 1211,
      "Ġhor": 1212,
      "key": 1213,
      "Ġdarling": 1214,
      "ating": 1215,
      "ipp": 1216,
      "ee": 1217,
      "vern": 1218,
      "Ġ198": 1219,
      "Ġbrother": 1220,
      "Ġswe": 1221,
      "Ġspo": 1222,
      "Ġboys": 1223,
      "Ġunderstand": 1224,
      "Ġcoll": 1225,
      "imes": 1226,
      "Ġfact": 1227,
      "Ġstory": 1228,
      "iet": 1229,
      "hen": 1230,
      "Ġwasn": 1231,
      "ither": 1232,
      "Ġ6": 1233,
      "Ġupon": 1234,
      "Ġtrying": 1235,
      "Ġguess": 1236,
      "Ġfollow": 1237,
      "Ġmusic": 1238,
      "Ġmatter": 1239,
      "Ġblack": 1240,
      "Ġger": 1241,
      "Ġposs": 1242,
      "Ġlisten": 1243,
      "Ġprobably": 1244,
      "Ġtalking": 1245,
      "cle": 1246,
      "Ġlady": 1247,
      "Ġknew": 1248,
      "Ġsim": 1249,
      "Ġhour": 1250,
      "ĠYou": 1251,
      "Ġsound": 1252,
      "Ġquest": 1253,
      "Ġbox": 1254,
      "Ġten": 1255,
      "ents": 1256,
      "ho": 1257,
      "Ġsqu": 1258,
      "Ġinc": 1259,
      "Ġbuild": 1260,
      "ual": 1261,
      "Ġwhole": 1262,
      "Ġnat": 1263,
      "Ġstuff": 1264,
      "Ġking": 1265,
      "Ġdrink": 1266,
      "Ġsaying": 1267,
      "Ġgener": 1268,
      "Ġland": 1269,
      "hy": 1270,
      "Ġgreen": 1271,
      "Ġwonder": 1272,
      "enty": 1273,
      "uth": 1274,
      "Ġwoman": 1275,
      "Ġchair": 1276,
      "ced": 1277,
      "Ġparty": 1278,
      "aut": 1279,
      "ready": 1280,
      "Ġfine": 1281,
      "ics": 1282,
      "Ġ..": 1283,
      "Ġgave": 1284,
      "Ġalready": 1285,
      "Ġcompan": 1286,
      "Ġhappy": 1287,
      "Ġwhite": 1288,
      "Ġchrist": 1289,
      "Ġcomes": 1290,
      "Ġpoor": 1291,
      "Ġwrong": 1292,
      "Ġhope": 1293,
      "Ġinclud": 1294,
      "Ġhimself": 1295,
      "uss": 1296,
      "Ġproble": 1297,
      "ife": 1298,
      "ield": 1299,
      "rew": 1300,
      "Ġfull": 1301,
      "ief": 1302,
      "Ġriver": 1303,
      "Ġnorth": 1304,
      "Ġalmost": 1305,
      "Ġalong": 1306,
      "sel": 1307,
      "ĠThat": 1308,
      "Ġplayed": 1309,
      "Ġgovern": 1310,
      "Ġgi": 1311,
      "Ġton": 1312,
      "Ġwouldn": 1313,
      "ised": 1314,
      "Ġ8": 1315,
      "ster": 1316,
      "Ġprov": 1317,
      "Ġsec": 1318,
      "Ġ197": 1319,
      "ĠSo": 1320,
      "Ġgotta": 1321,
      "Ġfun": 1322,
      "Ġlooks": 1323,
      "orrow": 1324,
      "Ġpict": 1325,
      "Ġda": 1326,
      "Ġhair": 1327,
      "unt": 1328,
      "uct": 1329,
      "ina": 1330,
      "Ġtimes": 1331,
      "Ġdeath": 1332,
      "Ġstarted": 1333,
      "Ġconf": 1334,
      "wards": 1335,
      "Ġplaying": 1336,
      "Ġmed": 1337,
      "Ġmine": 1338,
      "ities": 1339,
      "Ġge": 1340,
      "Ġsometimes": 1341,
      "Ġmonth": 1342,
      "Ġsign": 1343,
      "no": 1344,
      "tend": 1345,
      "Ġclose": 1346,
      "Ġaren": 1347,
      "ants": 1348,
      "ks": 1349,
      "oup": 1350,
      "Ġjap": 1351,
      "Ġ7": 1352,
      "Ġminute": 1353,
      "Ġmic": 1354,
      "ric": 1355,
      "Ġinter": 1356,
      "Ġform": 1357,
      "cc": 1358,
      "Ġcal": 1359,
      "Ġyourself": 1360,
      "where": 1361,
      "Ġnational": 1362,
      "rict": 1363,
      "ouch": 1364,
      "Ġcountry": 1365,
      "Ġones": 1366,
      "Ġword": 1367,
      "kes": 1368,
      "Ġpur": 1369,
      "Ġfro": 1370,
      "ike": 1371,
      "Ġbeaut": 1372,
      "vers": 1373,
      "Ġdel": 1374,
      "Ġexp": 1375,
      "Ġmovie": 1376,
      "ital": 1377,
      "Ġleg": 1378,
      "ete": 1379,
      "Ġprod": 1380,
      "Ġref": 1381,
      "Ġmeans": 1382,
      "Ġidea": 1383,
      "Ġlost": 1384,
      "den": 1385,
      "Ġra": 1386,
      "Ġage": 1387,
      "Ġcertain": 1388,
      "Ġmoment": 1389,
      "Ġguy": 1390,
      "ese": 1391,
      "aken": 1392,
      "Ġtele": 1393,
      "Ġty": 1394,
      "Ġill": 1395,
      "Ġhist": 1396,
      "Ġes": 1397,
      "Ġdat": 1398,
      "Ġlooked": 1399,
      "ient": 1400,
      "Ġsat": 1401,
      "Ġdou": 1402,
      "Ġbye": 1403,
      "Ġmad": 1404,
      "Ġcolor": 1405,
      "Ġarea": 1406,
      "ined": 1407,
      "Ġev": 1408,
      "Ġsent": 1409,
      "ĠWhat": 1410,
      "eter": 1411,
      "Ġlead": 1412,
      "Ġbecame": 1413,
      "ched": 1414,
      "ik": 1415,
      "Ġbat": 1416,
      "Ġcup": 1417,
      "Ġem": 1418,
      "Ġguys": 1419,
      "Ġsomeone": 1420,
      "Ġfuck": 1421,
      "Ġpain": 1422,
      "Ġquick": 1423,
      "haps": 1424,
      "Ġbur": 1425,
      "omb": 1426,
      "Ġshort": 1427,
      "Ġsong": 1428,
      "Ġmain": 1429,
      "the": 1430,
      "undred": 1431,
      "Ġdraw": 1432,
      "Ġrather": 1433,
      "olog": 1434,
      "Ġfriends": 1435,
      "ize": 1436,
      "aster": 1437,
      "Ġ196": 1438,
      "Ġmyself": 1439,
      "Ġdro": 1440,
      "ĠL": 1441,
      "Ġpull": 1442,
      "cil": 1443,
      "Ġmark": 1444,
      "Ġgirls": 1445,
      "Ġhundred": 1446,
      "Ġcompl": 1447,
      "bruary": 1448,
      "Ġpri": 1449,
      "Ġpub": 1450,
      "arn": 1451,
      "Ġreturn": 1452,
      "Ġfight": 1453,
      "Ġserv": 1454,
      "Ġpresent": 1455,
      "wer": 1456,
      "Ġhum": 1457,
      "Ġhappen": 1458,
      "ives": 1459,
      "Ġ9": 1460,
      "ense": 1461,
      "Ġemp": 1462,
      "Ġbear": 1463,
      "Ġlaw": 1464,
      "inner": 1465,
      "ments": 1466,
      "Ġseven": 1467,
      "Ġexpl": 1468,
      "Ġbusiness": 1469,
      "Ġwrite": 1470,
      "Ġfunny": 1471,
      "Ġdead": 1472,
      "Ġfif": 1473,
      "Ġfav": 1474,
      "ages": 1475,
      "Ġrecord": 1476,
      "to": 1477,
      "cy": 1478,
      "igh": 1479,
      "Ġfebruary": 1480,
      "Ġoffic": 1481,
      "Ġdistrict": 1482,
      "aser": 1483,
      "Ġrock": 1484,
      "Ġprom": 1485,
      "Ġya": 1486,
      "Ġimport": 1487,
      "Ġtomorrow": 1488,
      "son": 1489,
      "ted": 1490,
      "Ġstick": 1491,
      "utes": 1492,
      "Ġmill": 1493,
      "Ġwants": 1494,
      "Ġjack": 1495,
      "airs": 1496,
      "Ġhon": 1497,
      "ond": 1498,
      "rap": 1499,
      "ken": 1500,
      "ific": 1501,
      "Ġwow": 1502,
      "Ġjapan": 1503,
      "ĠF": 1504,
      "Ġperhaps": 1505,
      "Ġmid": 1506,
      "Ġoutside": 1507,
      "Ġjan": 1508,
      "Ġmer": 1509,
      "Ġlad": 1510,
      "Ġfeet": 1511,
      "Ġboat": 1512,
      "Ġpen": 1513,
      "Ġdoll": 1514,
      "Ġtre": 1515,
      "Ġbas": 1516,
      "Ġsum": 1517,
      "Ġable": 1518,
      "Ġmess": 1519,
      "Ġloc": 1520,
      "ivers": 1521,
      "Ġcase": 1522,
      "ones": 1523,
      "Ġdont": 1524,
      "elt": 1525,
      "Ġoften": 1526,
      "Ġbrought": 1527,
      "cer": 1528,
      "Ġart": 1529,
      "ral": 1530,
      "har": 1531,
      "ying": 1532,
      "Ġsweet": 1533,
      "Ġins": 1534,
      "ĠJ": 1535,
      "lish": 1536,
      "Ġcook": 1537,
      "Ġtable": 1538,
      "Ġsister": 1539,
      "Ġtwenty": 1540,
      "gn": 1541,
      "Ġchange": 1542,
      "itting": 1543,
      "Ġstar": 1544,
      "Ġwords": 1545,
      "Ġext": 1546,
      "ley": 1547,
      "Ġsouth": 1548,
      "Ġflo": 1549,
      "ided": 1550,
      "ered": 1551,
      "Ġpolit": 1552,
      "Ġdeal": 1553,
      "iful": 1554,
      "Ġta": 1555,
      "Ġanimals": 1556,
      "Ġlate": 1557,
      "Ġearly": 1558,
      "Ġthanks": 1559,
      "Ġfraser": 1560,
      "Ġ10": 1561,
      "Ġpresident": 1562,
      "Ġdri": 1563,
      "anor": 1564,
      "Ġtaking": 1565,
      "ution": 1566,
      "Ġeither": 1567,
      "Ġtrans": 1568,
      "port": 1569,
      "ury": 1570,
      "Ġorder": 1571,
      "Ġvoice": 1572,
      "Ġlau": 1573,
      "ey": 1574,
      "Ġdef": 1575,
      "Ġtaken": 1576,
      "Ġyell": 1577,
      "Ġdav": 1578,
      "Ġbirth": 1579,
      "Ġcold": 1580,
      "Ġcheck": 1581,
      "Ġtrue": 1582,
      "gan": 1583,
      "gie": 1584,
      "Ġmama": 1585,
      "Ġdress": 1586,
      "Ġpaper": 1587,
      "Ġwin": 1588,
      "Ġcry": 1589,
      "Ġann": 1590,
      "ald": 1591,
      "Ġless": 1592,
      "ĠBut": 1593,
      "Ġline": 1594,
      "Ġfair": 1595,
      "app": 1596,
      "ape": 1597,
      "ison": 1598,
      "Ġcor": 1599,
      "Ġrele": 1600,
      "ality": 1601,
      "room": 1602,
      "ully": 1603,
      "ford": 1604,
      "ized": 1605,
      "Ġvis": 1606,
      "eth": 1607,
      "ative": 1608,
      "artment": 1609,
      "Ġhit": 1610,
      "Ġwish": 1611,
      "Ġsomebody": 1612,
      "Ġroad": 1613,
      "Ġooh": 1614,
      "Ġfore": 1615,
      "Ġ17": 1616,
      "Ġago": 1617,
      "iam": 1618,
      "Ġcouldn": 1619,
      "ention": 1620,
      "Ġfish": 1621,
      "rib": 1622,
      "Ġgiven": 1623,
      "Ġlearn": 1624,
      "Ġcann": 1625,
      "ner": 1626,
      "Ġleast": 1627,
      "ots": 1628,
      "Ġbeautiful": 1629,
      "ues": 1630,
      "Ġcir": 1631,
      "dle": 1632,
      "ured": 1633,
      "Ġhurt": 1634,
      "Ġbill": 1635,
      "Ġsun": 1636,
      "Ġminutes": 1637,
      "Ġmakes": 1638,
      "amed": 1639,
      "selves": 1640,
      "Ġquestion": 1641,
      "ped": 1642,
      "Ġtill": 1643,
      "Ġpower": 1644,
      "Ġimportant": 1645,
      "ony": 1646,
      "ider": 1647,
      "Ġcontin": 1648,
      "Ġwife": 1649,
      "Ġclear": 1650,
      "rence": 1651,
      "ips": 1652,
      "ring": 1653,
      "Ġap": 1654,
      "Ġthrow": 1655,
      "Ġdoctor": 1656,
      "Ġstud": 1657,
      "Ġbob": 1658,
      "Ġbegan": 1659,
      "ared": 1660,
      "Ġworking": 1661,
      "Ġmouth": 1662,
      "Ġrepl": 1663,
      "Ġfig": 1664,
      "unch": 1665,
      "Ġprof": 1666,
      "cted": 1667,
      "Ġinside": 1668,
      "Ġgun": 1669,
      "Ġalone": 1670,
      "Ġ195": 1671,
      "Ġstre": 1672,
      "zy": 1673,
      "ffe": 1674,
      "od": 1675,
      "Ġtrou": 1676,
      "Ġbeh": 1677,
      "Ġve": 1678,
      "Ġisland": 1679,
      "Ġbooks": 1680,
      "Ġ!": 1681,
      "Ġdinner": 1682,
      "Ġcompany": 1683,
      "Ġjanuary": 1684,
      "Ġnews": 1685,
      "Ġmaj": 1686,
      "anger": 1687,
      "Ġfootball": 1688,
      "Ġclean": 1689,
      "fully": 1690,
      "Ġbomb": 1691,
      "Ġpiece": 1692,
      "Ġce": 1693,
      "Ġpot": 1694,
      "Ġbehind": 1695,
      "head": 1696,
      "Ġdiv": 1697,
      "Ġwear": 1698,
      "Ġunivers": 1699,
      "ĠErm": 1700,
      "Ġbuy": 1701,
      "iting": 1702,
      "Ġfront": 1703,
      "Ġhowever": 1704,
      "Ġplan": 1705,
      "Ġclass": 1706,
      "icip": 1707,
      "Ġreason": 1708,
      "ists": 1709,
      "Ġfil": 1710,
      "Ġgent": 1711,
      "Ġclot": 1712,
      "Ġcaptain": 1713,
      "ety": 1714,
      "essie": 1715,
      "Ġcho": 1716,
      "Ġglad": 1717,
      "Ġeleanor": 1718,
      "Ġsea": 1719,
      "Ġbath": 1720,
      "Ġstrong": 1721,
      "Ġlang": 1722,
      "Ġfinished": 1723,
      "aces": 1724,
      "used": 1725,
      "Ġphone": 1726,
      "Ġvill": 1727,
      "Ġforg": 1728,
      "Ġproblem": 1729,
      "Ġlaugh": 1730,
      "Ġgroup": 1731,
      "fl": 1732,
      "ides": 1733,
      "ians": 1734,
      "Ġothers": 1735,
      "Ġnin": 1736,
      "Ġseries": 1737,
      "ze": 1738,
      "Ġsal": 1739,
      "Ġocc": 1740,
      "Ġtoys": 1741,
      "aim": 1742,
      "ousand": 1743,
      "Ġhorse": 1744,
      "oud": 1745,
      "ham": 1746,
      "Ġbody": 1747,
      "Ġletter": 1748,
      "Ġwomen": 1749,
      "Ġeverybody": 1750,
      "gy": 1751,
      "Ġber": 1752,
      "Ġpast": 1753,
      "Ġyours": 1754,
      "Ġfa": 1755,
      "Ġtonight": 1756,
      "Ġfree": 1757,
      "ards": 1758,
      "Ġmur": 1759,
      "Ġseemed": 1760,
      "Ġcommun": 1761,
      "Ġtouch": 1762,
      "Ġprot": 1763,
      "Ġdaught": 1764,
      "Ġphil": 1765,
      "ove": 1766,
      "ye": 1767,
      "Ġlarge": 1768,
      "ming": 1769,
      "Ġexam": 1770,
      "Ġnine": 1771,
      "Ġsand": 1772,
      "Ġhistory": 1773,
      "Ġpos": 1774,
      "Ġsend": 1775,
      "Ġseems": 1776,
      "Ġir": 1777,
      "vember": 1778,
      "ium": 1779,
      "Ġgold": 1780,
      "iously": 1781,
      "idge": 1782,
      "Ġchance": 1783,
      "Ġ15": 1784,
      "een": 1785,
      "Ġwest": 1786,
      "Ġturned": 1787,
      "Ġje": 1788,
      "Ġopp": 1789,
      "Ġpu": 1790,
      "Ġbessie": 1791,
      "Ġpark": 1792,
      "fort": 1793,
      "Ġtree": 1794,
      "Ġ194": 1795,
      "Ġmilk": 1796,
      "cent": 1797,
      "Ġthousand": 1798,
      "Ġ2020": 1799,
      "Ġknows": 1800,
      "Ġadm": 1801,
      "teen": 1802,
      "Ġoct": 1803,
      "ana": 1804,
      "arent": 1805,
      "rat": 1806,
      "Ġlived": 1807,
      "Ġduck": 1808,
      "Ġadv": 1809,
      "Ġice": 1810,
      "Ġreco": 1811,
      "ains": 1812,
      "ism": 1813,
      "Ġsil": 1814,
      "Ġstep": 1815,
      "Ġnovember": 1816,
      "Ġdark": 1817,
      "Ġseat": 1818,
      "Ġusually": 1819,
      "Ġblood": 1820,
      "Ġdepartment": 1821,
      "Ġfavor": 1822,
      "Ġ12": 1823,
      "bert": 1824,
      "Ġkilled": 1825,
      "Ġcamp": 1826,
      "Ġwee": 1827,
      "Ġdavid": 1828,
      "Ġamong": 1829,
      "Ġtea": 1830,
      "ru": 1831,
      "Ġapr": 1832,
      "Ġfelt": 1833,
      "velop": 1834,
      "iding": 1835,
      "Ġcreat": 1836,
      "Ġthinking": 1837,
      "Ġbirthday": 1838,
      "ulation": 1839,
      "Ġmember": 1840,
      "Ġkiss": 1841,
      "ĠWe": 1842,
      "Ġtried": 1843,
      "ander": 1844,
      "Ġconst": 1845,
      "Ġ2021": 1846,
      "Ġarm": 1847,
      "Ġyellow": 1848,
      "ience": 1849,
      "Ġreport": 1850,
      "Ġ?": 1851,
      "Ġfrog": 1852,
      "Ġbart": 1853,
      "Ġexact": 1854,
      "oof": 1855,
      "Ġgets": 1856,
      "Ġpicture": 1857,
      "vision": 1858,
      "ained": 1859,
      "Ġdisc": 1860,
      "unning": 1861,
      "Ġexpect": 1862,
      "Ġest": 1863,
      "Ġfing": 1864,
      "Ġliving": 1865,
      "Ġenglish": 1866,
      "Ġallow": 1867,
      "Ġlovely": 1868,
      "ately": 1869,
      "Ġsuppose": 1870,
      "Ġdream": 1871,
      "raid": 1872,
      "Ġspecial": 1873,
      "Ġfield": 1874,
      "Ġgovernment": 1875,
      "Ġpost": 1876,
      "iter": 1877,
      "Ġhang": 1878,
      "arch": 1879,
      "Ġow": 1880,
      "Ġgames": 1881,
      "Ġlots": 1882,
      "Ġmarch": 1883,
      "Ġdie": 1884,
      "Ġsuc": 1885,
      "Ġuncle": 1886,
      "Ġted": 1887,
      "Ġwood": 1888,
      "Ġcra": 1889,
      "Ġtur": 1890,
      "Ġbag": 1891,
      "Ġring": 1892,
      "fic": 1893,
      "Ġrece": 1894,
      "ept": 1895,
      "bit": 1896,
      "Ġlangu": 1897,
      "Ġwhatever": 1898,
      "zz": 1899,
      "Ġcou": 1900,
      "Ġcoun": 1901,
      "ional": 1902,
      "Ġattack": 1903,
      "Ġmot": 1904,
      "stem": 1905,
      "Ġstra": 1906,
      "Ġgeneral": 1907,
      "Ġjump": 1908,
      "ls": 1909,
      "Ġshut": 1910,
      "Ġjuly": 1911,
      "Ġafraid": 1912,
      "Ġapril": 1913,
      "Ġcross": 1914,
      "Ġshop": 1915,
      "Ġfit": 1916,
      "Ġ16": 1917,
      "ler": 1918,
      "ator": 1919,
      "pped": 1920,
      "Ġfloor": 1921,
      "Ġsteven": 1922,
      "Ġpolice": 1923,
      "Ġcos": 1924,
      "ĠMr": 1925,
      "Ġgeor": 1926,
      "Ġsever": 1927,
      "Ġdaughter": 1928,
      "lex": 1929,
      "Ġtick": 1930,
      "Ġband": 1931,
      "Ġcareful": 1932,
      "ices": 1933,
      "ilt": 1934,
      "Ġtelevision": 1935,
      "Ġyork": 1936,
      "Ġfort": 1937,
      "ober": 1938,
      "Ġlay": 1939,
      "Ġdevelop": 1940,
      "Ġroll": 1941,
      "che": 1942,
      "Ġpig": 1943,
      "ically": 1944,
      "alth": 1945,
      "els": 1946,
      "Ġsystem": 1947,
      "Ġfast": 1948,
      "ges": 1949,
      "unk": 1950,
      "Ġdam": 1951,
      "ering": 1952,
      "Ġval": 1953,
      "Ġcop": 1954,
      "Ġmarried": 1955,
      "Ġgar": 1956,
      "Ġsitting": 1957,
      "iving": 1958,
      "Ġgerman": 1959,
      "Ġfly": 1960,
      "Ġhall": 1961,
      "Ġanyway": 1962,
      "Ġblock": 1963,
      "Ġwhether": 1964,
      "itten": 1965,
      "Ġlie": 1966,
      "ii": 1967,
      "rench": 1968,
      "Ġdoub": 1969,
      "ural": 1970,
      "Ġsold": 1971,
      "Ġexcuse": 1972,
      "Ġfrance": 1973,
      "Ġchick": 1974,
      "Ġseveral": 1975,
      "Ġmonths": 1976,
      "Ġtem": 1977,
      "Ġcannot": 1978,
      "Ġoctober": 1979,
      "ked": 1980,
      "Ġground": 1981,
      "Ġuniversity": 1982,
      "Ġcarry": 1983,
      "ches": 1984,
      "Ġnose": 1985,
      "ility": 1986,
      "Ġherself": 1987,
      "Ġain": 1988,
      "Ġeasy": 1989,
      "ery": 1990,
      "Ġgrow": 1991,
      "Ġdet": 1992,
      "Ġmun": 1993,
      "Ġtrouble": 1994,
      "Ġquiet": 1995,
      "Ġpress": 1996,
      "urs": 1997,
      "bb": 1998,
      "Ġaunt": 1999,
      "Ġfix": 2000,
      "Ġintern": 2001,
      ".'": 2002,
      "Ġnamed": 2003,
      "Ġforget": 2004,
      "Ġaug": 2005,
      "Ġthats": 2006,
      "Ġsept": 2007,
      "Ġmaggie": 2008,
      "Ġcorn": 2009,
      "ship": 2010,
      "Ġanswer": 2011,
      "aced": 2012,
      "Ġrain": 2013,
      "inal": 2014,
      "Ġsurpr": 2015,
      "hael": 2016,
      "Ġabs": 2017,
      "Ġworked": 2018,
      "gram": 2019,
      "osp": 2020,
      "col": 2021,
      "ĠRight": 2022,
      "Ġcried": 2023,
      "band": 2024,
      "Ġcontro": 2025,
      "Ġhung": 2026,
      "Ġlives": 2027,
      "Ġspec": 2028,
      "Ġbecome": 2029,
      "Ġsuper": 2030,
      "Ġrad": 2031,
      "Ġappro": 2032,
      "Ġoper": 2033,
      "Ġfur": 2034,
      "Ġ193": 2035,
      "illy": 2036,
      "Ġcharac": 2037,
      "Ġwall": 2038,
      "Ġdece": 2039,
      "Ġkids": 2040,
      "eed": 2041,
      "ead": 2042,
      "ued": 2043,
      "Ġcow": 2044,
      "Ġcatch": 2045,
      "ries": 2046,
      "Ġresp": 2047,
      "Ġhy": 2048,
      "Ġran": 2049,
      "Ġcast": 2050,
      "Ġport": 2051,
      "wered": 2052,
      "Ġpolic": 2053,
      "Ġbrit": 2054,
      "ale": 2055,
      "ograp": 2056,
      "Ġstreet": 2057,
      "Ġeast": 2058,
      "Ġteac": 2059,
      "umb": 2060,
      "Ġseptember": 2061,
      "Ġorgan": 2062,
      "Ġexactly": 2063,
      "Ġcool": 2064,
      "Ġpartic": 2065,
      "ĠHe": 2066,
      "Ġprofess": 2067,
      "ding": 2068,
      "Ġluck": 2069,
      "Ġproper": 2070,
      "Ġrunning": 2071,
      "hern": 2072,
      "Ġchamp": 2073,
      "Ġanswered": 2074,
      "Ġstraight": 2075,
      "Ġacross": 2076,
      "irt": 2077,
      "ney": 2078,
      "itch": 2079,
      "Ġmajor": 2080,
      "Ġtired": 2081,
      "Ġmount": 2082,
      "Ġmillion": 2083,
      "Ġaugust": 2084,
      "ract": 2085,
      "Ġstation": 2086,
      "Ġwithin": 2087,
      "Ġhours": 2088,
      "Ġseem": 2089,
      "Ġheld": 2090,
      "Ġchur": 2091,
      "lo": 2092,
      "Ġneeds": 2093,
      "Ġlikes": 2094,
      "Ġvict": 2095,
      "gue": 2096,
      "Ġsecret": 2097,
      "Ġcouple": 2098,
      "Ġsus": 2099,
      "Ġegg": 2100,
      "Ġorig": 2101,
      "Ġclothes": 2102,
      "aged": 2103,
      "Ġpush": 2104,
      "Ġseason": 2105,
      "Ġknock": 2106,
      "Ġcause": 2107,
      "Ġcond": 2108,
      "let": 2109,
      "read": 2110,
      "vered": 2111,
      "though": 2112,
      "Ġworry": 2113,
      "Ġclub": 2114,
      "king": 2115,
      "inning": 2116,
      "Ġjane": 2117,
      "Ġoffice": 2118,
      "eng": 2119,
      "child": 2120,
      "Ġav": 2121,
      "Ġaust": 2122,
      "uce": 2123,
      "ories": 2124,
      "Ġhus": 2125,
      "ived": 2126,
      "avy": 2127,
      "Ġsupport": 2128,
      "Ġreleased": 2129,
      "Ġmunicip": 2130,
      "men": 2131,
      "Ġeh": 2132,
      "Ġhoney": 2133,
      "Ġvar": 2134,
      "Ġeating": 2135,
      "ĠThey": 2136,
      "Ġshar": 2137,
      "Ġeveryone": 2138,
      "Ġgentle": 2139,
      "ude": 2140,
      "Ġadam": 2141,
      "kay": 2142,
      "Ġexper": 2143,
      "Ġevent": 2144,
      "Ġwhoo": 2145,
      "Ġkept": 2146,
      "imb": 2147,
      "ardon": 2148,
      "Ġdest": 2149,
      "Ġfrench": 2150,
      "Ġros": 2151,
      "ician": 2152,
      "Ġtest": 2153,
      "Ġjune": 2154,
      "Ġpretend": 2155,
      "Ġsud": 2156,
      "Ġshoot": 2157,
      "Ġsummer": 2158,
      "va": 2159,
      "Ġcost": 2160,
      "ama": 2161,
      "Ġ11": 2162,
      "Ġprogram": 2163,
      "Ġru": 2164,
      "Ġpleas": 2165,
      "Ġrom": 2166,
      "gar": 2167,
      "Ġtot": 2168,
      "mbers": 2169,
      "Ġpopulation": 2170,
      "Ġsad": 2171,
      "Ġalthough": 2172,
      "Ġmichael": 2173,
      "Ġlow": 2174,
      "Ġvi": 2175,
      "Ġfre": 2176,
      "itc": 2177,
      "Ġcharl": 2178,
      "ino": 2179,
      "eared": 2180,
      "Ġsca": 2181,
      "Ġcam": 2182,
      "stairs": 2183,
      "Ġbull": 2184,
      "Ġbroken": 2185,
      "Ġhol": 2186,
      "Ġputting": 2187,
      "Ġperfect": 2188,
      "par": 2189,
      "Ġbank": 2190,
      "Ġchurch": 2191,
      "Ġinstead": 2192,
      "ob": 2193,
      "terday": 2194,
      "Ġrepres": 2195,
      "Ġfrank": 2196,
      "Ġpossible": 2197,
      "Ġformer": 2198,
      "Ġbrown": 2199,
      "Ġthirty": 2200,
      "Ġpound": 2201,
      "Ġdem": 2202,
      "Ġenj": 2203,
      "Ġye": 2204,
      "Ġric": 2205,
      "end": 2206,
      "Ġalb": 2207,
      "Ġanyone": 2208,
      "Ġhors": 2209,
      "Ġef": 2210,
      "Ġchanged": 2211,
      "bye": 2212,
      "que": 2213,
      "ping": 2214,
      "Ġbud": 2215,
      "Ġdecember": 2216,
      "la": 2217,
      "con": 2218,
      "Ġsam": 2219,
      "Ġthom": 2220,
      "Ġfarm": 2221,
      "Ġregion": 2222,
      "Ġbes": 2223,
      "Ġyesterday": 2224,
      "Ġ2018": 2225,
      "Ġcommon": 2226,
      "Ġpublic": 2227,
      "Ġfeeling": 2228,
      "Ġblow": 2229,
      "Ġappear": 2230,
      "Ġsudden": 2231,
      "Ġwaiting": 2232,
      "Ġmiles": 2233,
      "ached": 2234,
      "ato": 2235,
      "Ġgas": 2236,
      "Ġtrust": 2237,
      "Ġtelling": 2238,
      "Ġservice": 2239,
      "lt": 2240,
      "Ġdanger": 2241,
      "Ġinform": 2242,
      "Ġdiffic": 2243,
      "oth": 2244,
      "Ġcareer": 2245,
      "Ġpaul": 2246,
      "iday": 2247,
      "Ġmaster": 2248,
      "Ġgard": 2249,
      "Ġhusband": 2250,
      "Ġequ": 2251,
      "Ġur": 2252,
      "Ġmembers": 2253,
      "Ġdev": 2254,
      "you": 2255,
      "Ġsick": 2256,
      "owers": 2257,
      "com": 2258,
      "Ġhen": 2259,
      "Ġhaha": 2260,
      "itty": 2261,
      "Ġpal": 2262,
      "Ġindeed": 2263,
      "Ġwritten": 2264,
      "Ġrecogn": 2265,
      "more": 2266,
      "Ġbow": 2267,
      "Ġenjoy": 2268,
      "mas": 2269,
      "oose": 2270,
      "Ġparticular": 2271,
      "eschild": 2272,
      "Ġchildeschild": 2273,
      "Ġsnow": 2274,
      "Ġchildeschildes": 2275,
      "Ġang": 2276,
      "Ġtruck": 2277,
      "Ġshoes": 2278,
      "ging": 2279,
      "Ġver": 2280,
      "hip": 2281,
      "Ġbang": 2282,
      "Ġnobody": 2283,
      "Ġba": 2284,
      "ndon": 2285,
      "Ġeye": 2286,
      "Ġeur": 2287,
      "Ġexcept": 2288,
      "Ġdrive": 2289,
      "Ġmist": 2290,
      "Ġride": 2291,
      "Ġrequ": 2292,
      "Ġmeant": 2293,
      "Ġshot": 2294,
      "tom": 2295,
      "Ġx": 2296,
      "ert": 2297,
      "Ġhosp": 2298,
      "000": 2299,
      "Ġthemselves": 2300,
      "ĠTh": 2301,
      "Ġought": 2302,
      "erv": 2303,
      "Ġpink": 2304,
      "Ġlab": 2305,
      "Ġpardon": 2306,
      "Ġcertainly": 2307,
      "Ġforgot": 2308,
      "Ġlanguage": 2309,
      "Ġslow": 2310,
      "Ġexcl": 2311,
      "Ġfinish": 2312,
      "Ġjose": 2313,
      "Ġindian": 2314,
      "Ġchief": 2315,
      "work": 2316,
      "Ġ2019": 2317,
      "Ġnoise": 2318,
      "Ġmiddle": 2319,
      "Ġhop": 2320,
      "aimed": 2321,
      "Ġsuccess": 2322,
      "Ġmoved": 2323,
      "Ġlord": 2324,
      "ats": 2325,
      "Ġboard": 2326,
      "Ġsmo": 2327,
      "Ġbuilding": 2328,
      "Ġtreat": 2329,
      "Ġhappens": 2330,
      "Ġprin": 2331,
      "Ġedna": 2332,
      "Ġsar": 2333,
      "Ġsoft": 2334,
      "Ġpract": 2335,
      "Ġmis": 2336,
      "ĠNow": 2337,
      "ggy": 2338,
      "Ġsave": 2339,
      "Ġearth": 2340,
      "gen": 2341,
      "Ġmc": 2342,
      "Ġnet": 2343,
      "ently": 2344,
      "Ġ14": 2345,
      "Ġeffect": 2346,
      "Ġwel": 2347,
      "Ġengine": 2348,
      "Ġreplied": 2349,
      "Ġsol": 2350,
      "Ġrepresent": 2351,
      "Ġet": 2352,
      "Ġworth": 2353,
      "Ġlondon": 2354,
      "Ġcurrent": 2355,
      "Ġdeb": 2356,
      "Ġauth": 2357,
      "ka": 2358,
      "Ġfellow": 2359,
      "Ġthomas": 2360,
      "Ġroy": 2361,
      "cially": 2362,
      "fer": 2363,
      "Ġburn": 2364,
      "Ġcommune": 2365,
      "ior": 2366,
      "Ġcirc": 2367,
      "Ġiss": 2368,
      "Ġprotect": 2369,
      "come": 2370,
      "Ġpage": 2371,
      "ager": 2372,
      "Ġforward": 2373,
      "Ġbutter": 2374,
      "ement": 2375,
      "Ġspend": 2376,
      "Ġdirect": 2377,
      "Ġusing": 2378,
      "Ġconcer": 2379,
      "ffee": 2380,
      "Ġsomewhere": 2381,
      "Ġcolle": 2382,
      "Ġfollowing": 2383,
      "Ġvie": 2384,
      "Ġwrote": 2385,
      "view": 2386,
      "Ġyep": 2387,
      "gest": 2388,
      "Ġwhose": 2389,
      "Ġsounds": 2390,
      "Ġterm": 2391,
      "Ġahead": 2392,
      "Ġsilly": 2393,
      "Ġdi": 2394,
      "Ġprop": 2395,
      "Ġvillage": 2396,
      "Ġthird": 2397,
      "uced": 2398,
      "Ġtig": 2399,
      "Ġlem": 2400,
      "Ġworks": 2401,
      "Ġeve": 2402,
      "Ġfavorite": 2403,
      "ki": 2404,
      "nes": 2405,
      "Ġmal": 2406,
      "Ġbase": 2407,
      "Ġsugg": 2408,
      "Ġsuggest": 2409,
      "ned": 2410,
      "Ġell": 2411,
      "Ġstanding": 2412,
      "Ġjud": 2413,
      "Ġstri": 2414,
      "Ġnorm": 2415,
      "ances": 2416,
      "Ġbroke": 2417,
      "estern": 2418,
      "Ġsupposed": 2419,
      "Ġmeeting": 2420,
      "Ġhuman": 2421,
      "Ġcand": 2422,
      "emy": 2423,
      "Ġelect": 2424,
      "Ġ30": 2425,
      "Ġteacher": 2426,
      "Ġnearly": 2427,
      "Ġcomplete": 2428,
      "Ġparent": 2429,
      "reek": 2430,
      "Ġlonger": 2431,
      "Ġ2022": 2432,
      "ene": 2433,
      "rod": 2434,
      "Ġinterested": 2435,
      "Ġcharacter": 2436,
      "Ġalex": 2437,
      "Ġcoffee": 2438,
      "oint": 2439,
      "Ġanybody": 2440,
      "Ġview": 2441,
      "acy": 2442,
      "Ġ192": 2443,
      "Ġperform": 2444,
      "Ġhospital": 2445,
      "Ġwindow": 2446,
      "Ġesc": 2447,
      "Ġwild": 2448,
      "Ġsafe": 2449,
      "Ġbuilt": 2450,
      "Ġcourt": 2451,
      "Ġship": 2452,
      "Ġlocal": 2453,
      "Ġhill": 2454,
      "Ġkitty": 2455,
      "ology": 2456,
      "yn": 2457,
      "Ġbought": 2458,
      "Ġlat": 2459,
      "Ġfear": 2460,
      "Ġobject": 2461,
      "Ġdut": 2462,
      "Ġ13": 2463,
      "Ġpassed": 2464,
      "Ġhun": 2465,
      "idence": 2466,
      "Ġconn": 2467,
      "Ġswim": 2468,
      "sy": 2469,
      "Ġshit": 2470,
      "Ġrac": 2471,
      "Ġmunicipality": 2472,
      "Ġfill": 2473,
      "olute": 2474,
      "Ġrob": 2475,
      "Ġincluding": 2476,
      "Ġcrazy": 2477,
      "fast": 2478,
      "Ġbird": 2479,
      "Ġbritish": 2480,
      "note": 2481,
      "Ġgiving": 2482,
      "Ġafterno": 2483,
      "Ġauthor": 2484,
      "hel": 2485,
      "Ġairport": 2486,
      "Ġdoubt": 2487,
      "Ġjoseph": 2488,
      "Ġden": 2489,
      "Ġdeep": 2490,
      "Ġquickly": 2491,
      "bs": 2492,
      "Ġmatch": 2493,
      "rible": 2494,
      "Ġmonkey": 2495,
      "Ġevening": 2496,
      "Ġeduc": 2497,
      "ien": 2498,
      "Ġmart": 2499,
      "Ġleague": 2500,
      "Ġorange": 2501,
      "Ġfootnote": 2502,
      "Ġhig": 2503,
      "Ġabove": 2504,
      "Ġdisapp": 2505,
      "uel": 2506,
      "Ġjwww": 2507,
      "Ġdesign": 2508,
      "Ġvisit": 2509,
      "Ġfail": 2510,
      "bur": 2511,
      "well": 2512,
      "Ġdecided": 2513,
      "Ġteddy": 2514,
      "Ġbell": 2515,
      "Ġwhom": 2516,
      "Ġjuice": 2517,
      "Ġcre": 2518,
      "Ġstuck": 2519,
      "Ġtrave": 2520,
      "Ġcas": 2521,
      "orth": 2522,
      "Ġital": 2523,
      "Ġrub": 2524,
      "Ġexample": 2525,
      "Ġcouncil": 2526,
      "ror": 2527,
      "Ġnone": 2528,
      "Ġrev": 2529,
      "uit": 2530,
      "Ġaward": 2531,
      "Ġdance": 2532,
      "Ġpil": 2533,
      "Ġengland": 2534,
      "Ġfigure": 2535,
      "rit": 2536,
      "time": 2537,
      "Ġcong": 2538,
      "Ġdry": 2539,
      "Ġlunch": 2540,
      "ston": 2541,
      "Ġnort": 2542,
      "Ġham": 2543,
      "xic": 2544,
      "Ġafternoon": 2545,
      "Ġhealth": 2546,
      "Ġperio": 2547,
      "Ġdrag": 2548,
      "Ġcaught": 2549,
      "Ġarmy": 2550,
      "Ġpieces": 2551,
      "aff": 2552,
      "Ġdesc": 2553,
      "Ġyum": 2554,
      "Ġsingle": 2555,
      "Ġkick": 2556,
      "ada": 2557,
      "Ġbelong": 2558,
      "Ġboo": 2559,
      "Ġpoo": 2560,
      "Ġexpress": 2561,
      "Ġoop": 2562,
      "Ġris": 2563,
      "Ġwash": 2564,
      "Ġlevel": 2565,
      "ula": 2566,
      "uation": 2567,
      "Ġtakes": 2568,
      "Ġpack": 2569,
      "Ġlou": 2570,
      "Ġinternational": 2571,
      "Ġarr": 2572,
      "Ġreturned": 2573,
      "Ġaut": 2574,
      "Ġhan": 2575,
      "Ġtruth": 2576,
      "go": 2577,
      "ceed": 2578,
      "Ġalbum": 2579,
      "Ġange": 2580,
      "Ġresult": 2581,
      "phan": 2582,
      "Ġmass": 2583,
      "Ġpolitician": 2584,
      "Ġtor": 2585,
      "Ġplayer": 2586,
      "Ġuhoh": 2587,
      "Ġvol": 2588,
      "Ġhurry": 2589,
      "Ġtype": 2590,
      "Ġcollege": 2591,
      "Ġluc": 2592,
      "Ġvide": 2593,
      "Ġoo": 2594,
      "Ġcover": 2595,
      "Ġsex": 2596,
      "Ġsout": 2597,
      "Ġmention": 2598,
      "Ġweeks": 2599,
      "Ġmor": 2600,
      "Ġdin": 2601,
      "Ġpet": 2602,
      "Ġdada": 2603,
      "Ġbased": 2604,
      "Ġanymore": 2605,
      "Ġletters": 2606,
      "Ġtech": 2607,
      "Ġcapital": 2608,
      "Ġcake": 2609,
      "Ġep": 2610,
      "raft": 2611,
      "eder": 2612,
      "Ġarms": 2613,
      "lished": 2614,
      "nday": 2615,
      "Ġbreakfast": 2616,
      "Ġsell": 2617,
      "Ġdecl": 2618,
      "Ġ25": 2619,
      "Ġwat": 2620,
      "Ġjoe": 2621,
      "Ġeurope": 2622,
      "Ġtour": 2623,
      "Ġsmell": 2624,
      "Ġgeorge": 2625,
      "ott": 2626,
      "Ġaccord": 2627,
      "Ġtape": 2628,
      "Ġaccept": 2629,
      "Ġsense": 2630,
      "Ġgarden": 2631,
      "Ġcens": 2632,
      "ified": 2633,
      "ya": 2634,
      "Ġdifficult": 2635,
      "Ġmod": 2636,
      "iff": 2637,
      "Ġhasn": 2638,
      "Ġquar": 2639,
      "Ġposition": 2640,
      "Ġjim": 2641,
      "Ġaccount": 2642,
      "19": 2643,
      "amb": 2644,
      "mon": 2645,
      "Ġtv": 2646,
      "Ġclever": 2647,
      "Ġruss": 2648,
      "Ġstu": 2649,
      "iny": 2650,
      "Ġled": 2651,
      "Ġfucking": 2652,
      "ishing": 2653,
      "Ġfifty": 2654,
      "Ġhungry": 2655,
      "itchen": 2656,
      "Ġspot": 2657,
      "Ġchampions": 2658,
      "Ġnames": 2659,
      "Ġleaving": 2660,
      "Ġconsider": 2661,
      "Ġdan": 2662,
      "Ġlos": 2663,
      "Ġkitchen": 2664,
      "Ġsight": 2665,
      "Ġtoy": 2666,
      "ature": 2667,
      "Ġdefe": 2668,
      "Ġclos": 2669,
      "Ġprovince": 2670,
      "oul": 2671,
      "str": 2672,
      "Ġcheese": 2673,
      "Ġtall": 2674,
      "Ġbeat": 2675,
      "Ġstood": 2676,
      "Ġwhoa": 2677,
      "itted": 2678,
      "nded": 2679,
      "ination": 2680,
      "Ġlock": 2681,
      "Ġheavy": 2682,
      "Ġclimb": 2683,
      "Ġbottom": 2684,
      "Ġtast": 2685,
      "Ġamy": 2686,
      "Ġchristmas": 2687,
      "Ġshouldn": 2688,
      "Ġexclaimed": 2689,
      "Ġperiod": 2690,
      "Ġcab": 2691,
      "Ġdor": 2692,
      "ĠThere": 2693,
      "oc": 2694,
      "Ġrab": 2695,
      "Ġglass": 2696,
      "Ġcensus": 2697,
      "oon": 2698,
      "cel": 2699,
      "Ġstrange": 2700,
      "Ġbread": 2701,
      "Ġamerica": 2702,
      "Ġimag": 2703,
      ",'": 2704,
      "Ġlegs": 2705,
      "Ġdisco": 2706,
      "ilar": 2707,
      "pecially": 2708,
      "Ġuk": 2709,
      "ti": 2710,
      "Ġforce": 2711,
      "Ġneigh": 2712,
      "Ġbrad": 2713,
      "Ġremark": 2714,
      "Ġanimal": 2715,
      "Ġwet": 2716,
      "roy": 2717,
      "ancy": 2718,
      "ida": 2719,
      "Ġgrandma": 2720,
      "Ġchicken": 2721,
      "fr": 2722,
      "Ġpan": 2723,
      "rop": 2724,
      "Ġbomba": 2725,
      "Ġcontrol": 2726,
      "Ġgall": 2727,
      "Ġvan": 2728,
      "Ġspir": 2729,
      "Ġpictures": 2730,
      "gle": 2731,
      "Ġlim": 2732,
      "ipe": 2733,
      "Ġjames": 2734,
      "Ġbusy": 2735,
      "Ġmem": 2736,
      "iling": 2737,
      "Ġspace": 2738,
      "Ġfilm": 2739,
      "aur": 2740,
      "ax": 2741,
      "irty": 2742,
      "Ġcomfort": 2743,
      "uk": 2744,
      "Ġbreat": 2745,
      "Ġbridge": 2746,
      "Ġtrack": 2747,
      "Ġsport": 2748,
      "Ġbabies": 2749,
      "Ġincre": 2750,
      "Ġarri": 2751,
      "Ġwriting": 2752,
      "Ġcollect": 2753,
      "Ġplaces": 2754,
      "aves": 2755,
      "Ġjes": 2756,
      "Ġ21": 2757,
      "ption": 2758,
      "Ġstopped": 2759,
      "anny": 2760,
      "din": 2761,
      "Ġaccident": 2762,
      "ĠDo": 2763,
      "Ġneck": 2764,
      "Ġprison": 2765,
      "Ġdrop": 2766,
      "Ġparents": 2767,
      "Ġhous": 2768,
      "Ġfut": 2769,
      "Ġ100": 2770,
      "iforn": 2771,
      "itz": 2772,
      "Ġrid": 2773,
      "Ġadded": 2774,
      "Ġreceived": 2775,
      "Ġinvol": 2776,
      "Ġcaliforn": 2777,
      "Ġmov": 2778,
      "Ġabsolute": 2779,
      "Ġfurther": 2780,
      "Ġpeter": 2781,
      "Ġneighb": 2782,
      "Ġhu": 2783,
      "Ġfat": 2784,
      "ights": 2785,
      "Ġmoving": 2786,
      "Ġaustral": 2787,
      "Ġdig": 2788,
      "Ġrul": 2789,
      "Ġstone": 2790,
      "Ġwilliam": 2791,
      "Ġwarm": 2792,
      "phone": 2793,
      "Ġallowed": 2794,
      "ires": 2795,
      "Ġcream": 2796,
      "Ġnecess": 2797,
      "ored": 2798,
      "Ġtechn": 2799,
      "Ġtit": 2800,
      "Ġjer": 2801,
      "Ġwhis": 2802,
      "Ġdefin": 2803,
      "nce": 2804,
      "Ġsuff": 2805,
      "Ġbright": 2806,
      "Ġespecially": 2807,
      "Ġwelcome": 2808,
      "gu": 2809,
      "Ġreach": 2810,
      "onel": 2811,
      "Ġrole": 2812,
      "Ġcentury": 2813,
      "Ġii": 2814,
      "Ġhate": 2815,
      "Ġsen": 2816,
      "ec": 2817,
      "ky": 2818,
      "Ġcard": 2819,
      "Ġearl": 2820,
      "Ġsan": 2821,
      "Ġdanc": 2822,
      "Ġ24": 2823,
      "sc": 2824,
      "ĠIs": 2825,
      "Ġloved": 2826,
      "Ġaccording": 2827,
      "Ġcalifornia": 2828,
      "Ġstore": 2829,
      "Ġcomput": 2830,
      "Ġinteresting": 2831,
      "Ġweren": 2832,
      "Ġproblems": 2833,
      "Ġlion": 2834,
      "Ġcars": 2835,
      "Ġshout": 2836,
      "west": 2837,
      "Ġpriv": 2838,
      "Ġtail": 2839,
      "Ġself": 2840,
      "Ġagre": 2841,
      "ray": 2842,
      "Ġlose": 2843,
      "Ġactor": 2844,
      "how": 2845,
      "Ġrichar": 2846,
      "Ġhole": 2847,
      "Ġbroad": 2848,
      "Ġcrying": 2849,
      "Ġrese": 2850,
      "Ġtwel": 2851,
      "ission": 2852,
      "Ġopened": 2853,
      "Ġsuddenly": 2854,
      "ille": 2855,
      "Ġcompet": 2856,
      "Ġ2010": 2857,
      "Ġvideo": 2858,
      "Ġliked": 2859,
      "Ġproject": 2860,
      "bers": 2861,
      "Ġrespect": 2862,
      "Ġmovies": 2863,
      "ef": 2864,
      "Ġcommand": 2865,
      "Ġannoun": 2866,
      "Ġconnect": 2867,
      "ba": 2868,
      "Ġvers": 2869,
      "ĠIf": 2870,
      "Ġwatching": 2871,
      "Ġinvest": 2872,
      "ument": 2873,
      "Ġminister": 2874,
      "ublic": 2875,
      "Ġcomb": 2876,
      "Ġinformation": 2877,
      "Ġmac": 2878,
      "Ġrol": 2879,
      "Ġflowers": 2880,
      "lin": 2881,
      "viously": 2882,
      "Ġgoin": 2883,
      "tered": 2884,
      "Ġbeginning": 2885,
      "Ġfres": 2886,
      "Ġwonderful": 2887,
      "ket": 2888,
      "Ġhide": 2889,
      "Ġseeing": 2890,
      "eal": 2891,
      "for": 2892,
      "pes": 2893,
      "Ġmach": 2894,
      "Ġmix": 2895,
      "Ġpopular": 2896,
      "sta": 2897,
      "ĠOkay": 2898,
      "Ġsimilar": 2899,
      "Ġjenn": 2900,
      "Ġsquare": 2901,
      "Ġeff": 2902,
      "vin": 2903,
      "za": 2904,
      "Ġdu": 2905,
      "Ġfeed": 2906,
      "por": 2907,
      "Ġ23": 2908,
      "Ġfinger": 2909,
      "Ġfuture": 2910,
      "ov": 2911,
      "moc": 2912,
      "Ġcharlie": 2913,
      "uted": 2914,
      "Ġspecies": 2915,
      "Ġsna": 2916,
      "ara": 2917,
      "Ġbottle": 2918,
      "Ġrepublic": 2919,
      "ica": 2920,
      "empt": 2921,
      "Ġapple": 2922,
      "gl": 2923,
      "ning": 2924,
      "itive": 2925,
      "ĠSt": 2926,
      "Ġrich": 2927,
      "Ġserious": 2928,
      "Ġeggs": 2929,
      "board": 2930,
      "Ġpir": 2931,
      "Ġelephan": 2932,
      "Ġut": 2933,
      "Ġwestern": 2934,
      "Ġtrees": 2935,
      "cket": 2936,
      "Ġspring": 2937,
      "Ġcoo": 2938,
      "Ġkey": 2939,
      "Ġ2011": 2940,
      "Ġradio": 2941,
      "Ġlu": 2942,
      "Ġcharge": 2943,
      "Ġsubject": 2944,
      "Ġcreated": 2945,
      "Ġdirty": 2946,
      "omes": 2947,
      "Ġsituation": 2948,
      "isc": 2949,
      "Ġtwelve": 2950,
      "ply": 2951,
      "Ġtowards": 2952,
      "Ġnaught": 2953,
      "Ġcommunity": 2954,
      "Ġdollars": 2955,
      "Ġfaith": 2956,
      "Ġquestions": 2957,
      "Ġwha": 2958,
      "Ġpuzz": 2959,
      "orence": 2960,
      "ny": 2961,
      "ĠK": 2962,
      "Ġcolonel": 2963,
      "Ġviol": 2964,
      "Ġwed": 2965,
      "Ġbuck": 2966,
      "Ġcontinued": 2967,
      "rer": 2968,
      "Ġbigger": 2969,
      "Ġ2012": 2970,
      "Ġwalking": 2971,
      "Ġspeaking": 2972,
      "Ġstudy": 2973,
      "dd": 2974,
      "Ġgro": 2975,
      "Ġmexic": 2976,
      "Ġdemoc": 2977,
      "Ġcamer": 2978,
      "Ġmary": 2979,
      "Ġmir": 2980,
      "Ġitself": 2981,
      "Ġanne": 2982,
      "Ġbi": 2983,
      "Ġdate": 2984,
      "Ġcell": 2985,
      "Ġfred": 2986,
      "olution": 2987,
      "Ġreading": 2988,
      "Ġhorses": 2989,
      "iced": 2990,
      "ference": 2991,
      "Ġdue": 2992,
      "omin": 2993,
      "Ġstars": 2994,
      "Ġfinally": 2995,
      "Ġpromise": 2996,
      "Ġunless": 2997,
      "Ġindia": 2998,
      "Ġpurple": 2999,
      "ura": 3000,
      "Ġtrad": 3001,
      "Ġunion": 3002,
      "Ġshare": 3003,
      "ipped": 3004,
      "Ġacad": 3005,
      "Ġolder": 3006,
      "Ġfem": 3007,
      "Ġsocial": 3008,
      "Ġwal": 3009,
      "Ġmas": 3010,
      "Ġcro": 3011,
      "Ġhost": 3012,
      "Ġgovernor": 3013,
      "Ġextra": 3014,
      "cks": 3015,
      "Ġspl": 3016,
      "Ġpaid": 3017,
      "uts": 3018,
      "Ġscr": 3019,
      "Ġactiv": 3020,
      "Ġcrit": 3021,
      "Ġjapanese": 3022,
      "lymp": 3023,
      "ift": 3024,
      "ration": 3025,
      "Ġsepar": 3026,
      "Ġappeared": 3027,
      "Ġchuck": 3028,
      "soci": 3029,
      "Ġwake": 3030,
      "Ġteeth": 3031,
      "Ġolymp": 3032,
      "isy": 3033,
      "Ġsky": 3034,
      "rd": 3035,
      "Ġfle": 3036,
      "Ġstat": 3037,
      "aker": 3038,
      "Ġpolicy": 3039,
      "hood": 3040,
      "ushed": 3041,
      "iled": 3042,
      "ils": 3043,
      "Ġdere": 3044,
      "Ġ22": 3045,
      "Ġsmile": 3046,
      "uction": 3047,
      "ume": 3048,
      "clock": 3049,
      "Ġmilit": 3050,
      "ole": 3051,
      "Ġdolly": 3052,
      "Ġjoin": 3053,
      "Ġ2016": 3054,
      "Ġpersonal": 3055,
      "Ġspoke": 3056,
      "rie": 3057,
      "Ġban": 3058,
      "Ġcy": 3059,
      "Ġhero": 3060,
      "cious": 3061,
      "Ġbattle": 3062,
      "Ġamaz": 3063,
      "Ġqueen": 3064,
      "itely": 3065,
      "Ġstage": 3066,
      "Ġassoci": 3067,
      "Ġsettle": 3068,
      "Ġbord": 3069,
      "ising": 3070,
      "Ġspell": 3071,
      "ival": 3072,
      "Ġcrow": 3073,
      "Ġentire": 3074,
      "ography": 3075,
      "Ġmanage": 3076,
      "ĠYork": 3077,
      "Ġcapt": 3078,
      "Ġfamous": 3079,
      "Ġpounds": 3080,
      "Ġfool": 3081,
      "Ġtex": 3082,
      "Ġwindows": 3083,
      "Ġwashing": 3084,
      "dom": 3085,
      "Ġafric": 3086,
      "Ġphot": 3087,
      "Ġlaughing": 3088,
      "Ġnaughty": 3089,
      "Ġcult": 3090,
      "Ġtrick": 3091,
      "Ġaff": 3092,
      "Ġdifference": 3093,
      "Ġfollowed": 3094,
      "Ġwhoops": 3095,
      "wood": 3096,
      "Ġna": 3097,
      "Ġreached": 3098,
      "Ġalive": 3099,
      "Ġguard": 3100,
      "sey": 3101,
      "riage": 3102,
      "off": 3103,
      "Ġshows": 3104,
      "iot": 3105,
      "Ġay": 3106,
      "Ġhes": 3107,
      "Ġworse": 3108,
      "Ġflorence": 3109,
      "Ġcrack": 3110,
      "itions": 3111,
      "Ġinfl": 3112,
      "Ġstup": 3113,
      "Ġcorner": 3114,
      "iers": 3115,
      "Ġjour": 3116,
      "Ġlift": 3117,
      "Ġjesus": 3118,
      "Ġlake": 3119,
      "ala": 3120,
      "cell": 3121,
      "Ġamount": 3122,
      "anning": 3123,
      "Ġjoy": 3124,
      "Ġladies": 3125,
      "Ġtotal": 3126,
      "Ġrespons": 3127,
      "Ġcarried": 3128,
      "Ġneeded": 3129,
      "Ġobs": 3130,
      "Ġwinter": 3131,
      "20": 3132,
      "Ġflat": 3133,
      "Ġparts": 3134,
      "Ġdirector": 3135,
      "conom": 3136,
      "het": 3137,
      "Ġcreek": 3138,
      "Ġmoder": 3139,
      "Ġfol": 3140,
      "urday": 3141,
      "Ġdropped": 3142,
      "Ġchic": 3143,
      "yer": 3144,
      "Ġdirected": 3145,
      "Ġscared": 3146,
      "like": 3147,
      "Ġupstairs": 3148,
      "Ġninete": 3149,
      "don": 3150,
      "ij": 3151,
      "ano": 3152,
      "ises": 3153,
      "ades": 3154,
      "Ġmoon": 3155,
      "Ġattention": 3156,
      "Ġive": 3157,
      "lect": 3158,
      "Ġarrest": 3159,
      "Ġshowed": 3160,
      "Ġbunny": 3161,
      "Ġasking": 3162,
      "ius": 3163,
      "Ġtear": 3164,
      "Ġant": 3165,
      "Ġchap": 3166,
      "Ġhelen": 3167,
      "Ġinclude": 3168,
      "ron": 3169,
      "Ġlower": 3170,
      "Ġeconom": 3171,
      "Ġbless": 3172,
      "Ġstarting": 3173,
      "Ġregard": 3174,
      "Ġox": 3175,
      "Ġlying": 3176,
      "Ġque": 3177,
      "ressed": 3178,
      "Ġsinging": 3179,
      "Ġmamma": 3180,
      "Ġfingers": 3181,
      "Ġdestroy": 3182,
      "Ġbal": 3183,
      "house": 3184,
      "Ġleaves": 3185,
      "ization": 3186,
      "Ġmagn": 3187,
      "line": 3188,
      "yle": 3189,
      "edy": 3190,
      "Ġofficer": 3191,
      "Ġmel": 3192,
      "Ġ2008": 3193,
      "Ġciv": 3194,
      "aper": 3195,
      "Ġenv": 3196,
      "Ġstupid": 3197,
      "Ġpun": 3198,
      "Ġdogg": 3199,
      "Ġnote": 3200,
      "Ġabsolutely": 3201,
      "what": 3202,
      "Ġhiding": 3203,
      "Ġcant": 3204,
      "Ġagree": 3205,
      "Ġplays": 3206,
      "Ġ2017": 3207,
      "Ġpapa": 3208,
      "do": 3209,
      "Ġrow": 3210,
      "astic": 3211,
      "Ġharry": 3212,
      "Ġoops": 3213,
      "cher": 3214,
      "Ġgoodness": 3215,
      "Ġterrible": 3216,
      "Ġpicked": 3217,
      "Ġspoon": 3218,
      "ili": 3219,
      "Ġneedta": 3220,
      "Ġmarket": 3221,
      "Ġapart": 3222,
      "Ġcust": 3223,
      "Ġcoach": 3224,
      "Ġmarie": 3225,
      "elly": 3226,
      "ittee": 3227,
      "Ġpeace": 3228,
      "ĠThan": 3229,
      "Ġfinal": 3230,
      "Ġnatural": 3231,
      "Ġsevent": 3232,
      "ength": 3233,
      "ees": 3234,
      "field": 3235,
      "iant": 3236,
      "Ġtherefore": 3237,
      "Ġmission": 3238,
      "Ġprep": 3239,
      "Ġcenter": 3240,
      "chan": 3241,
      "Ġsle": 3242,
      "Ġyo": 3243,
      "Ġmeat": 3244,
      "Ġsleeping": 3245,
      "Ġtiger": 3246,
      "Ġfresh": 3247,
      "Ġrace": 3248,
      "Ġthinks": 3249,
      "Ġanywhere": 3250,
      "Ġscar": 3251,
      "Ġchristian": 3252,
      "Ġwide": 3253,
      "erve": 3254,
      "Ġbeha": 3255,
      "Ġslight": 3256,
      "Ġelection": 3257,
      "ique": 3258,
      "Ġgrass": 3259,
      "Ġpray": 3260,
      "Ġmissing": 3261,
      "Ġdriving": 3262,
      "Ġnap": 3263,
      "ads": 3264,
      "Ġrose": 3265,
      "face": 3266,
      "Ġscream": 3267,
      "Ġactress": 3268,
      "Ġident": 3269,
      "Ġoriginal": 3270,
      "Ġgrad": 3271,
      "nam": 3272,
      "Ġtow": 3273,
      "Ġprocess": 3274,
      "ency": 3275,
      "Ġdoc": 3276,
      "Ġclosed": 3277,
      "Ġears": 3278,
      "Ġgate": 3279,
      "lla": 3280,
      "Ġbey": 3281,
      "Ġ28": 3282,
      "Ġtalked": 3283,
      "Ġrelation": 3284,
      "ris": 3285,
      "....": 3286,
      "Ġ27": 3287,
      "Ġloves": 3288,
      "ĠMhm": 3289,
      "Ġpossib": 3290,
      "Ġnorthern": 3291,
      "gs": 3292,
      "Ġnumbers": 3293,
      "omer": 3294,
      "Ġintrod": 3295,
      "Ġremain": 3296,
      "Ġsandw": 3297,
      "wise": 3298,
      "Ġspent": 3299,
      "dered": 3300,
      "Ġcomputer": 3301,
      "Ġtexas": 3302,
      "Ġattempt": 3303,
      "Ġexplain": 3304,
      "Ġpolitical": 3305,
      "ergy": 3306,
      "aint": 3307,
      "Ġlucky": 3308,
      "Ġawards": 3309,
      "Ġ26": 3310,
      "ĠShe": 3311,
      "Ġbelow": 3312,
      "oop": 3313,
      "Ġasleep": 3314,
      "Ġturning": 3315,
      "Ġphys": 3316,
      "Ġdevelopment": 3317,
      "Ġchat": 3318,
      "isted": 3319,
      "Ġcoat": 3320,
      "aret": 3321,
      "Ġfox": 3322,
      "medi": 3323,
      "Ġthreat": 3324,
      "Ġregular": 3325,
      "Ġ50": 3326,
      "Ġbasket": 3327,
      "aud": 3328,
      "imate": 3329,
      "ago": 3330,
      "Ġaction": 3331,
      "Ġhelped": 3332,
      "Ġpoints": 3333,
      "old": 3334,
      "Ġcous": 3335,
      "Ġforty": 3336,
      "ĠIn": 3337,
      "Ġ2007": 3338,
      "Ġsurprise": 3339,
      "Ġelephant": 3340,
      "Ġways": 3341,
      "Ġcalling": 3342,
      "Ġnineteen": 3343,
      "Ġwol": 3344,
      "Ġsoci": 3345,
      "Ġdrug": 3346,
      "Ġchem": 3347,
      "Ġmostly": 3348,
      "Ġbirds": 3349,
      "ites": 3350,
      "pend": 3351,
      "Ġlargest": 3352,
      "Ġhenry": 3353,
      "pa": 3354,
      "Ġanx": 3355,
      "Ġuhuh": 3356,
      "Ġsimply": 3357,
      "Ġtax": 3358,
      "Ġcaused": 3359,
      "Ġcentral": 3360,
      "Ġjul": 3361,
      "Ġsheep": 3362,
      "Ġlikely": 3363,
      "Ġcharles": 3364,
      "Ġhonest": 3365,
      "Ġcivil": 3366,
      "worth": 3367,
      "Ġach": 3368,
      "Ġmedic": 3369,
      "Ġninety": 3370,
      "pose": 3371,
      "Ġbound": 3372,
      "Ġjew": 3373,
      "ĠHow": 3374,
      "Ġ186": 3375,
      "loy": 3376,
      "set": 3377,
      "Ġram": 3378,
      "Ġpleasure": 3379,
      "Ġroyal": 3380,
      "Ġbite": 3381,
      "Ġboss": 3382,
      "Ġtrip": 3383,
      "Ġtrib": 3384,
      "Ġ2006": 3385,
      "Ġeducation": 3386,
      "ids": 3387,
      "Ġspan": 3388,
      "Ġcoast": 3389,
      "Ġterms": 3390,
      "Ġoccas": 3391,
      "Ġdiscuss": 3392,
      "val": 3393,
      "Ġweather": 3394,
      "Ġhappening": 3395,
      "cul": 3396,
      "Ġnurs": 3397,
      "Ġjones": 3398,
      "illa": 3399,
      "rene": 3400,
      "Ġswing": 3401,
      "Ġbeyond": 3402,
      "Ġshr": 3403,
      "Ġplane": 3404,
      "Ġcheek": 3405,
      "bre": 3406,
      "Ġpenn": 3407,
      "ppy": 3408,
      "Ġgermany": 3409,
      "Ġrights": 3410,
      "Ġ2013": 3411,
      "Ġsouthern": 3412,
      "Ġmilitary": 3413,
      "hal": 3414,
      "Ġstories": 3415,
      "Ġrepe": 3416,
      "Ġholding": 3417,
      "Ġbon": 3418,
      "Ġtower": 3419,
      "Ġrat": 3420,
      "Ġblocks": 3421,
      "ga": 3422,
      "hin": 3423,
      "jo": 3424,
      "Ġtuck": 3425,
      "itor": 3426,
      "Ġchoo": 3427,
      "Ġjoined": 3428,
      "Ġwit": 3429,
      "Ġlength": 3430,
      "Ġprim": 3431,
      "Ġimmedi": 3432,
      "Ġlara": 3433,
      "rel": 3434,
      "Ġareas": 3435,
      "Ġwheel": 3436,
      "Ġmissed": 3437,
      "Ġstruct": 3438,
      "Ġended": 3439,
      ".,": 3440,
      "craft": 3441,
      "Ġsize": 3442,
      "Ġreact": 3443,
      "Ġplant": 3444,
      "ially": 3445,
      "Ġscient": 3446,
      "Ġrefer": 3447,
      "Ġfighting": 3448,
      "Ġslowly": 3449,
      "Ġrabbit": 3450,
      "ville": 3451,
      "Ġsant": 3452,
      "ita": 3453,
      "Ġdamn": 3454,
      "Ġsens": 3455,
      "asons": 3456,
      "Ġvir": 3457,
      "inist": 3458,
      "ird": 3459,
      "Ġarch": 3460,
      "Ġaged": 3461,
      "Ġmadam": 3462,
      "Ġearlier": 3463,
      "aven": 3464,
      "erson": 3465,
      "Ġpocket": 3466,
      "Ġcastle": 3467,
      "Ġepis": 3468,
      "Ġinvolved": 3469,
      "inct": 3470,
      "Ġyouth": 3471,
      "Ġund": 3472,
      "Ġmax": 3473,
      "Ġsimple": 3474,
      "Ġhonor": 3475,
      "Ġdangerous": 3476,
      "burg": 3477,
      "Ġacademy": 3478,
      "eg": 3479,
      "vi": 3480,
      "Ġwrest": 3481,
      "ivid": 3482,
      "Ġaccom": 3483,
      "Ġ2009": 3484,
      "Ġhistor": 3485,
      "iment": 3486,
      "Ġorigin": 3487,
      "Ġholiday": 3488,
      "Ġdefinitely": 3489,
      "cast": 3490,
      "Ġhay": 3491,
      "cient": 3492,
      "Ġrelig": 3493,
      "Ġdelight": 3494,
      "Ġemploy": 3495,
      "gin": 3496,
      "kin": 3497,
      "Ġlin": 3498,
      "othy": 3499,
      "Ġindust": 3500,
      "Ġnar": 3501,
      "Ġthou": 3502,
      "antly": 3503,
      "rain": 3504,
      "Ġsigh": 3505,
      "Ġnotice": 3506,
      "Ġdistance": 3507,
      "die": 3508,
      "Ġnur": 3509,
      "Ġ2014": 3510,
      "Ġspeed": 3511,
      "Ġpencil": 3512,
      "hi": 3513,
      "Ġtal": 3514,
      "Ġgives": 3515,
      "Ġeleven": 3516,
      "Ġ1999": 3517,
      "Ġdemocrat": 3518,
      "hic": 3519,
      "Ġbesides": 3520,
      "Ġspirit": 3521,
      "Ġmodern": 3522,
      "ja": 3523,
      "ables": 3524,
      "Ġcalm": 3525,
      "Ġcorre": 3526,
      "Ġrichard": 3527,
      "Ġaud": 3528,
      "Ġsugar": 3529,
      "Ġresearch": 3530,
      "bed": 3531,
      "can": 3532,
      "Ġnic": 3533,
      "atic": 3534,
      "Ġsunday": 3535,
      "Ġconside": 3536,
      "ension": 3537,
      "Ġconsidered": 3538,
      "cip": 3539,
      "antic": 3540,
      "Ġ29": 3541,
      "Ġcray": 3542,
      "iron": 3543,
      "Ġfright": 3544,
      "Ġhardly": 3545,
      "Ġlights": 3546,
      "Ġnon": 3547,
      "Ġflor": 3548,
      "Ġimm": 3549,
      "Ġcircle": 3550,
      "Ġflying": 3551,
      "Ġvarious": 3552,
      "Ġangry": 3553,
      "night": 3554,
      "Ġbay": 3555,
      "erved": 3556,
      "ushing": 3557,
      "Ġspread": 3558,
      "Ġwalked": 3559,
      "Ġsarah": 3560,
      "Ġalexander": 3561,
      "Ġdinos": 3562,
      "oming": 3563,
      "chi": 3564,
      "Ġgoodbye": 3565,
      "Ġblank": 3566,
      "Ġsmart": 3567,
      "ensive": 3568,
      "Ġhotel": 3569,
      "Ġfifteen": 3570,
      "Ġdeter": 3571,
      "Ġpill": 3572,
      "Ġweap": 3573,
      "Ġrough": 3574,
      "Ġdogs": 3575,
      "Ġbyebye": 3576,
      "Ġannounced": 3577,
      "reme": 3578,
      "anda": 3579,
      "epend": 3580,
      "Ġclock": 3581,
      "Ġsett": 3582,
      "Ġskin": 3583,
      "Ġmater": 3584,
      "erland": 3585,
      "Ġdidnt": 3586,
      "Ġarg": 3587,
      "atherine": 3588,
      "ĠCan": 3589,
      "Ġmachine": 3590,
      "Ġtum": 3591,
      "Ġwound": 3592,
      "ums": 3593,
      "Ġtwice": 3594,
      "icks": 3595,
      "Ġrobert": 3596,
      "Ġserved": 3597,
      "ground": 3598,
      "Ġmistake": 3599,
      "Ġtar": 3600,
      "Ġcovered": 3601,
      "Ġprice": 3602,
      "Ġpublished": 3603,
      "rupt": 3604,
      "Ġwag": 3605,
      "Ġinstr": 3606,
      "Ġbrothers": 3607,
      "Ġtemper": 3608,
      "da": 3609,
      "Ġrail": 3610,
      "Ġ191": 3611,
      "Ġperm": 3612,
      "hold": 3613,
      "Ġproduct": 3614,
      "ckey": 3615,
      "Ġble": 3616,
      "Ġloud": 3617,
      "Ġrap": 3618,
      "Ġstren": 3619,
      "Ġalbert": 3620,
      "pping": 3621,
      "Ġplate": 3622,
      "Ġmountain": 3623,
      "Ġcompletely": 3624,
      "Ġhigher": 3625,
      "Ġtas": 3626,
      "Ġyoure": 3627,
      "Ġfer": 3628,
      "Ġindians": 3629,
      "eas": 3630,
      "isf": 3631,
      "sa": 3632,
      "Ġattend": 3633,
      "Ġshape": 3634,
      "Ġsongs": 3635,
      "Ġellie": 3636,
      "Ġhouses": 3637,
      "hr": 3638,
      "zen": 3639,
      "Ġheaven": 3640,
      "Ġemer": 3641,
      "Ġenergy": 3642,
      "Ġcommittee": 3643,
      "ansas": 3644,
      "shire": 3645,
      "Ġfellows": 3646,
      "Ġoppos": 3647,
      "Ġcamera": 3648,
      "Ġformed": 3649,
      "Ġeffort": 3650,
      "but": 3651,
      "Ġpercent": 3652,
      "Ġraised": 3653,
      "Ġsurprised": 3654,
      "Ġchocol": 3655,
      "Ġdoggie": 3656,
      "Ġenc": 3657,
      "ashion": 3658,
      "Ġkingdom": 3659,
      "Ġprofessional": 3660,
      "ders": 3661,
      "Ġtoward": 3662,
      "Ġbeck": 3663,
      "Ġbeach": 3664,
      "Ġleader": 3665,
      "Ġmurder": 3666,
      "Ġdetect": 3667,
      "ĠThank": 3668,
      "ns": 3669,
      "Ġbor": 3670,
      "Ġshoe": 3671,
      "Ġdancing": 3672,
      "Ġcrowd": 3673,
      "oups": 3674,
      "Ġfeder": 3675,
      "asc": 3676,
      "Ġneither": 3677,
      "Ġestab": 3678,
      "nel": 3679,
      "Ġtap": 3680,
      "Ġtiny": 3681,
      "Ġswitz": 3682,
      "Ġitalian": 3683,
      "Ġinflu": 3684,
      "Ġswitzerland": 3685,
      "ere": 3686,
      "Ġtight": 3687,
      "Ġinj": 3688,
      "uses": 3689,
      "Ġrush": 3690,
      "urity": 3691,
      "Ġmeaning": 3692,
      "Ġadvent": 3693,
      "Ġpays": 3694,
      "asure": 3695,
      "lebr": 3696,
      "Ġtri": 3697,
      "Ġmotor": 3698,
      "Ġnormal": 3699,
      "Ġlouis": 3700,
      "ode": 3701,
      "ĠV": 3702,
      "Ġbother": 3703,
      "Ġfac": 3704,
      "Ġjung": 3705,
      "ests": 3706,
      "Ġ2015": 3707,
      "Ġfund": 3708,
      "Ġpor": 3709,
      "Ġsail": 3710,
      "Ġaddress": 3711,
      "Ġswimming": 3712,
      "Ġirene": 3713,
      "Ġrate": 3714,
      "ĠAh": 3715,
      "Ġcheer": 3716,
      "Ġsteve": 3717,
      "Ġnorthwest": 3718,
      "Ġmentioned": 3719,
      "Ġindepend": 3720,
      "Ġduty": 3721,
      "atives": 3722,
      "oted": 3723,
      "Ġchoice": 3724,
      "Ġroman": 3725,
      "Ġstreng": 3726,
      "Ġsoul": 3727,
      "Ġmike": 3728,
      "Ġpad": 3729,
      "Ġdonald": 3730,
      "Ġdivision": 3731,
      "Ġprofessor": 3732,
      "Ġtong": 3733,
      "Ġbutton": 3734,
      "Ġcountries": 3735,
      "Ġmonster": 3736,
      "Ġpotato": 3737,
      "Ġcher": 3738,
      "Ġhaw": 3739,
      "ify": 3740,
      "Ġindivid": 3741,
      "Ġdirection": 3742,
      "Ġimagine": 3743,
      "ram": 3744,
      "ĠU": 3745,
      "ini": 3746,
      "Ġinf": 3747,
      "Ġsearch": 3748,
      "Ġshirt": 3749,
      "Ġspr": 3750,
      "Ġnature": 3751,
      "kn": 3752,
      "Ġparl": 3753,
      "Ġiron": 3754,
      "Ġrosam": 3755,
      "round": 3756,
      "Ġgroups": 3757,
      "Ġobviously": 3758,
      "Ġforest": 3759,
      "Ġdeclared": 3760,
      "Ġarrived": 3761,
      "ko": 3762,
      "Ġancient": 3763,
      "Ġconvers": 3764,
      "Ġsupper": 3765,
      "Ġmicro": 3766,
      "Ġopport": 3767,
      "Ġprivate": 3768,
      "vious": 3769,
      "Ġcart": 3770,
      "Ġcolors": 3771,
      "Ġproduc": 3772,
      "ĠThis": 3773,
      "Ġpractice": 3774,
      "Ġnecessary": 3775,
      "Ġrosamund": 3776,
      "Ġpin": 3777,
      "iance": 3778,
      "Ġcarol": 3779,
      "ker": 3780,
      "Ġsuit": 3781,
      "Ġmessage": 3782,
      "oe": 3783,
      "Ġcrew": 3784,
      "Ġsaint": 3785,
      "Ġgrew": 3786,
      "Ġdressed": 3787,
      "Ġoccur": 3788,
      "Ġliter": 3789,
      "itude": 3790,
      "Ġchi": 3791,
      "Ġgra": 3792,
      "Ġevidence": 3793,
      "Ġdelic": 3794,
      "ession": 3795,
      "este": 3796,
      "Ġbedroom": 3797,
      "Ġawful": 3798,
      "Ġempty": 3799,
      "Ġvictor": 3800,
      "Ġpuzzle": 3801,
      "Ġemb": 3802,
      "Ġmanner": 3803,
      "Ġourselves": 3804,
      "Ġquarter": 3805,
      "Ġopportun": 3806,
      "reen": 3807,
      "ingly": 3808,
      "Ġnick": 3809,
      "Ġhee": 3810,
      "aries": 3811,
      "Ġhug": 3812,
      "Ġstorm": 3813,
      "aded": 3814,
      "Ġdeg": 3815,
      "Ġformula": 3816,
      "Ġadminist": 3817,
      "Ġissue": 3818,
      "van": 3819,
      "Ġaye": 3820,
      "Ġgrave": 3821,
      "Ġaustralia": 3822,
      "Ġexec": 3823,
      "Ġscrew": 3824,
      "Ġcongress": 3825,
      "hair": 3826,
      "Ġmouse": 3827,
      "iel": 3828,
      "ems": 3829,
      "Ġoffer": 3830,
      "Ġhockey": 3831,
      "Ġdouble": 3832,
      "Ġlawyer": 3833,
      "Ġagreed": 3834,
      "Ġdeterm": 3835,
      "Ġchocolate": 3836,
      "Ġoil": 3837,
      "Ġprince": 3838,
      "Ġcentre": 3839,
      "Ġfault": 3840,
      "Ġtext": 3841,
      "Ġairpl": 3842,
      "Ġpaint": 3843,
      "Ġrule": 3844,
      "Ġchampionship": 3845,
      "Ġtone": 3846,
      "vey": 3847,
      "Ġate": 3848,
      "Ġproud": 3849,
      "Ġimpro": 3850,
      "Ġgerva": 3851,
      "Ġdick": 3852,
      "Ġlee": 3853,
      "Ġdisp": 3854,
      "Ġcelebr": 3855,
      "Ġder": 3856,
      "Ġpsy": 3857,
      "ashed": 3858,
      "Ġmob": 3859,
      "Ġtract": 3860,
      "Ġlearned": 3861,
      "Ġdownstairs": 3862,
      "Ġsurv": 3863,
      "Ġsatisf": 3864,
      "Ġcabin": 3865,
      "Ġgang": 3866,
      "anch": 3867,
      "roll": 3868,
      "ails": 3869,
      "Ġmagaz": 3870,
      "Ġbradford": 3871,
      "Ġkore": 3872,
      "Ġdesp": 3873,
      "Ġtaste": 3874,
      "Ġstaff": 3875,
      "Ġvote": 3876,
      "Ġdrawing": 3877,
      "bell": 3878,
      "ators": 3879,
      "Ġtony": 3880,
      "Ġmodel": 3881,
      "Ġsports": 3882,
      "Ġsociety": 3883,
      "Ġsour": 3884,
      "Ġmult": 3885,
      "oops": 3886,
      "Ġagent": 3887,
      "Ġpeek": 3888,
      "Ġotherwise": 3889,
      "Ġkeeping": 3890,
      "Ġ2005": 3891,
      "Ġremarked": 3892,
      "Ġgervaise": 3893,
      "Ġwoof": 3894,
      "igs": 3895,
      "istic": 3896,
      "ously": 3897,
      "Ġsaturday": 3898,
      "ointed": 3899,
      "Ġdorothy": 3900,
      "Ġsaved": 3901,
      "aps": 3902,
      "Ġpleased": 3903,
      "Ġfigures": 3904,
      "Ġnurse": 3905,
      "heart": 3906,
      "usion": 3907,
      "Ġcla": 3908,
      "Ġcontract": 3909,
      "nal": 3910,
      "Ġthrew": 3911,
      "lend": 3912,
      "Ġmagic": 3913,
      "Ġfalling": 3914,
      "Ġservices": 3915,
      "Ġexperience": 3916,
      "iest": 3917,
      "Ġlines": 3918,
      "Ġplenty": 3919,
      "Ġexist": 3920,
      "Ġ31": 3921,
      "Ġconstit": 3922,
      "hem": 3923,
      "Ġboun": 3924,
      "Ġmarg": 3925,
      "Ġmarry": 3926,
      "Ġfounded": 3927,
      "!'": 3928,
      "Ġplans": 3929,
      "Ġ187": 3930,
      "Ġwoods": 3931,
      "Ġenviron": 3932,
      "Ġeasily": 3933,
      "Ġsac": 3934,
      "iles": 3935,
      "ively": 3936,
      "Ġbrave": 3937,
      "Ġbrush": 3938,
      "Ġappre": 3939,
      "Ġkinda": 3940,
      "Ġsinger": 3941,
      "Ġassist": 3942,
      "Ġbathroom": 3943,
      "Ġinvestig": 3944,
      "aign": 3945,
      "Ġpath": 3946,
      "Ġloss": 3947,
      "Ġchoose": 3948,
      "Ġexcell": 3949,
      "Ġfeat": 3950,
      "Ġcrash": 3951,
      "Ġdrew": 3952,
      "Ġdoo": 3953,
      "Ġteach": 3954,
      "ression": 3955,
      "Ġwearing": 3956,
      "Ġmariecel": 3957,
      "Ġspanish": 3958,
      "Ġcarl": 3959,
      "Ġacqu": 3960,
      "Ġsurface": 3961,
      "Ġbaseball": 3962,
      "Ġdragon": 3963,
      "Ġtoast": 3964,
      "Ġstock": 3965,
      "Ġjam": 3966,
      "Ġflower": 3967,
      "Ġcousin": 3968,
      "Ġmedicine": 3969,
      "Ġimmediately": 3970,
      "ex": 3971,
      "Ġq": 3972,
      "Ġinqu": 3973,
      "Ġstraw": 3974,
      "Ġalf": 3975,
      "Ġgrown": 3976,
      "iction": 3977,
      "ĠChair": 3978,
      "Ġeastern": 3979,
      "Ġpurpose": 3980,
      "Ġescape": 3981,
      "Ġmarieceleste": 3982,
      "mie": 3983,
      "Ġdistrib": 3984,
      "Ġbegin": 3985,
      "Ġbarn": 3986,
      "inese": 3987,
      "Ġsecurity": 3988,
      "Ġbobby": 3989,
      "Ġdescri": 3990,
      "Ġcities": 3991,
      "Ġworried": 3992,
      "Ġpeggy": 3993,
      "Ġsharp": 3994,
      "Ġjudge": 3995,
      "Ġversion": 3996,
      "Ġcu": 3997,
      "Ġoffe": 3998,
      "Ġforces": 3999,
      "Ġlaid": 4000,
      "ification": 4001,
      "Ġcad": 4002,
      "ola": 4003,
      "Ġbrill": 4004,
      "Ġloire": 4005,
      "Ġscience": 4006,
      "Ġcrime": 4007,
      "Ġcere": 4008,
      "Ġavail": 4009,
      "Ġperfectly": 4010,
      "ech": 4011,
      "wh": 4012,
      "Ġdare": 4013,
      "Ġtowns": 4014,
      "light": 4015,
      "Ġcards": 4016,
      "Ġcatherine": 4017,
      "ero": 4018,
      "Ġpool": 4019,
      "Ġcanton": 4020,
      "Ġschol": 4021,
      "Ġdecision": 4022,
      "Ġfemale": 4023,
      "lected": 4024,
      "Ġdepend": 4025,
      "Ġhadn": 4026,
      "ĠAl": 4027,
      "Ġschools": 4028,
      "Ġgentleman": 4029,
      "Ġdemand": 4030,
      "Ġbudget": 4031,
      "Ġenvironment": 4032,
      "Ġafterwards": 4033,
      "Ġbloody": 4034,
      "pan": 4035,
      "under": 4036,
      "Ġpant": 4037,
      "vere": 4038,
      "Ġroof": 4039,
      "aching": 4040,
      "Ġcancer": 4041,
      "Ġbrain": 4042,
      "Ġhunting": 4043,
      "Ġhuge": 4044,
      "fa": 4045,
      "Ġheat": 4046,
      "Ġhorn": 4047,
      "Ġeld": 4048,
      "Ġtheres": 4049,
      "Ġwont": 4050,
      "Ġcontact": 4051,
      "Ġsnake": 4052,
      "Ġproduced": 4053,
      "Ġcampaign": 4054,
      "Ġtu": 4055,
      "Ġsoup": 4056,
      "Ġpants": 4057,
      "Ġchina": 4058,
      "Ġtells": 4059,
      "Ġlaug": 4060,
      "Ġearn": 4061,
      "Ġentered": 4062,
      "Ġprize": 4063,
      "Ġfashion": 4064,
      "Ġsem": 4065,
      "Ġmanager": 4066,
      "Ġbern": 4067,
      "Ġdescrib": 4068,
      "Ġweak": 4069,
      "Ġrange": 4070,
      "Ġforth": 4071,
      "Ġneg": 4072,
      "Ġmatt": 4073,
      "Ġzoo": 4074,
      "Ġdriver": 4075,
      "Ġsandwich": 4076,
      "Ġgab": 4077,
      "arily": 4078,
      "ays": 4079,
      "Ġrand": 4080,
      "Ġreck": 4081,
      "Ġnoticed": 4082,
      "Ġsake": 4083,
      "Ġpromised": 4084,
      "Ġsteps": 4085,
      "istan": 4086,
      "Ġamb": 4087,
      "Ġgenerally": 4088,
      "Ġtie": 4089,
      "Ġmi": 4090,
      "Ġmud": 4091,
      "Ġmyster": 4092,
      "Ġincluded": 4093,
      "Ġbreath": 4094,
      "Ġrules": 4095,
      "Ġlaughed": 4096,
      "Ġgrace": 4097,
      "Ġquality": 4098,
      "Ġexcited": 4099,
      "Ġsoldiers": 4100,
      "Ġcorrect": 4101,
      "father": 4102,
      "ening": 4103,
      "oma": 4104,
      "Ġsoph": 4105,
      "Ġapparent": 4106,
      "Ġbelieved": 4107,
      "tles": 4108,
      "Ġol": 4109,
      "Ġcarr": 4110,
      "Ġhandle": 4111,
      "Ġstrug": 4112,
      "Ġaircraft": 4113,
      "Ġyounger": 4114,
      "Ġlistening": 4115,
      "Ġsid": 4116,
      "Ġmut": 4117,
      "Ġvac": 4118,
      "Ġpoet": 4119,
      "Ġtou": 4120,
      "Ġthus": 4121,
      "ota": 4122,
      "Ġjum": 4123,
      "Ġtrade": 4124,
      "Ġscene": 4125,
      "Ġhelping": 4126,
      "Ġhmm": 4127,
      "Ġtaught": 4128,
      "Ġoce": 4129,
      "Ġknights": 4130,
      "Ġcomment": 4131,
      "Ġeighty": 4132,
      "ĠJo": 4133,
      "Ġguns": 4134,
      "Ġproperly": 4135,
      "Ġsmoke": 4136,
      "Ġcases": 4137,
      "gress": 4138,
      "Ġyay": 4139,
      "Ġfeels": 4140,
      "Ġofficial": 4141,
      "Ġlocated": 4142,
      "Ġinspect": 4143,
      "Ġclearly": 4144,
      "ences": 4145,
      "Ġstream": 4146,
      "ours": 4147,
      "ples": 4148,
      "Ġwhist": 4149,
      "Ġscott": 4150,
      "Ġimposs": 4151,
      "Ġ2004": 4152,
      "Ġpainting": 4153,
      "Ġpalace": 4154,
      "Ġstructure": 4155,
      "Ġshan": 4156,
      "Ġnea": 4157,
      "Ġhast": 4158,
      "Ġships": 4159,
      "Ġfoc": 4160,
      "ĠNot": 4161,
      "Ġspoken": 4162,
      "Ġtelephone": 4163,
      "Ġbrilliant": 4164,
      "50": 4165,
      "Ġlit": 4166,
      "Ġplayers": 4167,
      "Ġshad": 4168,
      "Ġprincip": 4169,
      "Ġwolf": 4170,
      "Ġmate": 4171,
      "aly": 4172,
      "Ġmovement": 4173,
      "Ġteams": 4174,
      "Ġrecords": 4175,
      "Ġrussian": 4176,
      "Ġcooper": 4177,
      "Ġamazing": 4178,
      "oved": 4179,
      "Ġgrant": 4180,
      "Ġcalls": 4181,
      "Ġflag": 4182,
      "Ġremind": 4183,
      "Ġeuropean": 4184,
      "kins": 4185,
      "Ġdunn": 4186,
      "Ġpak": 4187,
      "Ġchinese": 4188,
      "Ġprime": 4189,
      "Ġflight": 4190,
      "Ġharm": 4191,
      "Ġmont": 4192,
      "Ġexpected": 4193,
      "Ġtitle": 4194,
      "Ġtongue": 4195,
      "Ġsher": 4196,
      "Ġshown": 4197,
      "Ġblind": 4198,
      "Ġremem": 4199,
      "Ġaddition": 4200,
      "Ġpulled": 4201,
      "Ġsilver": 4202,
      "Ġparticularly": 4203,
      "Ġmartin": 4204,
      "Ġvirgin": 4205,
      "ios": 4206,
      "Ġstyle": 4207,
      "Ġmolly": 4208,
      "Ġplaced": 4209,
      "Ġamp": 4210,
      "Ġnewsp": 4211,
      "that": 4212,
      "hered": 4213,
      "Ġcass": 4214,
      "erc": 4215,
      "otte": 4216,
      "Ġterrit": 4217,
      "Ġnative": 4218,
      "Ġofficers": 4219,
      "Ġfancy": 4220,
      "Ġpred": 4221,
      "Ġpony": 4222,
      "ima": 4223,
      "Ġbrief": 4224,
      "Ġentertain": 4225,
      "Ġtraining": 4226,
      "host": 4227,
      "Ġheads": 4228,
      "Ġstaying": 4229,
      "Ġgodd": 4230,
      "Ġtickle": 4231,
      "Ġrisk": 4232,
      "ining": 4233,
      "Ġshake": 4234,
      "Ġchanges": 4235,
      "chard": 4236,
      "Ġmotion": 4237,
      "Ġoccasion": 4238,
      "Ġstrength": 4239,
      "cue": 4240,
      "eral": 4241,
      "Ġlt": 4242,
      "Ġonto": 4243,
      "Ġliber": 4244,
      "aked": 4245,
      "Ġacting": 4246,
      "ledge": 4247,
      "Ġeasier": 4248,
      "Ġgolden": 4249,
      "Ġnetwork": 4250,
      "Ġthro": 4251,
      "Ġkang": 4252,
      "Ġash": 4253,
      "Ġplain": 4254,
      "Ġwarren": 4255,
      "Ġattract": 4256,
      "ĠDid": 4257,
      "Ġmexico": 4258,
      "Ġsite": 4259,
      "itation": 4260,
      "Ġcopy": 4261,
      "bered": 4262,
      "Ġexcellent": 4263,
      "wr": 4264,
      "Ġcute": 4265,
      "Ġdoin": 4266,
      "Ġsaf": 4267,
      "Ġtrail": 4268,
      "Ġmail": 4269,
      "Ġenter": 4270,
      "Ġpleasant": 4271,
      "Ġdiscovered": 4272,
      "Ġopportunity": 4273,
      "ena": 4274,
      "Ġweight": 4275,
      "Ġparis": 4276,
      "ona": 4277,
      "Ġpiz": 4278,
      "isa": 4279,
      "Ġthy": 4280,
      "Ġcanada": 4281,
      "olic": 4282,
      "ilda": 4283,
      "Ġdrama": 4284,
      "cles": 4285,
      "Ġsuspect": 4286,
      "over": 4287,
      "Ġry": 4288,
      "Ġjun": 4289,
      "Ġtrunk": 4290,
      "Ġworst": 4291,
      "Ġwriter": 4292,
      "Ġbits": 4293,
      "Ġsixty": 4294,
      "Ġ40": 4295,
      "Ġmedical": 4296,
      "Ġrelease": 4297,
      "Ġchicago": 4298,
      "mar": 4299,
      "Ġtheyre": 4300,
      "Ġ2003": 4301,
      "Ġsposta": 4302,
      "Ġpossibly": 4303,
      "Ġimpossible": 4304,
      "hah": 4305,
      "Ġrout": 4306,
      "eman": 4307,
      "Ġ2000": 4308,
      "iament": 4309,
      "dies": 4310,
      "Ġhook": 4311,
      "Ġnope": 4312,
      "Ġusual": 4313,
      "Ġ1990": 4314,
      "Ġfavour": 4315,
      "Ġcontinue": 4316,
      "Ġprincess": 4317,
      "Ġflorida": 4318,
      "bles": 4319,
      "Ġthee": 4320,
      "Ġdim": 4321,
      "ental": 4322,
      "Ġslide": 4323,
      "Ġcarefully": 4324,
      "ucle": 4325,
      "Ġdeveloped": 4326,
      "Ġsult": 4327,
      "Ġenemy": 4328,
      "Ġsmaller": 4329,
      "Ġoccup": 4330,
      "Ġconcerned": 4331,
      "Ġfilled": 4332,
      "Ġlucy": 4333,
      "Ġneighbor": 4334,
      "Ġshh": 4335,
      "Ġclap": 4336,
      "Ġclaim": 4337,
      "Ġpolly": 4338,
      "Ġrachel": 4339,
      "Ġaver": 4340,
      "Ġaffect": 4341,
      "Ġfallen": 4342,
      "Ġgentlemen": 4343,
      "Ġcircum": 4344,
      "af": 4345,
      "oll": 4346,
      "hest": 4347,
      "etch": 4348,
      "ieve": 4349,
      "Ġknowing": 4350,
      "eless": 4351,
      "Ġopening": 4352,
      "anned": 4353,
      "Ġwick": 4354,
      "uten": 4355,
      "Ġsmith": 4356,
      "Ġfourth": 4357,
      "ĠBe": 4358,
      "Ġbringing": 4359,
      "Ġ1980": 4360,
      "Ġvictim": 4361,
      "Ġdemocratic": 4362,
      "Ġfederal": 4363,
      "Ġfal": 4364,
      "eds": 4365,
      "iti": 4366,
      "Ġhid": 4367,
      "icated": 4368,
      "ĠCos": 4369,
      "Ġstayed": 4370,
      "ĠJust": 4371,
      "Ġwatched": 4372,
      "Ġrelationship": 4373,
      "Ġwitness": 4374,
      "Ġtip": 4375,
      "ette": 4376,
      "Ġknife": 4377,
      "Ġplants": 4378,
      "Ġfinding": 4379,
      "Ġdecide": 4380,
      "ruction": 4381,
      "Ġtid": 4382,
      "Ġtoes": 4383,
      "Ġdoors": 4384,
      "urb": 4385,
      "Ġuses": 4386,
      "ĠAye": 4387,
      "pered": 4388,
      "Ġsigned": 4389,
      "Ġbowl": 4390,
      "Ġbike": 4391,
      "nding": 4392,
      "Ġpow": 4393,
      "ishes": 4394,
      "Ġthick": 4395,
      "fection": 4396,
      "Ġwilling": 4397,
      "Ġstatement": 4398,
      "bout": 4399,
      "rated": 4400,
      "Ġfirm": 4401,
      "Ġeverywhere": 4402,
      "Ġprefer": 4403,
      "Ġobl": 4404,
      "Ġcondition": 4405,
      "Ġevents": 4406,
      "Ġnav": 4407,
      "Ġgreatest": 4408,
      "Ġelected": 4409,
      "Ġdata": 4410,
      "ores": 4411,
      "kend": 4412,
      "Ġupper": 4413,
      "Ġbrand": 4414,
      "Ġpatient": 4415,
      "Ġgrowing": 4416,
      "Ġairplane": 4417,
      "name": 4418,
      "Ġcred": 4419,
      "Ġbutt": 4420,
      "nah": 4421,
      "ript": 4422,
      "Ġepisode": 4423,
      "Ġtractor": 4424,
      "Ġmagazine": 4425,
      "ĠJohn": 4426,
      "Ġawww": 4427,
      "isher": 4428,
      "Ġhomes": 4429,
      "Ġstan": 4430,
      "rian": 4431,
      "Ġbarb": 4432,
      "Ġfixed": 4433,
      "Ġtravel": 4434,
      "po": 4435,
      "Ġdread": 4436,
      "Ġgor": 4437,
      "atory": 4438,
      "Ġkim": 4439,
      "Ġholy": 4440,
      "Ġshower": 4441,
      "Ġballs": 4442,
      "Ġretired": 4443,
      "Ġdrinking": 4444,
      "Ġartist": 4445,
      "Ġeager": 4446,
      "Ġconv": 4447,
      "Ġshopping": 4448,
      "Ġbeside": 4449,
      "Ġetc": 4450,
      "Ġsultan": 4451,
      "mn": 4452,
      "ari": 4453,
      "ado": 4454,
      "Ġfruit": 4455,
      "Ġchannel": 4456,
      "Ġspeech": 4457,
      "Ġchris": 4458,
      "Ġgeorg": 4459,
      "Ġtears": 4460,
      "Ġappreci": 4461,
      "Ġsocks": 4462,
      "ila": 4463,
      "Ġprint": 4464,
      "Ġpartner": 4465,
      "box": 4466,
      "Ġsteal": 4467,
      "Ġnormally": 4468,
      "Ġyummy": 4469,
      "oom": 4470,
      "oid": 4471,
      "Ġcash": 4472,
      "Ġghost": 4473,
      "Ġjess": 4474,
      "Ġbert": 4475,
      "Ġcit": 4476,
      "Ġnucle": 4477,
      "Ġcookie": 4478,
      "Ġcomfortable": 4479,
      "Ġpirate": 4480,
      "donald": 4481,
      "igsaw": 4482,
      "Ġwinn": 4483,
      "Ġsides": 4484,
      "Ġfant": 4485,
      "Ġgoal": 4486,
      "ulous": 4487,
      "Ġgrap": 4488,
      "Ġfarmer": 4489,
      "Ġbilly": 4490,
      "Ġbecky": 4491,
      "Ġavailable": 4492,
      "back": 4493,
      "year": 4494,
      "using": 4495,
      "Ġwaste": 4496,
      "sty": 4497,
      "ĠWh": 4498,
      "Ġkeeps": 4499,
      "Ġrelated": 4500,
      "heast": 4501,
      "Ġmuse": 4502,
      "Ġfest": 4503,
      "Ġga": 4504,
      "Ġarab": 4505,
      "izing": 4506,
      "Ġopin": 4507,
      "Ġrevolution": 4508,
      "Ġwedding": 4509,
      "bl": 4510,
      "bits": 4511,
      "Ġpour": 4512,
      "ateg": 4513,
      "Ġfrogs": 4514,
      "Ġsecretary": 4515,
      "ĠChairman": 4516,
      "Ġess": 4517,
      "enth": 4518,
      "Ġproceed": 4519,
      "Ġrod": 4520,
      "Ġrealize": 4521,
      "Ġpurs": 4522,
      "thew": 4523,
      "Ġdinosaur": 4524,
      "Ġstret": 4525,
      "osh": 4526,
      "boy": 4527,
      "Ġlaura": 4528,
      "Ġsymp": 4529,
      "Ġeighteen": 4530,
      "Ġparliament": 4531,
      "ua": 4532,
      "Ġtenn": 4533,
      "Ġfishing": 4534,
      "Ġnovel": 4535,
      "Ġvic": 4536,
      "Ġgrab": 4537,
      "Ġrequire": 4538,
      "Ġwashington": 4539,
      "Ġocean": 4540,
      "bon": 4541,
      "Ġdum": 4542,
      "Ġcanad": 4543,
      "Ġneat": 4544,
      "umn": 4545,
      "Ġtend": 4546,
      "Ġmale": 4547,
      "Ġleading": 4548,
      "Ġislands": 4549,
      "Ġdunno": 4550,
      "hl": 4551,
      "sha": 4552,
      "wa": 4553,
      "Ġign": 4554,
      "Ġjigsaw": 4555,
      "sequ": 4556,
      "ented": 4557,
      "tering": 4558,
      "Ġmanaged": 4559,
      "Ġqual": 4560,
      "Ġmarriage": 4561,
      "Ġscot": 4562,
      "Ġsurround": 4563,
      "Ġsilence": 4564,
      "etic": 4565,
      "Ġ2001": 4566,
      "ĠDon": 4567,
      "Ġextreme": 4568,
      "Ġweekend": 4569,
      "Ġpizza": 4570,
      "hab": 4571,
      "Ġriding": 4572,
      "Ġedge": 4573,
      "Ġlieuten": 4574,
      "Ġjennie": 4575,
      "Ġmister": 4576,
      "Ġhal": 4577,
      "ett": 4578,
      "allas": 4579,
      "Ġfriday": 4580,
      "Ġordered": 4581,
      "Ġbenef": 4582,
      "Ġevil": 4583,
      "Ġ1960": 4584,
      "Ġcurrently": 4585,
      "Ġtradition": 4586,
      "17": 4587,
      "mother": 4588,
      "Ġwipe": 4589,
      "Ġbraz": 4590,
      "Ġmemory": 4591,
      "Ġpsych": 4592,
      "Ġbac": 4593,
      "Ġpair": 4594,
      "Ġnan": 4595,
      "uments": 4596,
      "aboo": 4597,
      "ols": 4598,
      "Ġseriously": 4599,
      "Ġ2002": 4600,
      "Ġballoon": 4601,
      "Ġpapers": 4602,
      "Ġsanta": 4603,
      "Ġsighs": 4604,
      "Ġmobile": 4605,
      "Ġmia": 4606,
      "Ġcath": 4607,
      "Ġcraw": 4608,
      "Ġnation": 4609,
      "oph": 4610,
      "Ġstarts": 4611,
      "Ġmainly": 4612,
      "Ġfairly": 4613,
      "Ġassociation": 4614,
      "Ġsettled": 4615,
      "enne": 4616,
      "Ġbeep": 4617,
      "lden": 4618,
      "Ġabe": 4619,
      "Ġvall": 4620,
      "play": 4621,
      "Ġinstit": 4622,
      "Ġfairy": 4623,
      "Ġforgive": 4624,
      "Ġtotally": 4625,
      "Ġmort": 4626,
      "Ġdump": 4627,
      "Ġdallas": 4628,
      "arr": 4629,
      "Ġstairs": 4630,
      "Ġpeas": 4631,
      "Ġcock": 4632,
      "Ġscreen": 4633,
      "Ġturns": 4634,
      "Ġkinds": 4635,
      "Ġtransport": 4636,
      "Ġvalue": 4637,
      "Ġelectric": 4638,
      "bel": 4639,
      "Ġbin": 4640,
      "Ġknee": 4641,
      "Ġsomehow": 4642,
      "ĠWhere": 4643,
      "Ġfold": 4644,
      "Ġgreater": 4645,
      "Ġ1970": 4646,
      "Ġstudents": 4647,
      "Ġprepared": 4648,
      "Ġconversation": 4649,
      "rig": 4650,
      "Ġkat": 4651,
      "Ġplanning": 4652,
      "Ġ190": 4653,
      "ĠWhen": 4654,
      "Ġthrowing": 4655,
      "Ġmountains": 4656,
      "Ġangeles": 4657,
      "Ġthroat": 4658,
      "Ġbump": 4659,
      "Ġlips": 4660,
      "Ġprevent": 4661,
      "Ġslave": 4662,
      "Ġrecently": 4663,
      "fortun": 4664,
      "Ġroles": 4665,
      "Ġlieutenant": 4666,
      "Ġmoo": 4667,
      "Ġdying": 4668,
      "Ġgal": 4669,
      "Ġpic": 4670,
      "Ġfranc": 4671,
      "Ġafford": 4672,
      "Ġslaves": 4673,
      "Ġfeelings": 4674,
      "Ġaware": 4675,
      "Ġjobs": 4676,
      "uly": 4677,
      "Ġwid": 4678,
      "Ġpra": 4679,
      "isions": 4680,
      "Ġrank": 4681,
      "Ġstro": 4682,
      "Ġjail": 4683,
      "Ġsees": 4684,
      "Ġupset": 4685,
      "Ġorders": 4686,
      "ucky": 4687,
      "Ġserve": 4688,
      "Ġ188": 4689,
      "Ġbeauty": 4690,
      "Ġforever": 4691,
      "Ġmajest": 4692,
      "?'": 4693,
      "ties": 4694,
      "Ġmap": 4695,
      "Ġknowledge": 4696,
      "ria": 4697,
      "Ġscarce": 4698,
      "Ġaverage": 4699,
      "Ġbrazil": 4700,
      "cing": 4701,
      "rick": 4702,
      "Ġfought": 4703,
      "Ġkar": 4704,
      "Ġdey": 4705,
      "Ġsurely": 4706,
      "Ġincludes": 4707,
      "Ġsuccessful": 4708,
      "of": 4709,
      "Ġtoil": 4710,
      "Ġprefect": 4711,
      "Ġbatter": 4712,
      "Ġpressure": 4713,
      "Ġreckon": 4714,
      "Ġsafety": 4715,
      "fly": 4716,
      "ware": 4717,
      "ern": 4718,
      "Ġnut": 4719,
      "Ġstom": 4720,
      "Ġplat": 4721,
      "Ġshoulder": 4722,
      "ĠAre": 4723,
      "Ġhanging": 4724,
      "Ġsusp": 4725,
      "Ġknocked": 4726,
      "Ġhorsie": 4727,
      "Ġappearance": 4728,
      "Ġrecognize": 4729,
      "Ġarrange": 4730,
      "Ġtucker": 4731,
      "'.": 4732,
      "ials": 4733,
      "ients": 4734,
      "oured": 4735,
      "Ġodd": 4736,
      "Ġbitch": 4737,
      "Ġanxious": 4738,
      "Ġinno": 4739,
      "Ġstir": 4740,
      "ĠWhy": 4741,
      "Ġprem": 4742,
      "Ġcompos": 4743,
      "Ġsword": 4744,
      "Ġdolls": 4745,
      "Ġtournam": 4746,
      "ashing": 4747,
      "Ġtroops": 4748,
      "Ġexerc": 4749,
      "Ġmatthew": 4750,
      "Ġburied": 4751,
      "Ġdreams": 4752,
      "Ġpilchard": 4753,
      "ias": 4754,
      "just": 4755,
      "Ġyu": 4756,
      "Ġgift": 4757,
      "Ġweird": 4758,
      "Ġfond": 4759,
      "Ġbiggest": 4760,
      "Ġempire": 4761,
      "Ġrocks": 4762,
      "Ġstudied": 4763,
      "Ġperformance": 4764,
      "Ġafrica": 4765,
      "Ġscholar": 4766,
      "Ġly": 4767,
      "ishop": 4768,
      "Ġremained": 4769,
      "Ġsubst": 4770,
      "Ġsweetheart": 4771,
      "Ġindividual": 4772,
      "18": 4773,
      "30": 4774,
      "Ġll": 4775,
      "aches": 4776,
      "Ġala": 4777,
      "Ġordin": 4778,
      "Ġvot": 4779,
      "Ġclar": 4780,
      "Ġcooking": 4781,
      "Ġvehic": 4782,
      "Ġsuggested": 4783,
      "Ġgabrie": 4784,
      "lor": 4785,
      "pet": 4786,
      "Ġdoggy": 4787,
      "ential": 4788,
      "Ġknight": 4789,
      "ilities": 4790,
      "Ġquit": 4791,
      "Ġcommander": 4792,
      "ĠCoun": 4793,
      "lands": 4794,
      "Ġgradu": 4795,
      "Ġtribe": 4796,
      "Ġapparently": 4797,
      "Ġlap": 4798,
      "Ġves": 4799,
      "ibility": 4800,
      "Ġconfir": 4801,
      "Ġsucceed": 4802,
      "Ġwalls": 4803,
      "Ġresults": 4804,
      "Ġcircumst": 4805,
      "15": 4806,
      "jam": 4807,
      "wo": 4808,
      "Ġpump": 4809,
      "Ġforced": 4810,
      "Ġshore": 4811,
      "abeth": 4812,
      "Ġprove": 4813,
      "Ġadult": 4814,
      "Ġrelax": 4815,
      "Ġlarger": 4816,
      "Ġwitch": 4817,
      "Ġfile": 4818,
      "Ġshock": 4819,
      "Ġminor": 4820,
      "Ġstruck": 4821,
      "Ġbecoming": 4822,
      "Ġtarget": 4823,
      "Ġnuclear": 4824,
      "bow": 4825,
      "Ġwil": 4826,
      "Ġsang": 4827,
      "Ġduh": 4828,
      "llen": 4829,
      "Ġnomin": 4830,
      "omed": 4831,
      "Ġreasons": 4832,
      "Ġgerald": 4833,
      "Ġforgotten": 4834,
      "Ġstrike": 4835,
      "Ġseparate": 4836,
      "Ġnursery": 4837,
      "ai": 4838,
      "Ġtan": 4839,
      "Ġharo": 4840,
      "icient": 4841,
      "Ġsection": 4842,
      "Ġplus": 4843,
      "Ġunc": 4844,
      "Ġsteam": 4845,
      "Ġgrandfather": 4846,
      "iety": 4847,
      "Ġcarrying": 4848,
      "colm": 4849,
      "Ġpeekaboo": 4850,
      "Ġward": 4851,
      "Ġcud": 4852,
      "Ġgim": 4853,
      "Ġgaz": 4854,
      "Ġnah": 4855,
      "ability": 4856,
      "Ġmirror": 4857,
      "Ġrepeated": 4858,
      "Ġestablished": 4859,
      "law": 4860,
      "rid": 4861,
      "Ġko": 4862,
      "urt": 4863,
      "asty": 4864,
      "Ġarro": 4865,
      "Ġchew": 4866,
      "ĠFr": 4867,
      "Ġolympics": 4868,
      "Ġharold": 4869,
      "reg": 4870,
      "Ġkm": 4871,
      "ological": 4872,
      "Ġpositive": 4873,
      "ograph": 4874,
      "Ġtummy": 4875,
      "12": 4876,
      "look": 4877,
      "asing": 4878,
      "Ġasian": 4879,
      "Ġspain": 4880,
      "Ġconference": 4881,
      "Ġcrim": 4882,
      "ĠOne": 4883,
      "anced": 4884,
      "Ġbarry": 4885,
      "Ġmetal": 4886,
      "Ġfolks": 4887,
      "known": 4888,
      "down": 4889,
      "inc": 4890,
      "Ġbones": 4891,
      "isha": 4892,
      "Ġruth": 4893,
      "Ġren": 4894,
      "Ġven": 4895,
      "Ġunfortun": 4896,
      "Ġcontr": 4897,
      "Ġstranger": 4898,
      "Ġ1994": 4899,
      "Ġveget": 4900,
      "Ġdamage": 4901,
      "Ġissues": 4902,
      "Ġcustom": 4903,
      "Ġopposite": 4904,
      "ners": 4905,
      "Ġhind": 4906,
      "urance": 4907,
      "Ġcomedy": 4908,
      "Ġjeff": 4909,
      "Ġincrease": 4910,
      "Ġoffered": 4911,
      "rate": 4912,
      "Ġtha": 4913,
      "Ġwine": 4914,
      "Ġbare": 4915,
      "Ġtooth": 4916,
      "orough": 4917,
      "Ġshell": 4918,
      "ipping": 4919,
      "hod": 4920,
      "Ġexplained": 4921,
      "Ġgently": 4922,
      "Ġauthority": 4923,
      "Ġmargaret": 4924,
      "10": 4925,
      "ease": 4926,
      "rey": 4927,
      "orry": 4928,
      "itar": 4929,
      "ata": 4930,
      "Ġprogress": 4931,
      "Ġ1995": 4932,
      "Ġrecognized": 4933,
      "Ġpropos": 4934,
      "Ġug": 4935,
      "ĠHave": 4936,
      "Ġhyd": 4937,
      "Ġitaly": 4938,
      "Ġbark": 4939,
      "Ġspill": 4940,
      "Ġparticip": 4941,
      "Ġmatters": 4942,
      "mend": 4943,
      "Ġruns": 4944,
      "Ġmuseum": 4945,
      "Ġgy": 4946,
      "ingu": 4947,
      "Ġhunt": 4948,
      "stood": 4949,
      "Ġtra": 4950,
      "Ġsplend": 4951,
      "ishment": 4952,
      "Ġsmiling": 4953,
      "Ġsweetie": 4954,
      "Ġtask": 4955,
      "Ġdetective": 4956,
      "Ġdom": 4957,
      "inger": 4958,
      "arm": 4959,
      "otion": 4960,
      "bey": 4961,
      "Ġedward": 4962,
      "Ġpossum": 4963,
      "Ġlanguages": 4964,
      "views": 4965,
      "Ġautom": 4966,
      "Ġrussia": 4967,
      "Ġtank": 4968,
      "Ġgay": 4969,
      "Ġforms": 4970,
      "Ġsore": 4971,
      "Ġwheels": 4972,
      "venue": 4973,
      "Ġgram": 4974,
      "Ġprevious": 4975,
      "place": 4976,
      "Ġactive": 4977,
      "Ġcru": 4978,
      "Ġserge": 4979,
      "Ġmatches": 4980,
      "Ġ1996": 4981,
      "Ġforeign": 4982,
      "Ġtowel": 4983,
      "eddin": 4984,
      "Ġtrous": 4985,
      "Ġtomato": 4986,
      "Ġ1997": 4987,
      "Ġpatty": 4988,
      "Ġpowerful": 4989,
      "Ġproperty": 4990,
      "Ġmalcolm": 4991,
      "Ġchemical": 4992,
      "Ġalaeddin": 4993,
      "iation": 4994,
      "Ġouch": 4995,
      "Ġles": 4996,
      "Ġze": 4997,
      "Ġsignific": 4998,
      "Ġadvant": 4999,
      "chester": 5000,
      "Ġspecific": 5001,
      "Ġchuckles": 5002,
      "iber": 5003,
      "Ġwoo": 5004,
      "Ġsink": 5005,
      "isse": 5006,
      "Ġknees": 5007,
      "ulations": 5008,
      "Ġsomewhat": 5009,
      "Ġthirteen": 5010,
      "gency": 5011,
      "Ġjourney": 5012,
      "bc": 5013,
      "Ġbisc": 5014,
      "Ġdun": 5015,
      "Ġlibr": 5016,
      "Ġasse": 5017,
      "berg": 5018,
      "Ġcoal": 5019,
      "Ġchest": 5020,
      "Ġshowing": 5021,
      "Ġcats": 5022,
      "Ġfully": 5023,
      "Ġproduction": 5024,
      "Ġtransfer": 5025,
      "Ġlaughs": 5026,
      "Ġrespond": 5027,
      "Ġcandy": 5028,
      "Ġresponsible": 5029,
      "iliar": 5030,
      "Ġdelicious": 5031,
      "Ġvirginia": 5032,
      "bu": 5033,
      "tin": 5034,
      "Ġdiam": 5035,
      "utive": 5036,
      "vert": 5037,
      "Ġmere": 5038,
      "Ġunit": 5039,
      "ordin": 5040,
      "Ġcris": 5041,
      "Ġeaten": 5042,
      "Ġprovide": 5043,
      "Ġmedal": 5044,
      "Ġpuppy": 5045,
      "Ġnewspaper": 5046,
      "Ġrice": 5047,
      "Ġdozen": 5048,
      "ilies": 5049,
      "Ġspider": 5050,
      "berry": 5051,
      "Ġcourage": 5052,
      "Ġtypes": 5053,
      "Ġfreed": 5054,
      "ĠCouncil": 5055,
      "gers": 5056,
      "mark": 5057,
      "ule": 5058,
      "ndered": 5059,
      "Ġnep": 5060,
      "Ġmayor": 5061,
      "Ġdisease": 5062,
      "Ġcookies": 5063,
      "Ġsalt": 5064,
      "Ġbutterfly": 5065,
      "Ġjimmy": 5066,
      "Ġvessel": 5067,
      "gi": 5068,
      "Ġinvent": 5069,
      "Ġaside": 5070,
      "Ġatl": 5071,
      "Ġgarage": 5072,
      "Ġperformed": 5073,
      "Ġpooh": 5074,
      "Ġtournament": 5075,
      "oke": 5076,
      "Ġfu": 5077,
      "vering": 5078,
      "Ġselected": 5079,
      "Ġsaving": 5080,
      "oles": 5081,
      "ulf": 5082,
      "eme": 5083,
      "Ġadop": 5084,
      "Ġkeys": 5085,
      "tained": 5086,
      "Ġ1992": 5087,
      "Ġgiant": 5088,
      "Ġmickey": 5089,
      "Ġhonour": 5090,
      "gypt": 5091,
      "Ġcharacters": 5092,
      "Ġfrightened": 5093,
      "rant": 5094,
      "Ġtheory": 5095,
      "Ġdra": 5096,
      "Ġpac": 5097,
      "ste": 5098,
      "rif": 5099,
      "Ġshame": 5100,
      "Ġwave": 5101,
      "Ġstandard": 5102,
      "awa": 5103,
      "Ġevident": 5104,
      "Ġadvice": 5105,
      "Ġshouted": 5106,
      "Ġdrugs": 5107,
      "Ġcitiz": 5108,
      "Ġtrousers": 5109,
      "oot": 5110,
      "uf": 5111,
      "Ġfurn": 5112,
      "Ġfaces": 5113,
      "Ġheav": 5114,
      "Ġrang": 5115,
      "Ġmeal": 5116,
      "Ġguil": 5117,
      "Ġswitch": 5118,
      "Ġartic": 5119,
      "Ġrobin": 5120,
      "Ġgeorgia": 5121,
      "Ġopinion": 5122,
      "hib": 5123,
      "Ġbum": 5124,
      "Ġbegg": 5125,
      "ales": 5126,
      "igan": 5127,
      "Ġbranch": 5128,
      "Ġpros": 5129,
      "Ġproced": 5130,
      "izabeth": 5131,
      "Ġcommer": 5132,
      "Ġsentence": 5133,
      "Ġorganization": 5134,
      "rison": 5135,
      "uits": 5136,
      "hew": 5137,
      "Ġpip": 5138,
      "owed": 5139,
      "Ġmonday": 5140,
      "Ġtrump": 5141,
      "Ġjustice": 5142,
      "Ġvaud": 5143,
      "Ġconcent": 5144,
      "erican": 5145,
      "Ġboats": 5146,
      "Ġhills": 5147,
      "Ġblanket": 5148,
      "mit": 5149,
      "Ġgil": 5150,
      "Ġlam": 5151,
      "Ġhabit": 5152,
      "Ġarth": 5153,
      "Ġquack": 5154,
      "Ġideas": 5155,
      "Ġmammy": 5156,
      "Ġlemme": 5157,
      "Ġhighest": 5158,
      "fall": 5159,
      "Ġts": 5160,
      "Ġfaster": 5161,
      "pper": 5162,
      "Ġlets": 5163,
      "agu": 5164,
      "Ġmayenne": 5165,
      "Ġflu": 5166,
      "Ġholly": 5167,
      "Ġthoughts": 5168,
      "Ġkidding": 5169,
      "Ġoriginally": 5170,
      "Ġterritory": 5171,
      "fish": 5172,
      "ige": 5173,
      "ses": 5174,
      "Ġgosh": 5175,
      "Ġintell": 5176,
      "Ġscore": 5177,
      "Ġthroughout": 5178,
      "Ġ1998": 5179,
      "Ġlaws": 5180,
      "Ġturtle": 5181,
      "Ġrequest": 5182,
      "Ġdirectly": 5183,
      "Ġcloser": 5184,
      "Ġcompetition": 5185,
      "Ġrepublican": 5186,
      "Ġafrican": 5187,
      "Ġculture": 5188,
      "Ġqueer": 5189,
      "nie": 5190,
      "eted": 5191,
      "aled": 5192,
      "Ġboots": 5193,
      "Ġlog": 5194,
      "Ġpaying": 5195,
      "Ġindependent": 5196,
      "Ġfrancis": 5197,
      "Ġguilty": 5198,
      "book": 5199,
      "Ġaz": 5200,
      "rees": 5201,
      "Ġdust": 5202,
      "Ġpud": 5203,
      "Ġrib": 5204,
      "see": 5205,
      "Ġprepar": 5206,
      "Ġcrown": 5207,
      "Ġpresence": 5208,
      "Ġbreaking": 5209,
      "ipper": 5210,
      "Ġreplaced": 5211,
      "Ġsoldier": 5212,
      "Ġfrequ": 5213,
      "Ġwhispered": 5214,
      "gain": 5215,
      "nic": 5216,
      "rim": 5217,
      "Ġtough": 5218,
      "Ġbid": 5219,
      "Ġcel": 5220,
      "Ġboom": 5221,
      "aging": 5222,
      "ague": 5223,
      "Ġarrow": 5224,
      "Ġroger": 5225,
      "Ġremi": 5226,
      "Ġskill": 5227,
      "Ġpattern": 5228,
      "Ġfortune": 5229,
      "Ġmcdonald": 5230,
      "Ġescap": 5231,
      "Ġborder": 5232,
      "Ġdestroyed": 5233,
      "Ġremembered": 5234,
      "Ġmajesty": 5235,
      "born": 5236,
      "Ġaim": 5237,
      "Ġrings": 5238,
      "Ġkir": 5239,
      "Ġtraff": 5240,
      "Ġwhenever": 5241,
      "Ġfourteen": 5242,
      "Ġkilling": 5243,
      "Ġexciting": 5244,
      "Ġreceive": 5245,
      "Ġfailure": 5246,
      "Ġjournal": 5247,
      "yl": 5248,
      "ulated": 5249,
      "Ġjoke": 5250,
      "Ġmusical": 5251,
      "Ġrestaur": 5252,
      "Ġlearning": 5253,
      "Ġprogramme": 5254,
      "friend": 5255,
      "Ġolympic": 5256,
      "Ġdocument": 5257,
      "Ġindustry": 5258,
      "Ġstomach": 5259,
      "cream": 5260,
      "tie": 5261,
      "Ġstones": 5262,
      "Ġlies": 5263,
      "Ġhorrible": 5264,
      "Ġwondering": 5265,
      "Ġmedia": 5266,
      "Ġsilent": 5267,
      "Ġcreate": 5268,
      "Ġdefend": 5269,
      "Ġslightly": 5270,
      "Ġdetermined": 5271,
      "Ġau": 5272,
      "Ġswed": 5273,
      "Ġaccess": 5274,
      "Ġstudio": 5275,
      "Ġdutch": 5276,
      "Ġarrested": 5277,
      "sing": 5278,
      "athan": 5279,
      "Ġkings": 5280,
      "Ġkansas": 5281,
      "Ġalp": 5282,
      "Ġcruel": 5283,
      "Ġwarri": 5284,
      "Ġzeal": 5285,
      "Ġreported": 5286,
      "Ġshooting": 5287,
      "Ġcanadian": 5288,
      "ault": 5289,
      "Ġcot": 5290,
      "lled": 5291,
      "..?": 5292,
      "Ġchin": 5293,
      "Ġchanging": 5294,
      "Ġfamilies": 5295,
      "Ġdivor": 5296,
      "Ġpoliceman": 5297,
      "Ġcharlotte": 5298,
      "Ġdesigned": 5299,
      "Ġdegree": 5300,
      "Ġdescribed": 5301,
      "viet": 5302,
      "Ġbishop": 5303,
      "Ġdia": 5304,
      "Ġned": 5305,
      "oto": 5306,
      "Ġrare": 5307,
      "Ġrah": 5308,
      "Ġchop": 5309,
      "Ġacid": 5310,
      "Ġcontrib": 5311,
      "Ġdesire": 5312,
      "Ġ189": 5313,
      "Ġaah": 5314,
      "Ġkenn": 5315,
      "Ġdeck": 5316,
      "Ġrobb": 5317,
      "Ġjoey": 5318,
      "Ġgimme": 5319,
      "pir": 5320,
      "Ġchos": 5321,
      "Ġboston": 5322,
      "Ġdrunk": 5323,
      "bec": 5324,
      "Ġuseful": 5325,
      "Ġpresently": 5326,
      "Ġfailed": 5327,
      "Ġukrain": 5328,
      "Ġtechnology": 5329,
      "Ġcritic": 5330,
      "Ġemergency": 5331,
      "hand": 5332,
      "Ġgreek": 5333,
      "Ġpy": 5334,
      "Ġdoct": 5335,
      "Ġcode": 5336,
      "Ġmummie": 5337,
      "Ġhurts": 5338,
      "Ġhighly": 5339,
      "Ġ60": 5340,
      "Ġcongrat": 5341,
      "Ġhammer": 5342,
      "Ġsplit": 5343,
      "Ġordinary": 5344,
      "lah": 5345,
      "min": 5346,
      "Ġbast": 5347,
      "Ġrot": 5348,
      "sec": 5349,
      "Ġliqu": 5350,
      "Ġsomethin": 5351,
      "Ġours": 5352,
      "Ġunderstood": 5353,
      "Ġelizabeth": 5354,
      "Ġfamiliar": 5355,
      "Ġmmhm": 5356,
      "Ġcutting": 5357,
      "ĠGood": 5358,
      "Ġinterrupt": 5359,
      "Ġtransl": 5360,
      "Ġentirely": 5361,
      "Ġnarrow": 5362,
      "Ġjungle": 5363,
      "uous": 5364,
      "Ġbent": 5365,
      "Ġbone": 5366,
      "Ġmig": 5367,
      "Ġreve": 5368,
      "chief": 5369,
      "apt": 5370,
      "Ġlean": 5371,
      "Ġpoison": 5372,
      "Ġeddie": 5373,
      "mond": 5374,
      "Ġfalls": 5375,
      "Ġinterview": 5376,
      "Ġraise": 5377,
      "Ġquietly": 5378,
      "Ġcircus": 5379,
      "Ġmanagement": 5380,
      "Ġgraeme": 5381,
      "Ġtheat": 5382,
      "Ġbible": 5383,
      "Ġpian": 5384,
      "Ġinn": 5385,
      "eta": 5386,
      "Ġbeer": 5387,
      "Ġrise": 5388,
      "Ġsale": 5389,
      "aining": 5390,
      "Ġresour": 5391,
      "Ġsixteen": 5392,
      "Ġpassing": 5393,
      "Ġpale": 5394,
      "Ġincred": 5395,
      "Ġladder": 5396,
      "Ġicecream": 5397,
      "Ġlatter": 5398,
      "Ġangel": 5399,
      "Ġinfluence": 5400,
      "Ġadventure": 5401,
      "ok": 5402,
      "ndisse": 5403,
      "Ġfenn": 5404,
      "onia": 5405,
      "lling": 5406,
      "Ġlack": 5407,
      "Ġlone": 5408,
      "Ġlamb": 5409,
      "Ġhasta": 5410,
      "alous": 5411,
      "lyn": 5412,
      "Ġtruly": 5413,
      "Ġjoint": 5414,
      "Ġowner": 5415,
      "Ġdesk": 5416,
      "Ġdepart": 5417,
      "Ġprovided": 5418,
      "Ġfields": 5419,
      "Ġcandid": 5420,
      "Ġfestival": 5421,
      "Ġcircumstances": 5422,
      "Ġarrondisse": 5423,
      "Ġlibrary": 5424,
      "ache": 5425,
      "Ġextend": 5426,
      "agn": 5427,
      "Ġreply": 5428,
      "Ġbene": 5429,
      "Ġsquee": 5430,
      "Ġrolling": 5431,
      "Ġmultip": 5432,
      "Ġvalley": 5433,
      "bi": 5434,
      "Ġ0": 5435,
      "Ġgat": 5436,
      "Ġlid": 5437,
      "Ġhoo": 5438,
      "Ġsav": 5439,
      "Ġplot": 5440,
      "ulty": 5441,
      "Ġindic": 5442,
      "Ġnights": 5443,
      "Ġowned": 5444,
      "Ġcompanion": 5445,
      "Ġcommunic": 5446,
      "Ġpostman": 5447,
      "Ġauntie": 5448,
      "Ġwagon": 5449,
      "Ġloose": 5450,
      "Ġnerv": 5451,
      "oring": 5452,
      "Ġugh": 5453,
      "rol": 5454,
      "road": 5455,
      "Ġtrian": 5456,
      "Ġchips": 5457,
      "Ġdesper": 5458,
      "Ġ1993": 5459,
      "ĠGreat": 5460,
      "Ġ1986": 5461,
      "Ġburst": 5462,
      "Ġbanana": 5463,
      "Ġweapons": 5464,
      "Ġsplendid": 5465,
      "Ġchosen": 5466,
      "Ġthin": 5467,
      "Ġray": 5468,
      "Ġshel": 5469,
      "opher": 5470,
      "gend": 5471,
      "Ġsuck": 5472,
      "Ġbricks": 5473,
      "Ġthrown": 5474,
      "Ġharder": 5475,
      "Ġhelps": 5476,
      "Ġtrains": 5477,
      "Ġcompanies": 5478,
      "Ġprior": 5479,
      "Ġadmir": 5480,
      "Ġburning": 5481,
      "Ġelder": 5482,
      "Ġpakistan": 5483,
      "Ġappreciate": 5484,
      "ban": 5485,
      "bra": 5486,
      "Ġcough": 5487,
      "Ġdiss": 5488,
      "Ġdraft": 5489,
      "Ġnations": 5490,
      "inky": 5491,
      "Ġbodies": 5492,
      "Ġfoll": 5493,
      "Ġcompound": 5494,
      "Ġstudent": 5495,
      "inois": 5496,
      "Ġsettlement": 5497,
      "icop": 5498,
      "Ġwhee": 5499,
      "Ġcommission": 5500,
      "Ġfinan": 5501,
      "Ġends": 5502,
      "Ġtommy": 5503,
      "chair": 5504,
      "Ġapolog": 5505,
      "Ġproducer": 5506,
      "Ġsource": 5507,
      "Ġscarcely": 5508,
      "Ġsergeant": 5509,
      "Ġassemb": 5510,
      "Ġot": 5511,
      "Ġoak": 5512,
      "Ġamend": 5513,
      "Ġworkers": 5514,
      "Ġcontest": 5515,
      "Ġhearing": 5516,
      "Ġgrandpa": 5517,
      "Ġleaders": 5518,
      "Ġmajority": 5519,
      "Ġdaniel": 5520,
      "Ġconstitution": 5521,
      "Ġwinning": 5522,
      "Ġconfeder": 5523,
      "Ġvictory": 5524,
      "Ġaccepted": 5525,
      "Ġtoilet": 5526,
      "oons": 5527,
      "Ġtunn": 5528,
      "Ġpup": 5529,
      "Ġlwww": 5530,
      "Ġec": 5531,
      "ading": 5532,
      "Ġjon": 5533,
      "Ġcarriage": 5534,
      "Ġbubb": 5535,
      "Ġfriendly": 5536,
      "Ġseconds": 5537,
      "Ġillinois": 5538,
      "Ġcorpor": 5539,
      "Ġjean": 5540,
      "Ġmexican": 5541,
      "Ġmaterial": 5542,
      "Ġencour": 5543,
      "ĠBecause": 5544,
      "Ġdanny": 5545,
      "Ġpure": 5546,
      "Ġkr": 5547,
      "Ġseek": 5548,
      "Ġbrian": 5549,
      "Ġpregn": 5550,
      "Ġhelicop": 5551,
      "Ġactual": 5552,
      "izes": 5553,
      "Ġbush": 5554,
      "ception": 5555,
      "Ġdaily": 5556,
      "Ġjacket": 5557,
      "Ġscare": 5558,
      "Ġdebut": 5559,
      "li": 5560,
      "lim": 5561,
      "Ġsin": 5562,
      "Ġos": 5563,
      "Ġdea": 5564,
      "Ġbears": 5565,
      "Ġanna": 5566,
      "Ġresign": 5567,
      "Ġincident": 5568,
      "Ġbradley": 5569,
      "Ġsuspic": 5570,
      "Ġtraffic": 5571,
      "ridge": 5572,
      "Ġmich": 5573,
      "Ġmeas": 5574,
      "Ġsoviet": 5575,
      "Ġbrid": 5576,
      "Ġeric": 5577,
      "Ġgrun": 5578,
      "Ġclown": 5579,
      "Ġcromer": 5580,
      "Ġhipp": 5581,
      "ugu": 5582,
      "Ġlegal": 5583,
      "Ġrecording": 5584,
      "Ġoperation": 5585,
      "Ġtribes": 5586,
      "Ġrapid": 5587,
      "Ġpushed": 5588,
      "Ġnom": 5589,
      "Ġlif": 5590,
      "Ġsole": 5591,
      "Ġoklah": 5592,
      "Ġwentworth": 5593,
      "Ġ185": 5594,
      "Ġmerc": 5595,
      "Ġpengu": 5596,
      "Ġmixed": 5597,
      "Ġscratch": 5598,
      "she": 5599,
      "Ġou": 5600,
      "Ġborrow": 5601,
      "Ġmall": 5602,
      "Ġee": 5603,
      "sters": 5604,
      "eping": 5605,
      "Ġclay": 5606,
      "Ġ1991": 5607,
      "Ġhearts": 5608,
      "Ġinvited": 5609,
      "Ġ1988": 5610,
      "Ġenjoyed": 5611,
      "ropical": 5612,
      "Ġaustralian": 5613,
      "Ġcredit": 5614,
      "Ġnominated": 5615,
      "Ġbelly": 5616,
      "Ġlil": 5617,
      "Ġsoap": 5618,
      "Ġsaus": 5619,
      "Ġalas": 5620,
      "Ġlegend": 5621,
      "Ġglo": 5622,
      "Ġterror": 5623,
      "Ġchairs": 5624,
      "Ġrecorded": 5625,
      "Ġbasically": 5626,
      "Ġcraft": 5627,
      "Ġoblig": 5628,
      "sed": 5629,
      "Ġale": 5630,
      "Ġbul": 5631,
      "Ġpity": 5632,
      "Ġstol": 5633,
      "inda": 5634,
      "Ġexcit": 5635,
      "Ġpulling": 5636,
      "Ġfifth": 5637,
      "Ġprotest": 5638,
      "Ġobserved": 5639,
      "Ġscientists": 5640,
      "Ġdiamond": 5641,
      "Ġding": 5642,
      "Ġpension": 5643,
      "Ġitems": 5644,
      "Ġforb": 5645,
      "Ġbaba": 5646,
      "Ġvoc": 5647,
      "Ġ1987": 5648,
      "Ġbuildings": 5649,
      "Ġemper": 5650,
      "Ġjealous": 5651,
      "Ġaffair": 5652,
      "Ġintroduced": 5653,
      "Ġdistributed": 5654,
      "Ġsophie": 5655,
      "Ġjumbo": 5656,
      "Ġoklahoma": 5657,
      "affe": 5658,
      "mund": 5659,
      "pri": 5660,
      "Ġlick": 5661,
      "cho": 5662,
      "Ġtrial": 5663,
      "Ġark": 5664,
      "rael": 5665,
      "cod": 5666,
      "Ġproduce": 5667,
      "engers": 5668,
      "Ġpirates": 5669,
      "Ġarthur": 5670,
      "',": 5671,
      "bury": 5672,
      "Ġgather": 5673,
      "Ġsequ": 5674,
      "Ġbra": 5675,
      "rier": 5676,
      "Ġgrate": 5677,
      "Ġclient": 5678,
      "action": 5679,
      "ĠAs": 5680,
      "Ġpicking": 5681,
      "Ġdeliver": 5682,
      "Ġconduct": 5683,
      "Ġlatin": 5684,
      "Ġracing": 5685,
      "Ġreligion": 5686,
      "Ġoccurred": 5687,
      "rot": 5688,
      "tilda": 5689,
      "Ġtied": 5690,
      "Ġbol": 5691,
      "Ġfired": 5692,
      "Ġped": 5693,
      "Ġnavy": 5694,
      "ooke": 5695,
      "Ġsuffe": 5696,
      "Ġvent": 5697,
      "Ġspare": 5698,
      "Ġexpensive": 5699,
      "Ġexpression": 5700,
      "inter": 5701,
      "onse": 5702,
      "Ġpushing": 5703,
      "icy": 5704,
      "Ġbeast": 5705,
      "Ġegypt": 5706,
      "Ġath": 5707,
      "igg": 5708,
      "Ġagnes": 5709,
      "Ġengaged": 5710,
      "Ġ184": 5711,
      "gery": 5712,
      "Ġvillages": 5713,
      "Ġjumped": 5714,
      "Ġbuddy": 5715,
      "Ġdisappeared": 5716,
      "Ġrolan": 5717,
      "Ġpillow": 5718,
      "Ġshadow": 5719,
      "Ġtub": 5720,
      "Ġfed": 5721,
      "Ġeag": 5722,
      "Ġrug": 5723,
      "Ġjason": 5724,
      "Ġclimate": 5725,
      "Ġblame": 5726,
      "ĠCome": 5727,
      "Ġrecom": 5728,
      "Ġsisters": 5729,
      "Ġadmit": 5730,
      "Ġturk": 5731,
      "Ġequal": 5732,
      "ointment": 5733,
      "Ġinspector": 5734,
      "Ġiv": 5735,
      "Ġwished": 5736,
      "Ġowe": 5737,
      "Ġbunch": 5738,
      "Ġyard": 5739,
      "Ġlink": 5740,
      "asa": 5741,
      "ador": 5742,
      "Ġsax": 5743,
      "Ġdesert": 5744,
      "Ġpiggy": 5745,
      "Ġlimited": 5746,
      "Ġboot": 5747,
      "Ġoldest": 5748,
      "Ġeats": 5749,
      "Ġwars": 5750,
      "Ġidiot": 5751,
      "Ġbadly": 5752,
      "Ġ1989": 5753,
      "Ġsquir": 5754,
      "Ġ1972": 5755,
      "Ġ90": 5756,
      "Ġpresidential": 5757,
      "Ġstudies": 5758,
      "Ġeventually": 5759,
      "Ġholes": 5760,
      "Ġjerry": 5761,
      "Ġkorea": 5762,
      "Ġfeatures": 5763,
      "Ġprefecture": 5764,
      "11": 5765,
      "ĠQ": 5766,
      "Ġmile": 5767,
      "Ġdude": 5768,
      "Ġpages": 5769,
      "Ġandy": 5770,
      "Ġbee": 5771,
      "Ġkil": 5772,
      "keys": 5773,
      "lfr": 5774,
      "Ġgeography": 5775,
      "Ġstreets": 5776,
      "Ġweapon": 5777,
      "Ġzealand": 5778,
      "gues": 5779,
      "hips": 5780,
      "win": 5781,
      "war": 5782,
      "oned": 5783,
      "Ġpope": 5784,
      "Ġnapp": 5785,
      "Ġjr": 5786,
      "Ġplanned": 5787,
      "Ġguest": 5788,
      "Ġbecomes": 5789,
      "Ġjohnson": 5790,
      "Ġpossess": 5791,
      "Ġjumping": 5792,
      "Ġlosing": 5793,
      "Ġbroadcast": 5794,
      "Ġaffairs": 5795,
      "Ġadvantage": 5796,
      "24": 5797,
      "tr": 5798,
      "Ġcub": 5799,
      "ora": 5800,
      "Ġkh": 5801,
      "Ġmole": 5802,
      "Ġalto": 5803,
      "reeks": 5804,
      "Ġpron": 5805,
      "ĠOoh": 5806,
      "ibi": 5807,
      "Ġsymb": 5808,
      "Ġfoods": 5809,
      "Ġringing": 5810,
      "Ġapproach": 5811,
      "Ġromantic": 5812,
      "Ġlabor": 5813,
      "Ġrepresentatives": 5814,
      "Ġseventy": 5815,
      "Ġscreaming": 5816,
      "Ġfalse": 5817,
      "Ġtun": 5818,
      "Ġwire": 5819,
      "Ġgri": 5820,
      "Ġupside": 5821,
      "Ġconc": 5822,
      "Ġgran": 5823,
      "Ġarmed": 5824,
      "Ġcloud": 5825,
      "Ġcrick": 5826,
      "Ġwaited": 5827,
      "Ġavoid": 5828,
      "hrist": 5829,
      "Ġinnocent": 5830,
      "Ġexcitement": 5831,
      "lfriend": 5832,
      "lied": 5833,
      "not": 5834,
      "ruct": 5835,
      "Ġwise": 5836,
      "Ġhut": 5837,
      "att": 5838,
      "Ġrhy": 5839,
      "Ġkelly": 5840,
      "Ġalice": 5841,
      "quar": 5842,
      "Ġdism": 5843,
      "Ġremoved": 5844,
      "ĠOr": 5845,
      "Ġcurious": 5846,
      "Ġprovin": 5847,
      "Ġresponse": 5848,
      "Ġsenate": 5849,
      "Ġfolk": 5850,
      "lers": 5851,
      "Ġtiss": 5852,
      "Ġsally": 5853,
      "Ġanal": 5854,
      "Ġsevere": 5855,
      "Ġconsequ": 5856,
      "Ġpean": 5857,
      "Ġharris": 5858,
      "Ġappointed": 5859,
      "Ġhousehold": 5860,
      "ĠChrist": 5861,
      "Ġcolour": 5862,
      "Ġ183": 5863,
      "Ġ500": 5864,
      "Ġawake": 5865,
      "Ġdivided": 5866,
      "Ġsmooth": 5867,
      "Ġlocked": 5868,
      "lock": 5869,
      "ost": 5870,
      "Ġtel": 5871,
      "Ġdyn": 5872,
      "Ġfame": 5873,
      "enger": 5874,
      "icide": 5875,
      "Ġsche": 5876,
      "Ġapples": 5877,
      "iverse": 5878,
      "char": 5879,
      "Ġdeput": 5880,
      "Ġ1982": 5881,
      "Ġ1985": 5882,
      "Ġdavis": 5883,
      "Ġsending": 5884,
      "Ġiran": 5885,
      "Ġfortun": 5886,
      "Ġramsey": 5887,
      "Ġreligious": 5888,
      "Ġinquired": 5889,
      "Ġfreedom": 5890,
      "Ġpit": 5891,
      "Ġrome": 5892,
      "ieved": 5893,
      "Ġspark": 5894,
      "Ġunf": 5895,
      "rences": 5896,
      "Ġrealized": 5897,
      "aws": 5898,
      "ĠGo": 5899,
      "Ġchairman": 5900,
      "Ġ1979": 5901,
      "Ġducks": 5902,
      "Ġtreated": 5903,
      "Ġcaptured": 5904,
      "hetti": 5905,
      "Ġexercise": 5906,
      "ĠGreater": 5907,
      "yard": 5908,
      "Ġpier": 5909,
      "lection": 5910,
      "Ġstad": 5911,
      "Ġsofa": 5912,
      "Ġplastic": 5913,
      "Ġunlike": 5914,
      "Ġprecious": 5915,
      "Ġdemon": 5916,
      "Ġpilot": 5917,
      "Ġtouched": 5918,
      "Ġnervous": 5919,
      "ev": 5920,
      "Ġwinner": 5921,
      "erable": 5922,
      "enced": 5923,
      "Ġnotes": 5924,
      "Ġuns": 5925,
      "iana": 5926,
      "Ġsooner": 5927,
      "Ġlately": 5928,
      "Ġ1950": 5929,
      "Ġreports": 5930,
      "Ġshark": 5931,
      "Ġhoping": 5932,
      "Ġproposed": 5933,
      "Ġlucas": 5934,
      "Ġclimbing": 5935,
      "Ġresponsibility": 5936,
      "Ġpotatoes": 5937,
      "Ġcups": 5938,
      "Ġdialect": 5939,
      "Ġsuffered": 5940,
      "now": 5941,
      "ois": 5942,
      "Ġwings": 5943,
      "Ġisrael": 5944,
      "usted": 5945,
      "acks": 5946,
      "Ġloving": 5947,
      "Ġmarilla": 5948,
      "Ġguitar": 5949,
      "Ġsched": 5950,
      "Ġgiraffe": 5951,
      "Ġpolish": 5952,
      "Ġ36": 5953,
      "Ġphilos": 5954,
      "Ġbelongs": 5955,
      "Ġhannah": 5956,
      "Ġcollection": 5957,
      "Ġcrocod": 5958,
      "writer": 5959,
      "Ġcatholic": 5960,
      "bour": 5961,
      "Ġtam": 5962,
      "Ġaer": 5963,
      "Ġfence": 5964,
      "Ġpowers": 5965,
      "Ġwashed": 5966,
      "Ġmechan": 5967,
      "Ġbrook": 5968,
      "aren": 5969,
      "Ġtyp": 5970,
      "Ġillust": 5971,
      "Ġbatala": 5972,
      "Ġdrove": 5973,
      "Ġlads": 5974,
      "Ġthousands": 5975,
      "Ġdisappear": 5976,
      "Ġcrayons": 5977,
      "Ġearnest": 5978,
      "Ġneighborhood": 5979,
      "Ġfinancial": 5980,
      "bal": 5981,
      "ran": 5982,
      "Ġaint": 5983,
      "Ġopt": 5984,
      "aring": 5985,
      "aph": 5986,
      "ĠOn": 5987,
      "Ġglor": 5988,
      "Ġsales": 5989,
      "Ġsystems": 5990,
      "Ġopera": 5991,
      "Ġexperien": 5992,
      "nesday": 5993,
      "Ġwilliams": 5994,
      "Ġsuffer": 5995,
      "Ġpowder": 5996,
      "stein": 5997,
      "Ġlonely": 5998,
      "ean": 5999,
      "western": 6000,
      "Ġtab": 6001,
      "Ġcage": 6002,
      "Ġcord": 6003,
      "Ġlic": 6004,
      "Ġrum": 6005,
      "entine": 6006,
      "ching": 6007,
      "Ġuseta": 6008,
      "Ġarts": 6009,
      "Ġscrap": 6010,
      "Ġgirlfriend": 6011,
      "Ġcrab": 6012,
      "Ġswall": 6013,
      "Ġvoices": 6014,
      "Ġhandsome": 6015,
      "Ġsigns": 6016,
      "Ġequip": 6017,
      "Ġadministration": 6018,
      "Ġmichigan": 6019,
      "rs": 6020,
      "then": 6021,
      "uries": 6022,
      "Ġtries": 6023,
      "ĠAny": 6024,
      "Ġcheap": 6025,
      "Ġresist": 6026,
      "Ġrecent": 6027,
      "Ġsleepy": 6028,
      "Ġcannon": 6029,
      "Ġattacked": 6030,
      "Ġpigs": 6031,
      "Ġbanks": 6032,
      "Ġprotection": 6033,
      "ture": 6034,
      "yal": 6035,
      "itage": 6036,
      "ases": 6037,
      "aming": 6038,
      "Ġspon": 6039,
      "istry": 6040,
      "Ġleon": 6041,
      "Ġmaisy": 6042,
      "Ġengines": 6043,
      "Ġentr": 6044,
      "Ġincome": 6045,
      "Ġstarring": 6046,
      "Ġticket": 6047,
      "Ġeffects": 6048,
      "Ġachieve": 6049,
      "Ġdrawn": 6050,
      "bage": 6051,
      "zo": 6052,
      "Ġsik": 6053,
      "Ġyup": 6054,
      "Ġinha": 6055,
      "Ġsel": 6056,
      "cture": 6057,
      "Ġvice": 6058,
      "ifle": 6059,
      "Ġchallen": 6060,
      "Ġmississ": 6061,
      "Ġsetting": 6062,
      "Ġgrey": 6063,
      "Ġgrandmother": 6064,
      "Ġpassion": 6065,
      "Ġwinds": 6066,
      "ĠGod": 6067,
      "Ġapartment": 6068,
      "Ġbombas": 6069,
      "Ġurs": 6070,
      "Ġrepresented": 6071,
      "Ġsenior": 6072,
      "Ġfocus": 6073,
      "Ġentertainment": 6074,
      "has": 6075,
      "Ġcig": 6076,
      "Ġdomin": 6077,
      "Ġhed": 6078,
      "Ġmeasure": 6079,
      "Ġnoisy": 6080,
      "Ġaltern": 6081,
      "neath": 6082,
      "Ġamericans": 6083,
      "ippi": 6084,
      "ursday": 6085,
      "Ġtemperature": 6086,
      "Ġimprove": 6087,
      "gt": 6088,
      "gal": 6089,
      "Ġaid": 6090,
      "Ġdwell": 6091,
      "Ġnons": 6092,
      "eding": 6093,
      "ella": 6094,
      "Ġdisney": 6095,
      "Ġcounties": 6096,
      "Ġconserv": 6097,
      "ussy": 6098,
      "Ġtreasure": 6099,
      "Ġmunicipal": 6100,
      "Ġfleet": 6101,
      "Ġbalance": 6102,
      "Ġmcdonalds": 6103,
      "Ġathlet": 6104,
      "gate": 6105,
      "Ġsoo": 6106,
      "reck": 6107,
      "Ġdip": 6108,
      "Ġdish": 6109,
      "Ġfanning": 6110,
      "Ġkay": 6111,
      "Ġsock": 6112,
      "Ġgotten": 6113,
      "Ġwouldnt": 6114,
      "Ġscary": 6115,
      "ĠNorth": 6116,
      "Ġinstant": 6117,
      "Ġconsum": 6118,
      "Ġfactory": 6119,
      "Ġ1969": 6120,
      "Ġcleaning": 6121,
      "Ġridic": 6122,
      "Ġphysical": 6123,
      "Ġdoctors": 6124,
      "dad": 6125,
      "Ġwore": 6126,
      "Ġbaker": 6127,
      "Ġwhats": 6128,
      "outs": 6129,
      "Ġsup": 6130,
      "Ġpear": 6131,
      "Ġbackground": 6132,
      "Ġguid": 6133,
      "Ġunderneath": 6134,
      "Ġchilds": 6135,
      "Ġrooms": 6136,
      "Ġsignal": 6137,
      "Ġfrost": 6138,
      "Ġspending": 6139,
      "Ġduke": 6140,
      "Ġassistant": 6141,
      "while": 6142,
      "Ġscholarship": 6143,
      "hamed": 6144,
      "Ġfart": 6145,
      "Ġlisa": 6146,
      "Ġisnt": 6147,
      "Ġputs": 6148,
      "Ġsteel": 6149,
      "Ġzero": 6150,
      "Ġrelative": 6151,
      "Ġpassengers": 6152,
      "Ġlessons": 6153,
      "Ġraining": 6154,
      "Ġglasses": 6155,
      "Ġpicnic": 6156,
      "Ġgathered": 6157,
      "Ġstolen": 6158,
      "Ġemperor": 6159,
      "Ġmississippi": 6160,
      "bble": 6161,
      "lines": 6162,
      "ox": 6163,
      "was": 6164,
      "inting": 6165,
      "Ġpeak": 6166,
      "Ġnit": 6167,
      "Ġrejo": 6168,
      "anton": 6169,
      "Ġletting": 6170,
      "Ġshoulders": 6171,
      "order": 6172,
      "Ġdishes": 6173,
      "Ġremains": 6174,
      "Ġahhah": 6175,
      "Ġbelt": 6176,
      "Ġdeserve": 6177,
      "Ġ1976": 6178,
      "Ġdollar": 6179,
      "Ġrubb": 6180,
      "Ġcycl": 6181,
      "Ġreferred": 6182,
      "16": 6183,
      "sp": 6184,
      "Ġtoe": 6185,
      "Ġteen": 6186,
      "ounty": 6187,
      "Ġapplic": 6188,
      "Ġ32": 6189,
      "Ġcauses": 6190,
      "Ġconstant": 6191,
      "Ġcounter": 6192,
      "Ġprograms": 6193,
      "Ġselling": 6194,
      "Ġbiography": 6195,
      "Ġexecutive": 6196,
      "Ġhidden": 6197,
      "Ġgabriella": 6198,
      "Ġintellig": 6199,
      "Ġbeneath": 6200,
      "wing": 6201,
      "with": 6202,
      "Ġjake": 6203,
      "Ġbug": 6204,
      "Ġstring": 6205,
      "Ġinstance": 6206,
      "Ġseats": 6207,
      "Ġmicrophone": 6208,
      "Ġpiano": 6209,
      "Ġequipment": 6210,
      "ez": 6211,
      "rom": 6212,
      "rels": 6213,
      "Ġki": 6214,
      "Ġky": 6215,
      "Ġjing": 6216,
      "chool": 6217,
      "Ġwhoever": 6218,
      "Ġconver": 6219,
      "rific": 6220,
      "Ġchase": 6221,
      "ĠAll": 6222,
      "Ġboyfriend": 6223,
      "ocks": 6224,
      "coln": 6225,
      "Ġconditions": 6226,
      "Ġburned": 6227,
      "Ġporter": 6228,
      "Ġbuttons": 6229,
      "Ġugly": 6230,
      "Ġstadium": 6231,
      "five": 6232,
      "Ġtag": 6233,
      "Ġgained": 6234,
      "Ġbend": 6235,
      "Ġka": 6236,
      "Ġjac": 6237,
      "Ġmyth": 6238,
      "Ġsauce": 6239,
      "Ġbold": 6240,
      "Ġnicely": 6241,
      "Ġsorts": 6242,
      "Ġstuffed": 6243,
      "Ġdelay": 6244,
      "Ġextent": 6245,
      "Ġchampion": 6246,
      "Ġhousing": 6247,
      "Ġstrugg": 6248,
      "Ġrahul": 6249,
      "Ġarrondissement": 6250,
      "lies": 6251,
      "water": 6252,
      "Ġwing": 6253,
      "Ġod": 6254,
      "Ġcave": 6255,
      "Ġded": 6256,
      "Ġlamp": 6257,
      "Ġwealth": 6258,
      "Ġdod": 6259,
      "iev": 6260,
      "iece": 6261,
      "Ġclou": 6262,
      "Ġuniverse": 6263,
      "Ġhoor": 6264,
      "Ġcontent": 6265,
      "Ġkindly": 6266,
      "Ġillness": 6267,
      "Ġmarked": 6268,
      "Ġplanet": 6269,
      "Ġsolid": 6270,
      "Ġarrang": 6271,
      "Ġconnection": 6272,
      "Ġtent": 6273,
      "Ġyah": 6274,
      "Ġfate": 6275,
      "Ġgain": 6276,
      "iture": 6277,
      "Ġrag": 6278,
      "Ġford": 6279,
      "Ġanyhow": 6280,
      "Ġconce": 6281,
      "emic": 6282,
      "Ġcovers": 6283,
      "Ġsteady": 6284,
      "Ġdecor": 6285,
      "Ġpatrick": 6286,
      "Ġpubl": 6287,
      "Ġofficially": 6288,
      "Ġdistricts": 6289,
      "Ġbasic": 6290,
      "Ġphilipp": 6291,
      "Ġkissed": 6292,
      "Ġappears": 6293,
      "Ġchampionships": 6294,
      "Ġwhisper": 6295,
      "Ġenvironmental": 6296,
      "Ġmmhmm": 6297,
      "Ġbos": 6298,
      "Ġcows": 6299,
      "Ġfel": 6300,
      "lle": 6301,
      "Ġross": 6302,
      "Ġmanuf": 6303,
      "Ġgray": 6304,
      "Ġbetray": 6305,
      "ĠAm": 6306,
      "Ġfinds": 6307,
      "Ġslip": 6308,
      "Ġassum": 6309,
      "Ġ1981": 6310,
      "Ġinterp": 6311,
      "ĠFor": 6312,
      "Ġbasis": 6313,
      "Ġdefense": 6314,
      "Ġadvance": 6315,
      "Ġestim": 6316,
      "Ġlemon": 6317,
      "Ġmystery": 6318,
      "Ġrestaurant": 6319,
      "mad": 6320,
      "py": 6321,
      "rative": 6322,
      "Ġaile": 6323,
      "Ġdot": 6324,
      "Ġfits": 6325,
      "isl": 6326,
      "Ġthumb": 6327,
      "alph": 6328,
      "Ġult": 6329,
      "Ġpond": 6330,
      "Ġwarning": 6331,
      "Ġpersons": 6332,
      "Ġintended": 6333,
      "Ġretire": 6334,
      "Ġsneak": 6335,
      "Ġ1984": 6336,
      "Ġbritain": 6337,
      "Ġeconomic": 6338,
      "Ġnearer": 6339,
      "Ġextremely": 6340,
      "Ġtunnel": 6341,
      "Ġmanufact": 6342,
      "hta": 6343,
      "rr": 6344,
      "Ġdal": 6345,
      "Ġfier": 6346,
      "Ġisab": 6347,
      "Ġrig": 6348,
      "utions": 6349,
      "iring": 6350,
      "ouri": 6351,
      "olved": 6352,
      "ardo": 6353,
      "Ġmanip": 6354,
      "Ġpeep": 6355,
      "Ġchamber": 6356,
      "Ġmarks": 6357,
      "Ġtender": 6358,
      "Ġharvey": 6359,
      "Ġrescue": 6360,
      "Ġphr": 6361,
      "Ġpresented": 6362,
      "arrass": 6363,
      "Ġresources": 6364,
      "Ġpregnant": 6365,
      "Ġarkansas": 6366,
      "vis": 6367,
      "Ġsons": 6368,
      "Ġms": 6369,
      "Ġfetch": 6370,
      "Ġdewe": 6371,
      "Ġbrings": 6372,
      "angers": 6373,
      "Ġgreatly": 6374,
      "Ġcontains": 6375,
      "Ġ1975": 6376,
      "Ġsung": 6377,
      "Ġyards": 6378,
      "Ġisa": 6379,
      "Ġstole": 6380,
      "acher": 6381,
      "Ġmos": 6382,
      "Ġshook": 6383,
      "ulate": 6384,
      "Ġspag": 6385,
      "Ġparties": 6386,
      "ĠCom": 6387,
      "Ġreality": 6388,
      "Ġsquad": 6389,
      "Ġlanding": 6390,
      "Ġrivers": 6391,
      "Ġ80": 6392,
      "Ġcountryside": 6393,
      "Ġexplos": 6394,
      "Ġcloth": 6395,
      "syl": 6396,
      "burgh": 6397,
      "idae": 6398,
      "Ġslept": 6399,
      "Ġprimary": 6400,
      "Ġpermission": 6401,
      "Ġembarrass": 6402,
      "ĠAlright": 6403,
      "Ġpacific": 6404,
      "Ġaltogether": 6405,
      "13": 6406,
      "14": 6407,
      "corn": 6408,
      "iar": 6409,
      "esh": 6410,
      "Ġashamed": 6411,
      "Ġcomed": 6412,
      "Ġunus": 6413,
      "Ġpride": 6414,
      "Ġjolly": 6415,
      "Ġscript": 6416,
      "Ġcolon": 6417,
      "Ġedmund": 6418,
      "Ġmmm": 6419,
      "Ġfunction": 6420,
      "Ġcalcul": 6421,
      "Ġjackson": 6422,
      "Ġpupp": 6423,
      "Ġrichards": 6424,
      "Ġinstruct": 6425,
      "Ġunfortunately": 6426,
      "Ġhelicopter": 6427,
      "Ġscheme": 6428,
      "cies": 6429,
      "iable": 6430,
      "rets": 6431,
      "any": 6432,
      "Ġnest": 6433,
      "ito": 6434,
      "Ġitem": 6435,
      "Ġken": 6436,
      "Ġgoals": 6437,
      "Ġability": 6438,
      "Ġexha": 6439,
      "Ġconqu": 6440,
      "Ġloyal": 6441,
      "Ġenem": 6442,
      "Ġflash": 6443,
      "Ġscen": 6444,
      "Ġsmiled": 6445,
      "Ġleaf": 6446,
      "ĠCh": 6447,
      "Ġstands": 6448,
      "Ġboxes": 6449,
      "uesday": 6450,
      "Ġrevol": 6451,
      "Ġincreased": 6452,
      "Ġdescription": 6453,
      "Ġroute": 6454,
      "Ġtidy": 6455,
      "Ġdewey": 6456,
      "hol": 6457,
      "reet": 6458,
      "Ġrent": 6459,
      "imp": 6460,
      "eable": 6461,
      "ilton": 6462,
      "istics": 6463,
      "Ġcommitted": 6464,
      "Ġsorrow": 6465,
      "Ġpoorly": 6466,
      "ologist": 6467,
      "Ġchecked": 6468,
      "Ġbarty": 6469,
      "Ġsara": 6470,
      "Ġgalley": 6471,
      "Ġaccompan": 6472,
      "Ġefforts": 6473,
      "Ġjunior": 6474,
      "Ġridiculous": 6475,
      "Ġast": 6476,
      "Ġari": 6477,
      "Ġlane": 6478,
      "Ġhavent": 6479,
      "Ġere": 6480,
      "Ġrus": 6481,
      "stone": 6482,
      "Ġseasons": 6483,
      "cend": 6484,
      "Ġohio": 6485,
      "Ġspect": 6486,
      "ĠWho": 6487,
      "Ġpresents": 6488,
      "Ġ35": 6489,
      "Ġregret": 6490,
      "Ġcathed": 6491,
      "Ġfuneral": 6492,
      "Ġtyler": 6493,
      "Ġamongst": 6494,
      "Ġdifficulty": 6495,
      "Ġdora": 6496,
      "Ġtin": 6497,
      "Ġyoull": 6498,
      "onom": 6499,
      "asy": 6500,
      "Ġrefe": 6501,
      "urally": 6502,
      "illing": 6503,
      "Ġworn": 6504,
      "Ġwillie": 6505,
      "Ġmans": 6506,
      "Ġbitter": 6507,
      "Ġmighty": 6508,
      "Ġsites": 6509,
      "ships": 6510,
      "Ġ1964": 6511,
      "Ġexplan": 6512,
      "Ġstronger": 6513,
      "Ġbasketball": 6514,
      "Ġbastard": 6515,
      "hus": 6516,
      "kia": 6517,
      "Ġcateg": 6518,
      "Ġni": 6519,
      "Ġfork": 6520,
      "Ġanth": 6521,
      "Ġsheet": 6522,
      "Ġgranny": 6523,
      "Ġuncom": 6524,
      "Ġpreviously": 6525,
      "ĠAha": 6526,
      "Ġholl": 6527,
      "Ġcomplex": 6528,
      "Ġmothers": 6529,
      "Ġconfidence": 6530,
      "Ġ1968": 6531,
      "Ġservants": 6532,
      "Ġroads": 6533,
      "Ġcreature": 6534,
      "Ġadams": 6535,
      "Ġaccompl": 6536,
      "Ġescaped": 6537,
      "becca": 6538,
      "Ġtheatre": 6539,
      "Ġgrateful": 6540,
      "Ġnonsense": 6541,
      "bled": 6542,
      "uch": 6543,
      "inem": 6544,
      "Ġmood": 6545,
      "Ġdies": 6546,
      "Ġdave": 6547,
      "Ġfake": 6548,
      "arian": 6549,
      "Ġthorough": 6550,
      "Ġbeans": 6551,
      "Ġreign": 6552,
      "keep": 6553,
      "Ġasia": 6554,
      "resp": 6555,
      "Ġdrum": 6556,
      "Ġburton": 6557,
      "Ġcrossed": 6558,
      "Ġwaters": 6559,
      "Ġsnakes": 6560,
      "Ġeconomy": 6561,
      "Ġarchite": 6562,
      "Ġcherry": 6563,
      "Ġcarolina": 6564,
      "Ġchildsname": 6565,
      "erves": 6566,
      "Ġfan": 6567,
      "Ġfab": 6568,
      "Ġlola": 6569,
      "Ġjelly": 6570,
      "Ġages": 6571,
      "Ġminnes": 6572,
      "Ġbreast": 6573,
      "Ġrecall": 6574,
      "Ġshortly": 6575,
      "Ġlawrence": 6576,
      "Ġpotty": 6577,
      "Ġturkey": 6578,
      "Ġattacks": 6579,
      "leton": 6580,
      "Ġbullet": 6581,
      "Ġauthorities": 6582,
      "Ġrising": 6583,
      "Ġlimit": 6584,
      "Ġmemor": 6585,
      "Ġtracks": 6586,
      "Ġwhale": 6587,
      "ĠYorkshire": 6588,
      "Ġwrestling": 6589,
      "Ġalfgar": 6590,
      "Ġminnesota": 6591,
      "car": 6592,
      "cest": 6593,
      "pot": 6594,
      "Ġalden": 6595,
      "Ġsi": 6596,
      "omi": 6597,
      "Ġrh": 6598,
      "Ġhers": 6599,
      "olph": 6600,
      "Ġcomr": 6601,
      "Ġlaun": 6602,
      "Ġmustn": 6603,
      "Ġmaid": 6604,
      "Ġ2023": 6605,
      "Ġwondered": 6606,
      "Ġconsult": 6607,
      "Ġbuilder": 6608,
      "Ġteachers": 6609,
      "Ġjersey": 6610,
      "Ġutter": 6611,
      "Ġdespite": 6612,
      "Ġspaghetti": 6613,
      "mes": 6614,
      "Ġtropical": 6615,
      "Ġfisher": 6616,
      "Ġthunder": 6617,
      "Ġrope": 6618,
      "Ġreview": 6619,
      "Ġgods": 6620,
      "Ġbrick": 6621,
      "Ġcarter": 6622,
      "Ġflood": 6623,
      "Ġhappiness": 6624,
      "Ġcrap": 6625,
      "Ġgenus": 6626,
      "Ġ1973": 6627,
      "odes": 6628,
      "Ġseventeen": 6629,
      "Ġwounded": 6630,
      "Ġvehicle": 6631,
      "lam": 6632,
      "Ġire": 6633,
      "Ġwip": 6634,
      "Ġwaves": 6635,
      "nda": 6636,
      "Ġreward": 6637,
      "Ġjur": 6638,
      "Ġdonkey": 6639,
      "Ġvas": 6640,
      "Ġchose": 6641,
      "aka": 6642,
      "Ġgrape": 6643,
      "Ġunits": 6644,
      "Ġcompared": 6645,
      "athy": 6646,
      "Ġmissouri": 6647,
      "Ġdistinct": 6648,
      "Ġhurried": 6649,
      "Ġbelief": 6650,
      "Ġdawn": 6651,
      "Ġdarkness": 6652,
      "Ġsusan": 6653,
      "Ġdebate": 6654,
      "Ġsuffering": 6655,
      "Ġrailway": 6656,
      "Ġsatisfied": 6657,
      "Ġstruggle": 6658,
      "Ġgoddess": 6659,
      "Ġwicked": 6660,
      "Ġfantastic": 6661,
      "ĠWhich": 6662,
      "Ġhydro": 6663,
      "Ġcongratulations": 6664,
      "Ġincredible": 6665,
      "Ġbubbles": 6666,
      "bor": 6667,
      "Ġavenue": 6668,
      "Ġwishes": 6669,
      "Ġnancy": 6670,
      "asm": 6671,
      "Ġralph": 6672,
      "Ġstern": 6673,
      "Ġstanton": 6674,
      "eau": 6675,
      "elled": 6676,
      "ques": 6677,
      "Ġconclud": 6678,
      "Ġscored": 6679,
      "achus": 6680,
      "Ġdrown": 6681,
      "icted": 6682,
      "Ġswear": 6683,
      "Ġmurdered": 6684,
      "Ġinvestigation": 6685,
      "Ġfollows": 6686,
      "net": 6687,
      "vid": 6688,
      "Ġreform": 6689,
      "Ġgoat": 6690,
      "akin": 6691,
      "Ġchain": 6692,
      "issa": 6693,
      "Ġbund": 6694,
      "inton": 6695,
      "Ġbeds": 6696,
      "Ġstarred": 6697,
      "Ġ179": 6698,
      "Ġdetail": 6699,
      "Ġblowing": 6700,
      "Ġrequired": 6701,
      "Ġconcern": 6702,
      "Ġlevels": 6703,
      "Ġcheeky": 6704,
      "vania": 6705,
      "Ġwinnie": 6706,
      "Ġsqueeze": 6707,
      "Ġpile": 6708,
      "Ġjin": 6709,
      "sely": 6710,
      "Ġnokia": 6711,
      "ello": 6712,
      "rial": 6713,
      "Ġbuying": 6714,
      "Ġresident": 6715,
      "Ġchart": 6716,
      "Ġpersu": 6717,
      "Ġexchan": 6718,
      "Ġcoloring": 6719,
      "Ġartists": 6720,
      "Ġlesson": 6721,
      "Ġdetails": 6722,
      "Ġcompeted": 6723,
      "Ġpennsyl": 6724,
      "Ġcrayon": 6725,
      "Ġstroke": 6726,
      "Ġnephew": 6727,
      "Ġcind": 6728,
      "Ġpha": 6729,
      "Ġnana": 6730,
      "Ġhom": 6731,
      "etts": 6732,
      "ams": 6733,
      "umber": 6734,
      "elle": 6735,
      "Ġnowhere": 6736,
      "Ġspots": 6737,
      "Ġload": 6738,
      "aki": 6739,
      "Ġmomma": 6740,
      "Ġbuzz": 6741,
      "ĠCounty": 6742,
      "Ġopens": 6743,
      "Ġlightning": 6744,
      "Ġmethod": 6745,
      "Ġspeaker": 6746,
      "Ġ70": 6747,
      "Ġappropri": 6748,
      "Ġcosts": 6749,
      "Ġvictoria": 6750,
      "Ġtissue": 6751,
      "Ġcrocodile": 6752,
      "Ġom": 6753,
      "Ġtools": 6754,
      "ani": 6755,
      "Ġstove": 6756,
      "Ġproved": 6757,
      "Ġunknown": 6758,
      "Ġmeanwhile": 6759,
      "ĠMy": 6760,
      "Ġcharges": 6761,
      "ogne": 6762,
      "azz": 6763,
      "Ġ1974": 6764,
      "Ġ1977": 6765,
      "Ġsticks": 6766,
      "Ġlocation": 6767,
      "Ġannoy": 6768,
      "Ġ1930": 6769,
      "Ġrepresentative": 6770,
      "Ġdelighted": 6771,
      "Ġscotland": 6772,
      "Ġcitizens": 6773,
      "Ġenemies": 6774,
      "Ġpennsylvania": 6775,
      "ares": 6776,
      "wide": 6777,
      "rec": 6778,
      "Ġoy": 6779,
      "Ġmath": 6780,
      "Ġtoss": 6781,
      "Ġnhl": 6782,
      "Ġweve": 6783,
      "acing": 6784,
      "Ġseal": 6785,
      "Ġnod": 6786,
      "Ġnoble": 6787,
      "Ġshed": 6788,
      "Ġsue": 6789,
      "Ġspin": 6790,
      "Ġbond": 6791,
      "Ġunha": 6792,
      "Ġbuff": 6793,
      "ĠSh": 6794,
      "anche": 6795,
      "Ġbegins": 6796,
      "Ġrefused": 6797,
      "Ġemot": 6798,
      "Ġcompleted": 6799,
      "Ġlaught": 6800,
      "Ġowl": 6801,
      "Ġshops": 6802,
      "Ġteaching": 6803,
      "Ġpenny": 6804,
      "Ġbenefit": 6805,
      "Ġcuddle": 6806,
      "Ġaileen": 6807,
      "racy": 6808,
      "til": 6809,
      "Ġcouch": 6810,
      "Ġgord": 6811,
      "asp": 6812,
      "oos": 6813,
      "acle": 6814,
      "ira": 6815,
      "ros": 6816,
      "ilight": 6817,
      "Ġgettin": 6818,
      "orted": 6819,
      "Ġflow": 6820,
      "Ġumbre": 6821,
      "lings": 6822,
      "Ġstepped": 6823,
      "Ġkiller": 6824,
      "Ġcents": 6825,
      "Ġconfess": 6826,
      "Ġmurm": 6827,
      "Ġorganis": 6828,
      "Ġrubber": 6829,
      "Ġvolume": 6830,
      "Ġviolence": 6831,
      "Ġpunishment": 6832,
      "Ġcaroline": 6833,
      "Ġdreadful": 6834,
      "Ġjessica": 6835,
      "Ġtraditional": 6836,
      "Ġsponge": 6837,
      "Ġhooray": 6838,
      "Ġcathedral": 6839,
      "dh": 6840,
      "wick": 6841,
      "Ġastr": 6842,
      "Ġfaint": 6843,
      "Ġrebecca": 6844,
      "Ġdeer": 6845,
      "Ġunif": 6846,
      "ĠWill": 6847,
      "Ġdisplay": 6848,
      "Ġcontain": 6849,
      "phy": 6850,
      "apped": 6851,
      "Ġmcgl": 6852,
      "Ġdisappointed": 6853,
      "Ġlux": 6854,
      "Ġvotes": 6855,
      "Ġprovinces": 6856,
      "case": 6857,
      "Ġtang": 6858,
      "Ġaston": 6859,
      "Ġcreeks": 6860,
      "Ġdull": 6861,
      "Ġnane": 6862,
      "adel": 6863,
      "sell": 6864,
      "Ġbron": 6865,
      "Ġbranc": 6866,
      "Ġleather": 6867,
      "Ġwrit": 6868,
      "boat": 6869,
      "Ġearned": 6870,
      "enny": 6871,
      "Ġlands": 6872,
      "Ġdriven": 6873,
      "Ġlabour": 6874,
      "Ġchapter": 6875,
      "Ġprepare": 6876,
      "Ġsignificant": 6877,
      "Ġwra": 6878,
      "Ġpatch": 6879,
      "aro": 6880,
      "ĠAn": 6881,
      "Ġacted": 6882,
      "Ġkidna": 6883,
      "Ġ1966": 6884,
      "ĠLet": 6885,
      "Ġpolitics": 6886,
      "Ġtale": 6887,
      "Ġcontinues": 6888,
      "Ġnecessarily": 6889,
      "Ġwednesday": 6890,
      "Ġactivities": 6891,
      "Ġstatus": 6892,
      "Ġregarded": 6893,
      "Ġlincoln": 6894,
      "Ġwhistle": 6895,
      "Ġmultiple": 6896,
      "Ġpronoun": 6897,
      "Ġnanew": 6898,
      "uals": 6899,
      "Ġtack": 6900,
      "Ġax": 6901,
      "Ġcater": 6902,
      "Ġdough": 6903,
      "Ġpiss": 6904,
      "anas": 6905,
      "Ġalan": 6906,
      "Ġaband": 6907,
      "Ġwanting": 6908,
      "Ġguide": 6909,
      "Ġkevin": 6910,
      "ĠSorry": 6911,
      "Ġsla": 6912,
      "Ġconsist": 6913,
      "Ġexped": 6914,
      "Ġhumans": 6915,
      "Ġspirits": 6916,
      "Ġsnap": 6917,
      "adesh": 6918,
      "Ġhistorical": 6919,
      "Ġdeputy": 6920,
      "Ġinhabit": 6921,
      "Ġclouds": 6922,
      "21": 6923,
      "Ġcakes": 6924,
      "Ġgina": 6925,
      "Ġnuts": 6926,
      "iser": 6927,
      "Ġheight": 6928,
      "Ġstamp": 6929,
      "Ġvain": 6930,
      "Ġvig": 6931,
      "Ġtwilight": 6932,
      "Ġunable": 6933,
      "Ġquant": 6934,
      "Ġchildhood": 6935,
      "Ġcheers": 6936,
      "Ġappeal": 6937,
      "Ġsupply": 6938,
      "Ġpointed": 6939,
      "Ġcurtain": 6940,
      "Ġsounded": 6941,
      "Ġdaisy": 6942,
      "Ġpurcha": 6943,
      "Ġhundreds": 6944,
      "Ġbags": 6945,
      "Ġtreatment": 6946,
      "Ġtigger": 6947,
      "Ġconnected": 6948,
      "Ġamendment": 6949,
      "ji": 6950,
      "met": 6951,
      "wyn": 6952,
      "Ġbour": 6953,
      "onic": 6954,
      "Ġpist": 6955,
      "Ġruff": 6956,
      "Ġrushed": 6957,
      "imately": 6958,
      "Ġancest": 6959,
      "Ġmoves": 6960,
      "Ġalarm": 6961,
      "Ġconvin": 6962,
      "Ġpoll": 6963,
      "Ġmoments": 6964,
      "ĠBrit": 6965,
      "Ġfathers": 6966,
      "Ġlistened": 6967,
      "Ġregional": 6968,
      "Ġnearby": 6969,
      "Ġ1978": 6970,
      "Ġpriest": 6971,
      "Ġmerged": 6972,
      "Ġmercy": 6973,
      "Ġexpecting": 6974,
      "Ġsoftly": 6975,
      "Ġactivity": 6976,
      "Ġkorean": 6977,
      "achusetts": 6978,
      "mission": 6979,
      "tis": 6980,
      "wan": 6981,
      "Ġandre": 6982,
      "Ġhamb": 6983,
      "Ġstool": 6984,
      "Ġstations": 6985,
      "Ġjar": 6986,
      "Ġseas": 6987,
      "illed": 6988,
      "Ġshy": 6989,
      "Ġvirt": 6990,
      "Ġagency": 6991,
      "Ġpole": 6992,
      "Ġpartly": 6993,
      "Ġkeen": 6994,
      "Ġeditor": 6995,
      "Ġcapac": 6996,
      "Ġreliance": 6997,
      "Ġwoke": 6998,
      "Ġlanded": 6999,
      "Ġmerry": 7000,
      "Ġirish": 7001,
      "Ġpolicies": 7002,
      "Ġmassachusetts": 7003,
      "Ġsexual": 7004,
      "Ġqueens": 7005,
      "Ġattended": 7006,
      "Ġdepends": 7007,
      "Ġeagerly": 7008,
      "Ġcricket": 7009,
      "belt": 7010,
      "zing": 7011,
      "Ġmental": 7012,
      "Ġcwww": 7013,
      "Ġcott": 7014,
      "Ġnord": 7015,
      "ali": 7016,
      "imum": 7017,
      "Ġconcl": 7018,
      "Ġtwe": 7019,
      "Ġlover": 7020,
      "eps": 7021,
      "Ġaffection": 7022,
      "Ġproof": 7023,
      "Ġprec": 7024,
      "Ġdisag": 7025,
      "Ġtalks": 7026,
      "ĠSat": 7027,
      "ĠEng": 7028,
      "Ġnumer": 7029,
      "Ġminds": 7030,
      "Ġ1971": 7031,
      "Ġconfl": 7032,
      "Ġinsurance": 7033,
      "Ġcryst": 7034,
      "Ġcommonly": 7035,
      "Ġarrive": 7036,
      "Ġsplash": 7037,
      "Ġmissionary": 7038,
      "Ġunusual": 7039,
      "Ġcf": 7040,
      "Ġcav": 7041,
      "erg": 7042,
      "Ġroo": 7043,
      "irts": 7044,
      "Ġmars": 7045,
      "Ġundert": 7046,
      "Ġmonkeys": 7047,
      "Ġ180": 7048,
      "Ġsurgery": 7049,
      "umpy": 7050,
      "Ġgrandad": 7051,
      "Ġlegisl": 7052,
      "Ġgarth": 7053,
      "Ġelectron": 7054,
      "Ġjenny": 7055,
      "Ġargument": 7056,
      "Ġireland": 7057,
      "Ġhambur": 7058,
      "des": 7059,
      "Ġmwww": 7060,
      "Ġpul": 7061,
      "Ġthief": 7062,
      "Ġspy": 7063,
      "venge": 7064,
      "Ġfee": 7065,
      "Ġslipp": 7066,
      "Ġ33": 7067,
      "Ġrelief": 7068,
      "standing": 7069,
      "Ġinternet": 7070,
      "Ġsupported": 7071,
      "Ġtorn": 7072,
      "Ġprisoner": 7073,
      "Ġshouting": 7074,
      "Ġhonestly": 7075,
      "Ġaudience": 7076,
      "Ġadventures": 7077,
      "Ġpenguin": 7078,
      ",..": 7079,
      "uing": 7080,
      "heas": 7081,
      "Ġwreck": 7082,
      "Ġbah": 7083,
      "Ġbib": 7084,
      "Ġyouve": 7085,
      "Ġrifle": 7086,
      "uma": 7087,
      "Ġshapes": 7088,
      "aving": 7089,
      "Ġapply": 7090,
      "Ġ34": 7091,
      "Ġimpress": 7092,
      "Ġpersonally": 7093,
      "Ġ1983": 7094,
      "Ġclosely": 7095,
      "Ġleads": 7096,
      "Ġimportance": 7097,
      "Ġflew": 7098,
      "Ġintroduce": 7099,
      "Ġthreatened": 7100,
      "Ġcommercial": 7101,
      "Ġcotton": 7102,
      "Ġassembly": 7103,
      "Ġobliged": 7104,
      "bar": 7105,
      "Ġdumb": 7106,
      "Ġpipe": 7107,
      "Ġny": 7108,
      "orter": 7109,
      "ivered": 7110,
      "Ġloads": 7111,
      "Ġfeather": 7112,
      "Ġdoesnt": 7113,
      "ysis": 7114,
      "Ġkeith": 7115,
      "Ġcompar": 7116,
      "Ġslipped": 7117,
      "Ġpoland": 7118,
      "Ġelement": 7119,
      "Ġlisted": 7120,
      "Ġ1957": 7121,
      "Ġexamples": 7122,
      "Ġsufficient": 7123,
      "Ġlifted": 7124,
      "Ġcadet": 7125,
      "looking": 7126,
      "Ġturkish": 7127,
      "Ġmcglory": 7128,
      "heim": 7129,
      "Ġpon": 7130,
      "Ġpanc": 7131,
      "Ġnail": 7132,
      "orpor": 7133,
      "Ġframe": 7134,
      "ctions": 7135,
      "Ġexceed": 7136,
      "Ġguards": 7137,
      "Ġpartners": 7138,
      "Ġstops": 7139,
      "Ġimper": 7140,
      "Ġmathem": 7141,
      "Ġpainted": 7142,
      "ĠLab": 7143,
      "Ġservant": 7144,
      "Ġsumm": 7145,
      "Ġphoto": 7146,
      "Ġcheeks": 7147,
      "Ġproducts": 7148,
      "Ġatlantic": 7149,
      "Ġevidently": 7150,
      "Ġlaughter": 7151,
      "Ġumbrella": 7152,
      "Ġbranches": 7153,
      "aa": 7154,
      "inlaw": 7155,
      "itan": 7156,
      "Ġrider": 7157,
      "Ġanton": 7158,
      "unte": 7159,
      "Ġchip": 7160,
      "Ġbrac": 7161,
      "Ġfever": 7162,
      "onscious": 7163,
      "Ġaccused": 7164,
      "Ġcompanions": 7165,
      "Ġcomplain": 7166,
      "Ġsticky": 7167,
      "Ġkissing": 7168,
      "glas": 7169,
      "Ġcapture": 7170,
      "Ġcabinet": 7171,
      "Ġcasson": 7172,
      "Ġcriminal": 7173,
      "Ġukraine": 7174,
      "Ġcigaret": 7175,
      "Ġappropriate": 7176,
      "oor": 7177,
      "Ġtires": 7178,
      "Ġdirt": 7179,
      "erman": 7180,
      "Ġpitch": 7181,
      "Ġpussy": 7182,
      "itated": 7183,
      "etime": 7184,
      "Ġwebs": 7185,
      "american": 7186,
      "inkle": 7187,
      "Ġblues": 7188,
      "Ġcheering": 7189,
      "Ġglob": 7190,
      "inned": 7191,
      "Ġanimated": 7192,
      "Ġ...": 7193,
      "Ġchristopher": 7194,
      "Ġ1967": 7195,
      "Ġvisited": 7196,
      "Ġtickets": 7197,
      "Ġhyun": 7198,
      "Ġorganized": 7199,
      "Ġhealthy": 7200,
      "Ġprisoners": 7201,
      "Ġmuttered": 7202,
      "Ġsheriff": 7203,
      "Ġconfirmed": 7204,
      "Ġvegetables": 7205,
      "ĠSaturday": 7206,
      "90": 7207,
      "dale": 7208,
      "nat": 7209,
      "Ġsou": 7210,
      "Ġyer": 7211,
      "Ġlas": 7212,
      "Ġthursday": 7213,
      "Ġens": 7214,
      "ĠTo": 7215,
      "ĠSee": 7216,
      "Ġstopping": 7217,
      "Ġattorn": 7218,
      "ĠRo": 7219,
      "they": 7220,
      "Ġtroubles": 7221,
      "Ġclasses": 7222,
      "Ġjeann": 7223,
      "Ġgrowth": 7224,
      "Ġmiserable": 7225,
      "Ġinstrument": 7226,
      "Ġinjured": 7227,
      "Ġtriangle": 7228,
      "Ġphrase": 7229,
      "Ġinhabitants": 7230,
      "yy": 7231,
      "Ġsne": 7232,
      "Ġgif": 7233,
      "Ġginger": 7234,
      "Ġnay": 7235,
      "Ġhend": 7236,
      "Ġrude": 7237,
      "Ġsean": 7238,
      "Ġalt": 7239,
      "Ġcomin": 7240,
      "Ġconvent": 7241,
      "Ġgrac": 7242,
      "Ġpee": 7243,
      "Ġbackwards": 7244,
      "Ġcarpet": 7245,
      "ivity": 7246,
      "Ġhurting": 7247,
      "inson": 7248,
      "Ġconscious": 7249,
      "Ġdecent": 7250,
      "Ġfacts": 7251,
      "Ġfifa": 7252,
      "Ġdefence": 7253,
      "ribly": 7254,
      "Ġtemple": 7255,
      "Ġsoutheast": 7256,
      "Ġassociated": 7257,
      "Ġremaining": 7258,
      "Ġcongressional": 7259,
      "Ġdescribe": 7260,
      "Ġcereal": 7261,
      "Ġgrapes": 7262,
      "Ġtennis": 7263,
      "Ġadopted": 7264,
      "Ġliquid": 7265,
      "Ġdesperate": 7266,
      "Ġlilian": 7267,
      "ĠLabour": 7268,
      "hu": 7269,
      "jac": 7270,
      "Ġwww": 7271,
      "Ġsed": 7272,
      "Ġanti": 7273,
      "ilst": 7274,
      "Ġclick": 7275,
      "Ġshaking": 7276,
      "Ġpoem": 7277,
      "Ġmaria": 7278,
      "Ġstrict": 7279,
      "Ġfriendship": 7280,
      "Ġimpact": 7281,
      "Ġdressing": 7282,
      "Ġscientific": 7283,
      "Ġdegrees": 7284,
      "Ġclaire": 7285,
      "Ġpoetry": 7286,
      "Ġfarther": 7287,
      "aurs": 7288,
      "ni": 7289,
      "inated": 7290,
      "Ġct": 7291,
      "Ġdub": 7292,
      "Ġkin": 7293,
      "Ġnoted": 7294,
      "Ġvast": 7295,
      "Ġchug": 7296,
      "oses": 7297,
      "Ġcouldnt": 7298,
      "Ġemily": 7299,
      "Ġbillion": 7300,
      "Ġphilip": 7301,
      "Ġ1940": 7302,
      "Ġadvanced": 7303,
      "Ġexperiment": 7304,
      "Ġtesting": 7305,
      "Ġvolunte": 7306,
      "Ġphotograph": 7307,
      "Ġcarrots": 7308,
      "Ġheavily": 7309,
      "Ġslavery": 7310,
      "22": 7311,
      "gb": 7312,
      "low": 7313,
      "uable": 7314,
      "Ġwins": 7315,
      "Ġbun": 7316,
      "Ġgates": 7317,
      "oman": 7318,
      "lement": 7319,
      "icing": 7320,
      "Ġrear": 7321,
      "uman": 7322,
      "iffe": 7323,
      "Ġlew": 7324,
      "Ġcovid": 7325,
      "Ġblast": 7326,
      "Ġpointing": 7327,
      "Ġguar": 7328,
      "Ġtryin": 7329,
      "Ġcurly": 7330,
      "Ġdepression": 7331,
      "ricult": 7332,
      "Ġbearing": 7333,
      "Ġexplore": 7334,
      "Ġchecking": 7335,
      "Ġsunsh": 7336,
      "Ġadmitted": 7337,
      "Ġcampbell": 7338,
      "Ġconstruction": 7339,
      "Ġnortheast": 7340,
      "Ġclosing": 7341,
      "Ġblew": 7342,
      "ĠUn": 7343,
      "Ġalphab": 7344,
      "Ġapologize": 7345,
      "Ġentrance": 7346,
      "Ġsikander": 7347,
      "Ġmanipur": 7348,
      "kie": 7349,
      "Ġtro": 7350,
      "Ġri": 7351,
      "Ġjay": 7352,
      "Ġjosh": 7353,
      "Ġmeg": 7354,
      "rose": 7355,
      "Ġspite": 7356,
      "Ġagricult": 7357,
      "manrat": 7358,
      "shi": 7359,
      "Ġobvious": 7360,
      "Ġparrot": 7361,
      "Ġspeaks": 7362,
      "nerinter": 7363,
      "Ġ1958": 7364,
      "Ġtempor": 7365,
      "Ġsoftware": 7366,
      "Ġviolent": 7367,
      "Ġnegative": 7368,
      "Ġsucceeded": 7369,
      "Ġfrancisco": 7370,
      "Ġdivorced": 7371,
      "Ġnanewmanrat": 7372,
      "Ġmathemat": 7373,
      "nerinterviews": 7374,
      "Ġnanewmanratnerinterviews": 7375,
      "mony": 7376,
      "pill": 7377,
      "Ġgum": 7378,
      "Ġlung": 7379,
      "Ġalger": 7380,
      "Ġuseless": 7381,
      "Ġchim": 7382,
      "Ġtheme": 7383,
      "Ġconcept": 7384,
      "ffin": 7385,
      "Ġtrained": 7386,
      "Ġ1956": 7387,
      "Ġwooden": 7388,
      "Ġdevice": 7389,
      "Ġlabel": 7390,
      "Ġmemories": 7391,
      "Ġmagnetic": 7392,
      "Ġdemanded": 7393,
      "Ġaffected": 7394,
      "Ġarranged": 7395,
      "Ġlaunched": 7396,
      "mith": 7397,
      "Ġcinem": 7398,
      "Ġps": 7399,
      "aning": 7400,
      "Ġwhilst": 7401,
      "oli": 7402,
      "aste": 7403,
      "Ġwherever": 7404,
      "Ġfeature": 7405,
      "Ġpoly": 7406,
      "Ġdisg": 7407,
      "Ġcomposed": 7408,
      "Ġsixth": 7409,
      "Ġnaturally": 7410,
      "ĠMrs": 7411,
      "Ġrainbow": 7412,
      "Ġautumn": 7413,
      "Ġbucket": 7414,
      "hetic": 7415,
      "Ġarticle": 7416,
      "Ġsymbol": 7417,
      "Ġunhappy": 7418,
      "bud": 7419,
      "bby": 7420,
      "hun": 7421,
      "Ġmast": 7422,
      "Ġyoun": 7423,
      "Ġtoky": 7424,
      "iders": 7425,
      "Ġjeth": 7426,
      "Ġanger": 7427,
      "alled": 7428,
      "apers": 7429,
      "Ġgrat": 7430,
      "Ġgrav": 7431,
      "ĠWas": 7432,
      "Ġunderground": 7433,
      "Ġcommit": 7434,
      "Ġelev": 7435,
      "Ġcharged": 7436,
      "Ġglance": 7437,
      "Ġimpression": 7438,
      "Ġ45": 7439,
      "Ġdaughters": 7440,
      "Ġtempt": 7441,
      "Ġhoped": 7442,
      "Ġsmoking": 7443,
      "Ġobjects": 7444,
      "Ġactivist": 7445,
      "chers": 7446,
      "Ġepisodes": 7447,
      "Ġkatie": 7448,
      "Ġwarriors": 7449,
      "bot": 7450,
      "dling": 7451,
      "fit": 7452,
      "Ġbbc": 7453,
      "Ġdow": 7454,
      "erick": 7455,
      "Ġmeite": 7456,
      "Ġsuicide": 7457,
      "uled": 7458,
      "Ġbrun": 7459,
      "Ġguests": 7460,
      "Ġhired": 7461,
      "Ġpolar": 7462,
      "Ġheaded": 7463,
      "Ġeaster": 7464,
      "hens": 7465,
      "ondon": 7466,
      "Ġmidnight": 7467,
      "Ġvariety": 7468,
      "Ġruined": 7469,
      "Ġmistaken": 7470,
      "Ġborough": 7471,
      "Ġprincipal": 7472,
      "Ġfurniture": 7473,
      "Ġmigration": 7474,
      "Ġjonathan": 7475,
      "Ġbracel": 7476,
      "Ġtokyo": 7477,
      "lant": 7478,
      "mate": 7479,
      "Ġbass": 7480,
      "Ġgle": 7481,
      "iches": 7482,
      "Ġdol": 7483,
      "Ġstor": 7484,
      "ops": 7485,
      "Ġmosc": 7486,
      "Ġhadta": 7487,
      "hang": 7488,
      "Ġoverall": 7489,
      "Ġenqu": 7490,
      "ĠCould": 7491,
      "Ġcolumb": 7492,
      "Ġsets": 7493,
      "Ġreduced": 7494,
      "Ġdouglas": 7495,
      "Ġprompt": 7496,
      "Ġsticking": 7497,
      "Ġfigured": 7498,
      "hammad": 7499,
      "Ġcreatures": 7500,
      "Ġvisitors": 7501,
      "Ġawarded": 7502,
      "Ġluke": 7503,
      "Ġpossibility": 7504,
      "Ġgoddam": 7505,
      "Ġnaval": 7506,
      "Ġdomest": 7507,
      "keeper": 7508,
      "Ġcaterpill": 7509,
      "tan": 7510,
      "tes": 7511,
      "Ġiii": 7512,
      "Ġwig": 7513,
      "Ġgee": 7514,
      "Ġpas": 7515,
      "Ġlimb": 7516,
      "itors": 7517,
      "Ġhah": 7518,
      "Ġkas": 7519,
      "Ġstores": 7520,
      "Ġvoy": 7521,
      "Ġroar": 7522,
      "Ġremove": 7523,
      "Ġlasted": 7524,
      "Ġresolution": 7525,
      "mod": 7526,
      "Ġgreg": 7527,
      "Ġmuslim": 7528,
      "Ġ400": 7529,
      "Ġ1962": 7530,
      "Ġgarbage": 7531,
      "Ġbucks": 7532,
      "Ġholidays": 7533,
      "Ġliterally": 7534,
      "Ġliberal": 7535,
      "Ġresponded": 7536,
      "Ġmerely": 7537,
      "Ġeagle": 7538,
      "Ġsunshine": 7539,
      "40": 7540,
      "pers": 7541,
      "rand": 7542,
      "there": 7543,
      "Ġtad": 7544,
      "Ġske": 7545,
      "inals": 7546,
      "Ġlun": 7547,
      "Ġecho": 7548,
      "Ġkate": 7549,
      "Ġjus": 7550,
      "aine": 7551,
      "Ġabc": 7552,
      "Ġmarion": 7553,
      "Ġhanded": 7554,
      "ugg": 7555,
      "Ġattitude": 7556,
      "Ġholds": 7557,
      "Ġawa": 7558,
      "Ġassume": 7559,
      "Ġbenjam": 7560,
      "Ġpossession": 7561,
      "Ġnatal": 7562,
      "Ġprovision": 7563,
      "Ġsecure": 7564,
      "Ġexpand": 7565,
      "Ġrecorder": 7566,
      "Ġstickers": 7567,
      "Ġ1943": 7568,
      "Ġformerly": 7569,
      "Ġengineering": 7570,
      "Ġterminal": 7571,
      "Ġextraordin": 7572,
      "Ġdiscussion": 7573,
      "Ġrepeat": 7574,
      "Ġceremony": 7575,
      "Ġrecommend": 7576,
      "Ġmeitei": 7577,
      "hs": 7578,
      "lets": 7579,
      "zes": 7580,
      "real": 7581,
      "Ġdaw": 7582,
      "Ġpars": 7583,
      "Ġpanda": 7584,
      "Ġincl": 7585,
      "Ġiniti": 7586,
      "Ġweb": 7587,
      "Ġraw": 7588,
      "Ġkong": 7589,
      "Ġalco": 7590,
      "Ġplates": 7591,
      "empl": 7592,
      "Ġharv": 7593,
      "new": 7594,
      "ĠEx": 7595,
      "phia": 7596,
      "Ġengage": 7597,
      "Ġgranddad": 7598,
      "Ġintegr": 7599,
      "Ġhorror": 7600,
      "Ġsweat": 7601,
      "Ġunderstanding": 7602,
      "Ġ1961": 7603,
      "zech": 7604,
      "Ġdiscip": 7605,
      "Ġestate": 7606,
      "Ġethn": 7607,
      "Ġfrederick": 7608,
      "Ġnapkin": 7609,
      "Ġhistoric": 7610,
      "Ġsprang": 7611,
      "Ġoccupied": 7612,
      "Ġstanley": 7613,
      "Ġbarbara": 7614,
      "Ġpeanut": 7615,
      "gment": 7616,
      "iy": 7617,
      "lar": 7618,
      "vior": 7619,
      "Ġtay": 7620,
      "Ġak": 7621,
      "Ġnig": 7622,
      "Ġinit": 7623,
      "Ġinse": 7624,
      "Ġron": 7625,
      "Ġstam": 7626,
      "Ġstack": 7627,
      "Ġanch": 7628,
      "Ġlily": 7629,
      "Ġyourselves": 7630,
      "ophy": 7631,
      "Ġtrap": 7632,
      "geous": 7633,
      "Ġvision": 7634,
      "Ġintense": 7635,
      "Ġscat": 7636,
      "Ġsingles": 7637,
      "Ġbegun": 7638,
      "Ġrelations": 7639,
      "Ġdecisions": 7640,
      "ĠGet": 7641,
      "Ġmusician": 7642,
      "Ġconfused": 7643,
      "theless": 7644,
      "Ġreturning": 7645,
      "Ġ1952": 7646,
      "Ġhamilton": 7647,
      "Ġbelonged": 7648,
      "Ġbreathe": 7649,
      "Ġprojects": 7650,
      "Ġwalt": 7651,
      "Ġfoolish": 7652,
      "Ġhayden": 7653,
      "Ġattorney": 7654,
      "Ġsack": 7655,
      "Ġdent": 7656,
      "Ġfasc": 7657,
      "usc": 7658,
      "Ġreference": 7659,
      "Ġstated": 7660,
      "Ġjos": 7661,
      "eally": 7662,
      "Ġatm": 7663,
      "Ġdee": 7664,
      "Ġshining": 7665,
      "Ġhoward": 7666,
      "ĠTwo": 7667,
      "Ġdram": 7668,
      "ints": 7669,
      "Ġrecon": 7670,
      "Ġassured": 7671,
      "ĠLondon": 7672,
      "Ġannie": 7673,
      "Ġtouching": 7674,
      "Ġphiladel": 7675,
      "Ġcatching": 7676,
      "Ġellen": 7677,
      "Ġsettlements": 7678,
      "Ġjewish": 7679,
      "Ġstrawberry": 7680,
      "Ġhippo": 7681,
      "Ġhenderson": 7682,
      "Ġmoscow": 7683,
      "Ġtables": 7684,
      "inity": 7685,
      "utation": 7686,
      "Ġbored": 7687,
      "Ġgoods": 7688,
      "Ġroast": 7689,
      "Ġmaya": 7690,
      "Ġthankful": 7691,
      "bridge": 7692,
      "Ġpassage": 7693,
      "Ġalongside": 7694,
      "ĠLook": 7695,
      "Ġjackie": 7696,
      "Ġannual": 7697,
      "Ġopposed": 7698,
      "Ġapproaching": 7699,
      "Ġoperations": 7700,
      "Ġoperating": 7701,
      "Ġurban": 7702,
      "Ġpinkie": 7703,
      "Ġkicking": 7704,
      "Ġagreement": 7705,
      "Ġwales": 7706,
      "Ġderek": 7707,
      "Ġsandwiches": 7708,
      "Ġreaction": 7709,
      "Ġimmig": 7710,
      "Ġdinosaurs": 7711,
      "Ġliterature": 7712,
      "Ġbertha": 7713,
      "Ġbattery": 7714,
      "Ġextended": 7715,
      "Ġsolemn": 7716,
      "quarters": 7717,
      "Ġjeannine": 7718,
      "Ġalphabet": 7719,
      "jack": 7720,
      "ras": 7721,
      "zer": 7722,
      "Ġgit": 7723,
      "Ġlan": 7724,
      "Ġrud": 7725,
      "Ġalab": 7726,
      "ighed": 7727,
      "eline": 7728,
      "Ġactions": 7729,
      "text": 7730,
      "enses": 7731,
      "Ġbeloved": 7732,
      "Ġswift": 7733,
      "Ġwarn": 7734,
      "Ġ300": 7735,
      "Ġballoons": 7736,
      "Ġenthus": 7737,
      "Ġcatal": 7738,
      "Ġilleg": 7739,
      "Ġmaintain": 7740,
      "Ġbillboard": 7741,
      "Ġstephen": 7742,
      "Ġdefeat": 7743,
      "ropol": 7744,
      "Ġarrival": 7745,
      "Ġoxford": 7746,
      "Ġboring": 7747,
      "Ġestablish": 7748,
      "Ġbouncy": 7749,
      "Ġrapidly": 7750,
      "Ġconflict": 7751,
      "Ġlewis": 7752,
      "Ġphiladelphia": 7753,
      "lan": 7754,
      "mun": 7755,
      "pro": 7756,
      "yes": 7757,
      "Ġdess": 7758,
      "Ġnasty": 7759,
      "esome": 7760,
      "Ġonline": 7761,
      "Ġislam": 7762,
      "acha": 7763,
      "Ġmend": 7764,
      "Ġva": 7765,
      "Ġpecul": 7766,
      "Ġadvert": 7767,
      "pless": 7768,
      "Ġdisaster": 7769,
      "Ġcapable": 7770,
      "Ġdistant": 7771,
      "Ġattached": 7772,
      "ĠReally": 7773,
      "Ġdeaths": 7774,
      "Ġconfident": 7775,
      "Ġdealing": 7776,
      "Ġ1942": 7777,
      "Ġvalentine": 7778,
      "Ġrosa": 7779,
      "Ġdevil": 7780,
      "Ġexception": 7781,
      "ĠDoes": 7782,
      "Ġobserv": 7783,
      "iji": 7784,
      "Ġbehavior": 7785,
      "Ġprayer": 7786,
      "Ġsailor": 7787,
      "Ġgloves": 7788,
      "Ġcottage": 7789,
      "80": 7790,
      "fo": 7791,
      "put": 7792,
      "tt": 7793,
      "Ġtib": 7794,
      "Ġbicy": 7795,
      "oni": 7796,
      "ington": 7797,
      "Ġlor": 7798,
      "essee": 7799,
      "Ġjet": 7800,
      "irs": 7801,
      "Ġliver": 7802,
      "olk": 7803,
      "Ġbru": 7804,
      "avid": 7805,
      "Ġelo": 7806,
      "Ġserving": 7807,
      "Ġkindness": 7808,
      "Ġlarry": 7809,
      "ĠThen": 7810,
      "ika": 7811,
      "Ġsouthwest": 7812,
      "Ġpotential": 7813,
      "Ġcommunist": 7814,
      "Ġorganiz": 7815,
      "Ġsolution": 7816,
      "Ġpacked": 7817,
      "Ġannounce": 7818,
      "Ġoccasionally": 7819,
      "Ġtennessee": 7820,
      "Ġfierce": 7821,
      "Ġguarant": 7822,
      "Ġpeculiar": 7823,
      "cour": 7824,
      "eys": 7825,
      "four": 7826,
      "long": 7827,
      "uge": 7828,
      "Ġmcc": 7829,
      "Ġyucky": 7830,
      "Ġlass": 7831,
      "Ġlav": 7832,
      "Ġkit": 7833,
      "irl": 7834,
      "aman": 7835,
      "Ġliz": 7836,
      "Ġtripp": 7837,
      "geon": 7838,
      "Ġworm": 7839,
      "inder": 7840,
      "Ġcolored": 7841,
      "Ġcowboy": 7842,
      "Ġenjoying": 7843,
      "Ġduncan": 7844,
      "Ġjingle": 7845,
      "Ġuncomfort": 7846,
      "Ġexpedition": 7847,
      "25": 7848,
      "away": 7849,
      "jab": 7850,
      "Ġsom": 7851,
      "Ġcert": 7852,
      "Ġczech": 7853,
      "Ġfare": 7854,
      "Ġgag": 7855,
      "eness": 7856,
      "oms": 7857,
      "Ġkam": 7858,
      "chin": 7859,
      "Ġfrag": 7860,
      "aba": 7861,
      "Ġera": 7862,
      "Ġintention": 7863,
      "rah": 7864,
      "Ġmonarch": 7865,
      "Ġstays": 7866,
      "Ġ44": 7867,
      "Ġpersonality": 7868,
      "Ġinterests": 7869,
      "Ġtremb": 7870,
      "Ġfilms": 7871,
      "Ġ1945": 7872,
      "Ġrolled": 7873,
      "Ġknocking": 7874,
      "Ġdiscovery": 7875,
      "Ġblessed": 7876,
      "Ġsurvive": 7877,
      "Ġdemonstr": 7878,
      "Ġchallenge": 7879,
      "Ġsupreme": 7880,
      "Ġuniform": 7881,
      "Ġbenjamin": 7882,
      "Ġuncomfortable": 7883,
      "Ġbuh": 7884,
      "Ġdart": 7885,
      "Ġfuss": 7886,
      "Ġtool": 7887,
      "itable": 7888,
      "Ġali": 7889,
      "Ġsuitc": 7890,
      "Ġclaimed": 7891,
      "Ġblake": 7892,
      "Ġshared": 7893,
      "Ġperman": 7894,
      "Ġowners": 7895,
      "Ġdistingu": 7896,
      "Ġregions": 7897,
      "Ġthirsty": 7898,
      "Ġsqueak": 7899,
      "Ġreflect": 7900,
      "Ġ1959": 7901,
      "chest": 7902,
      "Ġverb": 7903,
      "Ġeducated": 7904,
      "Ġindustrial": 7905,
      "yearold": 7906,
      "Ġjournalist": 7907,
      "Ġisaac": 7908,
      "60": 7909,
      "Ġpand": 7910,
      "Ġpunch": 7911,
      "Ġkaren": 7912,
      "Ġwasnt": 7913,
      "adal": 7914,
      "Ġshes": 7915,
      "Ġsod": 7916,
      "Ġsoda": 7917,
      "Ġtrace": 7918,
      "ryn": 7919,
      "Ġovert": 7920,
      "Ġbabys": 7921,
      "Ġdrank": 7922,
      "Ġcounting": 7923,
      "Ġheadquarters": 7924,
      "pected": 7925,
      "Ġawesome": 7926,
      "Ġgeneration": 7927,
      "Ġjapaz": 7928,
      "Ġvaluable": 7929,
      "Ġpackage": 7930,
      "Ġsmells": 7931,
      "Ġneighbour": 7932,
      "Ġidentified": 7933,
      "Ġnearest": 7934,
      "Ġruthven": 7935,
      "Ġtransferred": 7936,
      "aul": 7937,
      "eva": 7938,
      "iven": 7939,
      "Ġgulf": 7940,
      "Ġnab": 7941,
      "Ġnails": 7942,
      "Ġbeard": 7943,
      "aling": 7944,
      "umin": 7945,
      "agon": 7946,
      "Ġrode": 7947,
      "Ġunex": 7948,
      "Ġjoking": 7949,
      "Ġsciss": 7950,
      "mann": 7951,
      "Ġappointment": 7952,
      "Ġstrateg": 7953,
      "Ġreduce": 7954,
      "Ġterribly": 7955,
      "Ġhighway": 7956,
      "Ġparish": 7957,
      "Ġcops": 7958,
      "Ġsupporting": 7959,
      "Ġnether": 7960,
      "Ġpooja": 7961,
      "Ġalbums": 7962,
      "Ġseparated": 7963,
      "Ġcrawl": 7964,
      "Ġbiscuit": 7965,
      "Ġextraordinary": 7966,
      "bird": 7967,
      "pool": 7968,
      "via": 7969,
      "wers": 7970,
      "Ġtut": 7971,
      "Ġnak": 7972,
      "ati": 7973,
      "Ġrip": 7974,
      "Ġkath": 7975,
      "iments": 7976,
      "tery": 7977,
      "Ġdele": 7978,
      "Ġmosely": 7979,
      "Ġplug": 7980,
      "Ġcomments": 7981,
      "Ġamen": 7982,
      "Ġtalkin": 7983,
      "Ġfoundation": 7984,
      "Ġglue": 7985,
      "ancing": 7986,
      "Ġobtained": 7987,
      "Ġsubt": 7988,
      "ĠJean": 7989,
      "Ġ1947": 7990,
      "Ġchickens": 7991,
      "Ġportion": 7992,
      "umbled": 7993,
      "Ġbaa": 7994,
      "Ġdenver": 7995,
      "Ġbells": 7996,
      "Ġrabbits": 7997,
      "force": 7998,
      "Ġborders": 7999,
      "Ġbonnet": 8000,
      "Ġexistence": 8001,
      "Ġinstitute": 8002,
      "Ġprospect": 8003,
      "Ġpudding": 8004,
      "Ġsweden": 8005,
      "Ġdynasty": 8006,
      "Ġgoddamn": 8007,
      "200": 8008,
      "aid": 8009,
      "lmer": 8010,
      "nut": 8011,
      "Ġbure": 8012,
      "Ġdug": 8013,
      "Ġtops": 8014,
      "asion": 8015,
      "Ġhong": 8016,
      "Ġstab": 8017,
      "Ġjord": 8018,
      "Ġbrig": 8019,
      "Ġnevertheless": 8020,
      "teenth": 8021,
      "Ġelements": 8022,
      "Ġinvite": 8023,
      "Ġassign": 8024,
      "Ġassault": 8025,
      "Ġ1955": 8026,
      "Ġcommunes": 8027,
      "Ġconstruct": 8028,
      "Ġcoward": 8029,
      "Ġaustria": 8030,
      "Ġtechnical": 8031,
      "Ġfaithful": 8032,
      "Ġdemocracy": 8033,
      "Ġindependence": 8034,
      "Ġrandom": 8035,
      "Ġkangar": 8036,
      "Ġryan": 8037,
      "Ġgym": 8038,
      "Ġcomedian": 8039,
      "Ġinstructions": 8040,
      "Ġexplanation": 8041,
      "Ġexchange": 8042,
      "Ġdomestic": 8043,
      "bag": 8044,
      "Ġsession": 8045,
      "Ġbapt": 8046,
      "Ġyam": 8047,
      "era": 8048,
      "Ġhits": 8049,
      "Ġreception": 8050,
      "Ġstress": 8051,
      "Ġstiff": 8052,
      "Ġshelf": 8053,
      "umes": 8054,
      "Ġvin": 8055,
      "Ġvene": 8056,
      "Ġloft": 8057,
      "Ġenorm": 8058,
      "Ġshakes": 8059,
      "Ġsharing": 8060,
      "Ġmargie": 8061,
      "Ġlongest": 8062,
      "Ġcolumn": 8063,
      "Ġentry": 8064,
      "lessly": 8065,
      "Ġrefrig": 8066,
      "hard": 8067,
      "Ġinsist": 8068,
      "Ġcontrolled": 8069,
      "Ġgasps": 8070,
      "Ġbax": 8071,
      "Ġvictims": 8072,
      "Ġbiscuits": 8073,
      "Ġwrapped": 8074,
      "mont": 8075,
      "master": 8076,
      "zburg": 8077,
      "Ġoven": 8078,
      "haw": 8079,
      "Ġbree": 8080,
      "Ġdating": 8081,
      "urd": 8082,
      "cts": 8083,
      "Ġbore": 8084,
      "Ġharrison": 8085,
      "Ġmines": 8086,
      "Ġcharity": 8087,
      "brush": 8088,
      "Ġideal": 8089,
      "Ġsingers": 8090,
      "Ġintend": 8091,
      "Ġawfully": 8092,
      "derer": 8093,
      "Ġnatives": 8094,
      "Ġdrinks": 8095,
      "Ġconfusion": 8096,
      "Ġreasonable": 8097,
      "Ġconstantly": 8098,
      "Ġabsence": 8099,
      "Ġprofession": 8100,
      "Ġworthy": 8101,
      "Ġfeeding": 8102,
      "Ġcultural": 8103,
      "Ġcustomer": 8104,
      "Ġbehave": 8105,
      "Ġstretch": 8106,
      "Ġsaxony": 8107,
      "Ġconcluded": 8108,
      "Ġgordon": 8109,
      "Ġconvinced": 8110,
      "Ġatmosp": 8111,
      "Ġrefriger": 8112,
      "23": 8113,
      "vant": 8114,
      "zed": 8115,
      "Ġtide": 8116,
      "Ġrevenge": 8117,
      "Ġwithd": 8118,
      "Ġnothin": 8119,
      "Ġfran": 8120,
      "Ġfract": 8121,
      "berries": 8122,
      "Ġpepper": 8123,
      "Ġblaz": 8124,
      "Ġmuhammad": 8125,
      "Ġhelpless": 8126,
      "meal": 8127,
      "Ġsnack": 8128,
      "ĠPro": 8129,
      "Ġmerrim": 8130,
      "Ġmessy": 8131,
      "Ġfiles": 8132,
      "Ġsalary": 8133,
      "Ġmistress": 8134,
      "Ġkicked": 8135,
      "Ġaylmer": 8136,
      "Ġfunds": 8137,
      "Ġbounce": 8138,
      "Ġprocedure": 8139,
      "Ġinterrupted": 8140,
      "Ġkilomet": 8141,
      "Ġcapacity": 8142,
      "Ġbracelet": 8143,
      "lk": 8144,
      "mat": 8145,
      "hee": 8146,
      "Ġwret": 8147,
      "Ġoption": 8148,
      "inent": 8149,
      "Ġbars": 8150,
      "Ġcure": 8151,
      "Ġdial": 8152,
      "Ġtob": 8153,
      "escue": 8154,
      "Ġker": 8155,
      "kee": 8156,
      "ami": 8157,
      "Ġwhit": 8158,
      "Ġviz": 8159,
      "Ġbride": 8160,
      "Ġhond": 8161,
      "Ġbabe": 8162,
      "Ġedith": 8163,
      "anner": 8164,
      "Ġcollea": 8165,
      "Ġgenerous": 8166,
      "ccer": 8167,
      "Ġinsisted": 8168,
      "Ġtransform": 8169,
      "Ġmurderer": 8170,
      "Ġcrossing": 8171,
      "Ġpressed": 8172,
      "Ġdefeated": 8173,
      "Ġclimbed": 8174,
      "Ġdiscover": 8175,
      "Ġcritical": 8176,
      "Ġslee": 8177,
      "Ġgradually": 8178,
      "Ġtales": 8179,
      "Ġadministrative": 8180,
      "Ġadditional": 8181,
      "Ġunconscious": 8182,
      "Ġzebra": 8183,
      "Ġinnit": 8184,
      "Ġshelter": 8185,
      "Ġbourg": 8186,
      "heastern": 8187,
      "Ġalabama": 8188,
      "oard": 8189,
      "pired": 8190,
      "rul": 8191,
      "Ġtuesday": 8192,
      "Ġfc": 8193,
      "Ġnich": 8194,
      "Ġbeating": 8195,
      "Ġshift": 8196,
      "Ġloi": 8197,
      "ifying": 8198,
      "Ġcoch": 8199,
      "Ġflesh": 8200,
      "soft": 8201,
      "Ġbugs": 8202,
      "Ġcolony": 8203,
      "Ġdese": 8204,
      "Ġcape": 8205,
      "Ġdisturb": 8206,
      "Ġgreenbelt": 8207,
      "Ġsecrets": 8208,
      "Ġburnt": 8209,
      "apping": 8210,
      "Ġcorresp": 8211,
      "Ġ1946": 8212,
      "Ġviews": 8213,
      "Ġbroadway": 8214,
      "Ġmasters": 8215,
      "Ġmysterious": 8216,
      "Ġgranted": 8217,
      "Ġnumerous": 8218,
      "Ġnetherlands": 8219,
      "Ġcorrespond": 8220,
      "26": 8221,
      "ais": 8222,
      "gian": 8223,
      "lav": 8224,
      "pher": 8225,
      "ux": 8226,
      "Ġack": 8227,
      "Ġwool": 8228,
      "Ġmack": 8229,
      "Ġyang": 8230,
      "Ġdak": 8231,
      "itter": 8232,
      "Ġweigh": 8233,
      "Ġkent": 8234,
      "acement": 8235,
      "Ġgolf": 8236,
      "Ġsoccer": 8237,
      "Ġallig": 8238,
      "Ġtrig": 8239,
      "andra": 8240,
      "this": 8241,
      "osis": 8242,
      "Ġcontext": 8243,
      "Ġfeast": 8244,
      "ubb": 8245,
      "Ġwarrant": 8246,
      "Ġimpressed": 8247,
      "Ġ48": 8248,
      "Ġdeli": 8249,
      "Ġdelivered": 8250,
      "Ġ1963": 8251,
      "Ġmillions": 8252,
      "Ġberlin": 8253,
      "Ġdoubs": 8254,
      "Ġscale": 8255,
      "Ġsafely": 8256,
      "Ġrobber": 8257,
      "Ġidentify": 8258,
      "Ġwrestler": 8259,
      "Ġdelightful": 8260,
      "Ġmotorcy": 8261,
      "Ġplatform": 8262,
      "Ġguidance": 8263,
      "Ġnatalie": 8264,
      "Ġsuitcase": 8265,
      "cri": 8266,
      "mouth": 8267,
      "will": 8268,
      "walk": 8269,
      "Ġwwe": 8270,
      "Ġwander": 8271,
      "Ġsought": 8272,
      "Ġbry": 8273,
      "Ġcush": 8274,
      "Ġdiet": 8275,
      "Ġgoo": 8276,
      "Ġnag": 8277,
      "alo": 8278,
      "Ġkhan": 8279,
      "Ġstout": 8280,
      "Ġmeow": 8281,
      "station": 8282,
      "Ġtray": 8283,
      "Ġorphan": 8284,
      "Ġwilln": 8285,
      "Ġmanchester": 8286,
      "Ġerin": 8287,
      "ifer": 8288,
      "Ġcliff": 8289,
      "Ġguadal": 8290,
      "Ġlaunch": 8291,
      "Ġregist": 8292,
      "Ġmush": 8293,
      "Ġfireman": 8294,
      "Ġbusinessman": 8295,
      "Ġ1948": 8296,
      "iii": 8297,
      "Ġpretending": 8298,
      "Ġbangl": 8299,
      "Ġmassive": 8300,
      "Ġconsideration": 8301,
      "Ġinvestment": 8302,
      "offs": 8303,
      "Ġtalent": 8304,
      "Ġignor": 8305,
      "Ġunexpected": 8306,
      "Ġjordan": 8307,
      "Ġtat": 8308,
      "Ġbc": 8309,
      "Ġcd": 8310,
      "Ġcm": 8311,
      "Ġdv": 8312,
      "Ġgary": 8313,
      "Ġbeef": 8314,
      "eav": 8315,
      "Ġselect": 8316,
      "geun": 8317,
      "Ġchum": 8318,
      "Ġbrooke": 8319,
      "Ġgrim": 8320,
      "Ġchances": 8321,
      "Ġglory": 8322,
      "ĠEur": 8323,
      "Ġending": 8324,
      "Ġmetropol": 8325,
      "Ġevac": 8326,
      "Ġofficials": 8327,
      "Ġrocket": 8328,
      "Ġcommunities": 8329,
      "Ġapproached": 8330,
      "Ġexpert": 8331,
      "comt": 8332,
      "Ġconcert": 8333,
      "Ġincreasing": 8334,
      "Ġsatisfaction": 8335,
      "Ġwhistling": 8336,
      "Ġprinted": 8337,
      "Ġforbid": 8338,
      "Ġglorious": 8339,
      "Ġalternative": 8340,
      "Ġrubbish": 8341,
      "Ġdisgust": 8342,
      "Ġvenez": 8343,
      "ae": 8344,
      "gas": 8345,
      "giving": 8346,
      "ups": 8347,
      "wart": 8348,
      "inea": 8349,
      "Ġyuck": 8350,
      "Ġfaced": 8351,
      "Ġpete": 8352,
      "aria": 8353,
      "aya": 8354,
      "Ġsty": 8355,
      "Ġnotable": 8356,
      "ainted": 8357,
      "Ġflav": 8358,
      "Ġprey": 8359,
      "Ġhollow": 8360,
      "ensity": 8361,
      "Ġeliot": 8362,
      "Ġsits": 8363,
      "Ġedition": 8364,
      "Ġaccur": 8365,
      "Ġsyl": 8366,
      "Ġparam": 8367,
      "Ġbreaks": 8368,
      "Ġrefers": 8369,
      "Ġburden": 8370,
      "Ġ1951": 8371,
      "Ġcopies": 8372,
      "Ġ1939": 8373,
      "Ġgardens": 8374,
      "Ġtrucks": 8375,
      "Ġdebt": 8376,
      "Ġhunter": 8377,
      "Ġdining": 8378,
      "franche": 8379,
      "Ġneighbors": 8380,
      "Ġbananas": 8381,
      "Ġmagnet": 8382,
      "canal": 8383,
      "Ġcheerful": 8384,
      "Ġcadets": 8385,
      "Ġsurrounded": 8386,
      "Ġmunicipalities": 8387,
      "Ġintelligence": 8388,
      "ognefranche": 8389,
      "Ġyoungeun": 8390,
      "Ġbourgognefranche": 8391,
      "Ġbourgognefranchecomt": 8392,
      "xide": 8393,
      "Ġvel": 8394,
      "Ġarose": 8395,
      "Ġwand": 8396,
      "Ġswww": 8397,
      "Ġmand": 8398,
      "Ġlind": 8399,
      "Ġinner": 8400,
      "Ġallows": 8401,
      "Ġexhib": 8402,
      "Ġloren": 8403,
      "ĠWould": 8404,
      "asses": 8405,
      "izz": 8406,
      "Ġsitu": 8407,
      "Ġimpat": 8408,
      "Ġendeav": 8409,
      "Ġcleared": 8410,
      "Ġsurf": 8411,
      "Ġsurre": 8412,
      "Ġobtain": 8413,
      "Ġsimpl": 8414,
      "Ġhopefully": 8415,
      "Ġrefuse": 8416,
      "Ġ99": 8417,
      "Ġsticker": 8418,
      "Ġmerchan": 8419,
      "Ġfarmers": 8420,
      "Ġpractically": 8421,
      "Ġprotected": 8422,
      "iences": 8423,
      "Ġexpressed": 8424,
      "Ġregarding": 8425,
      "Ġgraham": 8426,
      "Ġgraduated": 8427,
      "ĠFriday": 8428,
      "Ġbegged": 8429,
      "Ġarrows": 8430,
      "Ġcandidate": 8431,
      "ĠChristmas": 8432,
      "Ġmurmured": 8433,
      "Ġctx": 8434,
      "Ġdelivery": 8435,
      "Ġguadalcanal": 8436,
      "75": 8437,
      "lie": 8438,
      "Ġtch": 8439,
      "Ġoat": 8440,
      "Ġcore": 8441,
      "Ġcors": 8442,
      "Ġpens": 8443,
      "Ġandrew": 8444,
      "Ġhye": 8445,
      "Ġhack": 8446,
      "otic": 8447,
      "Ġkite": 8448,
      "Ġstink": 8449,
      "Ġstable": 8450,
      "irst": 8451,
      "ills": 8452,
      "Ġfries": 8453,
      "Ġshif": 8454,
      "Ġaloud": 8455,
      "Ġtramp": 8456,
      "...": 8457,
      "Ġchile": 8458,
      "Ġchums": 8459,
      "ela": 8460,
      "emen": 8461,
      "agrap": 8462,
      "Ġroot": 8463,
      "Ġcoco": 8464,
      "iah": 8465,
      "Ġmarvel": 8466,
      "ĠSund": 8467,
      "Ġregister": 8468,
      "Ġpassenger": 8469,
      "Ġrestrict": 8470,
      "Ġskull": 8471,
      "Ġpaused": 8472,
      "Ġpatients": 8473,
      "Ġdepos": 8474,
      "Ġawh": 8475,
      "Ġsubd": 8476,
      "Ġhorrid": 8477,
      "Ġfrosty": 8478,
      "Ġraising": 8479,
      "Ġreplace": 8480,
      "Ġ1954": 8481,
      "Ġclothing": 8482,
      "Ġfortescue": 8483,
      "Ġlaying": 8484,
      "Ġinternal": 8485,
      "Ġengineer": 8486,
      "Ġcandle": 8487,
      "Ġdigital": 8488,
      "viour": 8489,
      "Ġmicrosoft": 8490,
      "Ġmercury": 8491,
      "Ġanthony": 8492,
      "part": 8493,
      "Ġgoose": 8494,
      "Ġnas": 8495,
      "enna": 8496,
      "ario": 8497,
      "ushes": 8498,
      "Ġrural": 8499,
      "Ġreject": 8500,
      "adu": 8501,
      "iry": 8502,
      "umm": 8503,
      "Ġworms": 8504,
      "rily": 8505,
      "Ġloan": 8506,
      "reatlant": 8507,
      "Ġacts": 8508,
      "ĠSome": 8509,
      "Ġreserve": 8510,
      "Ġsimon": 8511,
      "ĠFre": 8512,
      "Ġtremend": 8513,
      "Ġstrongly": 8514,
      "Ġapproved": 8515,
      "Ġaustrian": 8516,
      "Ġsamuel": 8517,
      "Ġangle": 8518,
      "Ġhank": 8519,
      "Ġmoral": 8520,
      "Ġquarters": 8521,
      "Ġdigging": 8522,
      "Ġinjury": 8523,
      "Ġfacing": 8524,
      "Ġvacation": 8525,
      "Ġstealing": 8526,
      "Ġcrisis": 8527,
      "Ġprocedures": 8528,
      "Ġjethro": 8529,
      "Ġloireatlant": 8530,
      "Ġvenezuel": 8531,
      "Ġloireatlantique": 8532,
      "45": 8533,
      "cont": 8534,
      "di": 8535,
      "dles": 8536,
      "Ġbust": 8537,
      "Ġlions": 8538,
      "isp": 8539,
      "Ġseeds": 8540,
      "Ġaspect": 8541,
      "opard": 8542,
      "Ġaboard": 8543,
      "elling": 8544,
      "Ġspear": 8545,
      "Ġworship": 8546,
      "Ġtwins": 8547,
      "akers": 8548,
      "agers": 8549,
      "Ġunique": 8550,
      "Ġpock": 8551,
      "Ġcarbon": 8552,
      "Ġmarbles": 8553,
      "ĠNew": 8554,
      "Ġworldwide": 8555,
      "Ġinstinct": 8556,
      "Ġpause": 8557,
      "Ġ65": 8558,
      "Ġ1965": 8559,
      "Ġbills": 8560,
      "Ġsuperior": 8561,
      "Ġtests": 8562,
      "Ġbullets": 8563,
      "coming": 8564,
      "Ġtreaty": 8565,
      "Ġdirectors": 8566,
      "Ġcombined": 8567,
      "Ġcarrot": 8568,
      "Ġwitnesses": 8569,
      "Ġpraise": 8570,
      "Ġfrequently": 8571,
      "Ġskills": 8572,
      "Ġswedish": 8573,
      "Ġbicycle": 8574,
      "Ġscissors": 8575,
      "bly": 8576,
      "cat": 8577,
      "mc": 8578,
      "uj": 8579,
      "vo": 8580,
      "Ġtune": 8581,
      "Ġwes": 8582,
      "Ġwack": 8583,
      "rep": 8584,
      "Ġdio": 8585,
      "Ġfuel": 8586,
      "Ġpuff": 8587,
      "itched": 8588,
      "Ġhood": 8589,
      "Ġhitting": 8590,
      "Ġrein": 8591,
      "Ġrect": 8592,
      "Ġseated": 8593,
      "Ġseized": 8594,
      "opes": 8595,
      "Ġheritage": 8596,
      "Ġclo": 8597,
      "Ġsometime": 8598,
      "Ġjoel": 8599,
      "ava": 8600,
      "Ġlazy": 8601,
      "Ġhelpful": 8602,
      "ogue": 8603,
      "Ġbedrul": 8604,
      "Ġentering": 8605,
      "Ġanswers": 8606,
      "Ġcattle": 8607,
      "Ġ85": 8608,
      "unted": 8609,
      "iko": 8610,
      "Ġ1944": 8611,
      "Ġmeantime": 8612,
      "Ġhopes": 8613,
      "Ġmales": 8614,
      "Ġmarty": 8615,
      "Ġpeters": 8616,
      "Ġconsiderable": 8617,
      "Ġstudying": 8618,
      "Ġjulie": 8619,
      "Ġindividuals": 8620,
      "Ġbarnum": 8621,
      "Ġgorgeous": 8622,
      "Ġdismiss": 8623,
      "Ġschedule": 8624,
      "Ġretirement": 8625,
      "Ġtaylor": 8626,
      "Ġjapazy": 8627,
      "dr": 8628,
      "gent": 8629,
      "Ġobey": 8630,
      "Ġcort": 8631,
      "Ġdah": 8632,
      "Ġfires": 8633,
      "Ġlyn": 8634,
      "Ġink": 8635,
      "oti": 8636,
      "Ġrates": 8637,
      "Ġjury": 8638,
      "igen": 8639,
      "Ġlend": 8640,
      "Ġclark": 8641,
      "iley": 8642,
      "ugal": 8643,
      "Ġcamel": 8644,
      "Ġresc": 8645,
      "Ġcares": 8646,
      "Ġsyd": 8647,
      "Ġpatience": 8648,
      "Ġbench": 8649,
      "Ġclassic": 8650,
      "Ġsandy": 8651,
      "Ġ1941": 8652,
      "bbie": 8653,
      "Ġbirdie": 8654,
      "Ġtastes": 8655,
      "Ġruled": 8656,
      "Ġanxiety": 8657,
      "Ġmaterials": 8658,
      "Ġbleeding": 8659,
      "Ġrandolph": 8660,
      "Ġambass": 8661,
      "jamas": 8662,
      "budour": 8663,
      "Ġbedrulbudour": 8664,
      "dam": 8665,
      "tu": 8666,
      "Ġtire": 8667,
      "Ġmice": 8668,
      "Ġdried": 8669,
      "Ġhump": 8670,
      "Ġramp": 8671,
      "Ġkha": 8672,
      "Ġkaw": 8673,
      "Ġknot": 8674,
      "Ġsolo": 8675,
      "uls": 8676,
      "Ġtwist": 8677,
      "Ġapplied": 8678,
      "brgt": 8679,
      "Ġyoungest": 8680,
      "Ġjohnny": 8681,
      "Ġ75": 8682,
      "Ġhitch": 8683,
      "Ġfranklin": 8684,
      "Ġdiagn": 8685,
      "Ġtitles": 8686,
      "Ġsenator": 8687,
      "Ġelephants": 8688,
      "Ġfemales": 8689,
      "Ġwalter": 8690,
      "Ġinstruments": 8691,
      "Ġimproved": 8692,
      "Ġdispos": 8693,
      "Ġwidow": 8694,
      "uguese": 8695,
      "Ġsausages": 8696,
      "Ġtypical": 8697,
      "Ġphilippines": 8698,
      "Ġmanufacture": 8699,
      "27": 8700,
      "cut": 8701,
      "cuse": 8702,
      "eor": 8703,
      "mates": 8704,
      "nally": 8705,
      "rons": 8706,
      "rants": 8707,
      "ĠX": 8708,
      "Ġgann": 8709,
      "Ġpom": 8710,
      "Ġtodd": 8711,
      "Ġng": 8712,
      "Ġrust": 8713,
      "Ġrehe": 8714,
      "Ġreaching": 8715,
      "Ġspike": 8716,
      "ategy": 8717,
      "Ġclients": 8718,
      "Ġclinton": 8719,
      "Ġpeop": 8720,
      "Ġcarp": 8721,
      "Ġflung": 8722,
      "cience": 8723,
      "Ġswiss": 8724,
      "Ġlighter": 8725,
      "Ġ49": 8726,
      "Ġhath": 8727,
      "Ġhated": 8728,
      "Ġ63": 8729,
      "Ġchristians": 8730,
      "Ġpainful": 8731,
      "Ġbands": 8732,
      "Ġportuguese": 8733,
      "ĠHere": 8734,
      "Ġruin": 8735,
      "Ġdeeply": 8736,
      "Ġgrocer": 8737,
      "Ġwidely": 8738,
      "Ġscreams": 8739,
      "Ġliberty": 8740,
      "Ġtomatoes": 8741,
      "Ġsavage": 8742,
      "Ġsausage": 8743,
      "Ġanchor": 8744,
      "Ġpockets": 8745,
      "'?": 8746,
      "eh": 8747,
      "Ġtons": 8748,
      "Ġig": 8749,
      "Ġss": 8750,
      "Ġsank": 8751,
      "rem": 8752,
      "Ġmour": 8753,
      "Ġbeats": 8754,
      "Ġdose": 8755,
      "verse": 8756,
      "Ġcanal": 8757,
      "abor": 8758,
      "Ġard": 8759,
      "Ġclip": 8760,
      "Ġblows": 8761,
      "Ġflour": 8762,
      "ĠAgain": 8763,
      "Ġmah": 8764,
      "Ġstrategy": 8765,
      "Ġreputation": 8766,
      "Ġ38": 8767,
      "shit": 8768,
      "Ġzoe": 8769,
      "Ġimage": 8770,
      "Ġhurric": 8771,
      "Ġbroom": 8772,
      "Ġgenius": 8773,
      "Ġadding": 8774,
      "hart": 8775,
      "Ġ1949": 8776,
      "Ġ1933": 8777,
      "ographer": 8778,
      "Ġdiaper": 8779,
      "Ġ1928": 8780,
      "Ġbella": 8781,
      "Ġcreation": 8782,
      "ĠVery": 8783,
      "Ġhawkins": 8784,
      "Ġforests": 8785,
      "Ġfavourite": 8786,
      "Ġelectricity": 8787,
      "Ġcelia": 8788,
      "Ġgrunts": 8789,
      "Ġvoyage": 8790,
      "Ġalcohol": 8791,
      "Ġawhile": 8792,
      "70": 8793,
      "rors": 8794,
      "zona": 8795,
      "Ġosc": 8796,
      "onent": 8797,
      "Ġgig": 8798,
      "Ġheh": 8799,
      "Ġwhip": 8800,
      "uro": 8801,
      "Ġsoil": 8802,
      "Ġorient": 8803,
      "Ġconven": 8804,
      "Ġgrief": 8805,
      "Ġpoems": 8806,
      "Ġmarine": 8807,
      "Ġflows": 8808,
      "Ġscoop": 8809,
      "Ġwah": 8810,
      "ĠOx": 8811,
      "Ġterrif": 8812,
      "Ġballet": 8813,
      "ĠDavid": 8814,
      "Ġparagrap": 8815,
      "Ġsubs": 8816,
      "onday": 8817,
      "flies": 8818,
      "Ġromance": 8819,
      "Ġinformed": 8820,
      "Ġdirections": 8821,
      "Ġcovering": 8822,
      "Ġmachines": 8823,
      "Ġcritics": 8824,
      "Ġdelicate": 8825,
      "Ġmiy": 8826,
      "Ġbenefits": 8827,
      "Ġclarice": 8828,
      "Ġvehicles": 8829,
      "Ġconfirm": 8830,
      "Ġadults": 8831,
      "Ġvessels": 8832,
      "Ġmallory": 8833,
      "ĠFreud": 8834,
      "dri": 8835,
      "top": 8836,
      "Ġtherap": 8837,
      "Ġment": 8838,
      "Ġcs": 8839,
      "Ġyoud": 8840,
      "edge": 8841,
      "itals": 8842,
      "Ġrunn": 8843,
      "Ġket": 8844,
      "verness": 8845,
      "star": 8846,
      "Ġassh": 8847,
      "Ġtrash": 8848,
      "gee": 8849,
      "eller": 8850,
      "Ġgrade": 8851,
      "Ġclara": 8852,
      "Ġprague": 8853,
      "Ġguinea": 8854,
      "Ġwrites": 8855,
      "ĠSec": 8856,
      "Ġindign": 8857,
      "ĠChar": 8858,
      "Ġheading": 8859,
      "Ġbottles": 8860,
      "Ġcharming": 8861,
      "inny": 8862,
      "Ġcutie": 8863,
      "Ġnorthwestern": 8864,
      "Ġ800": 8865,
      "tendo": 8866,
      "Ġpurse": 8867,
      "Ġemma": 8868,
      "Ġdropping": 8869,
      "Ġuniversal": 8870,
      "Ġcreating": 8871,
      "Ġsharks": 8872,
      "Ġbanging": 8873,
      "Ġduties": 8874,
      "Ġchapel": 8875,
      "Ġoxy": 8876,
      "Ġdocuments": 8877,
      "Ġjuliet": 8878,
      "Ġsensible": 8879,
      "Ġaccommod": 8880,
      "Ġclaims": 8881,
      "Ġsurrounding": 8882,
      "Ġhollywood": 8883,
      "Ġkennedy": 8884,
      "Ġcomrades": 8885,
      "orporated": 8886,
      "Ġglobal": 8887,
      "Ġcaterpillar": 8888,
      "Ġcochran": 8889,
      "Ġoatmeal": 8890,
      "Ġsings": 8891,
      "Ġgut": 8892,
      "Ġnasc": 8893,
      "atia": 8894,
      "Ġbeam": 8895,
      "Ġrebell": 8896,
      "Ġashes": 8897,
      "urbed": 8898,
      "Ġsobr": 8899,
      "Ġplains": 8900,
      "Ġbris": 8901,
      "Ġgoodnight": 8902,
      "Ġcarroll": 8903,
      "Ġflies": 8904,
      "Ġnewman": 8905,
      "ĠMonday": 8906,
      "Ġhartle": 8907,
      "Ġelbow": 8908,
      "Ġdeser": 8909,
      "Ġdistress": 8910,
      "Ġfactor": 8911,
      "Ġinterfe": 8912,
      "Ġdrawer": 8913,
      "Ġcleaned": 8914,
      "Ġnintendo": 8915,
      "Ġdamaged": 8916,
      "Ġapprox": 8917,
      "Ġlatest": 8918,
      "Ġautonom": 8919,
      "Ġtaxes": 8920,
      "Ġnursing": 8921,
      "Ġinfant": 8922,
      "Ġcelebrate": 8923,
      "Ġproceeded": 8924,
      "Ġautomob": 8925,
      "Ġgrunting": 8926,
      "Ġalaska": 8927,
      "ĠSunday": 8928,
      "Ġsobrin": 8929,
      "oa": 8930,
      "rical": 8931,
      "Ġbing": 8932,
      "Ġbunk": 8933,
      "Ġfiction": 8934,
      "Ġpine": 8935,
      "anes": 8936,
      "orus": 8937,
      "oral": 8938,
      "Ġinfection": 8939,
      "Ġhip": 8940,
      "owing": 8941,
      "vet": 8942,
      "Ġbean": 8943,
      "Ġsaul": 8944,
      "itts": 8945,
      "Ġamr": 8946,
      "Ġcoke": 8947,
      "Ġintr": 8948,
      "Ġplaystation": 8949,
      "ivia": 8950,
      "Ġdaylight": 8951,
      "Ġwrap": 8952,
      "Ġelim": 8953,
      "ibly": 8954,
      "Ġmuscles": 8955,
      "Ġpopcorn": 8956,
      "Ġretreat": 8957,
      "Ġsmallest": 8958,
      "Ġmeters": 8959,
      "Ġassess": 8960,
      "Ġbatman": 8961,
      "Ġdrift": 8962,
      "Ġdrives": 8963,
      "Ġuniversities": 8964,
      "Ġdestiny": 8965,
      "Ġmischief": 8966,
      "Ġ1929": 8967,
      "Ġobjection": 8968,
      "Ġdoubtless": 8969,
      "Ġcloset": 8970,
      "Ġsensitive": 8971,
      "Ġexisting": 8972,
      "Ġambul": 8973,
      "Ġscottish": 8974,
      "Ġsubstant": 8975,
      "Ġpreparation": 8976,
      "Ġanalysis": 8977,
      "Ġpublisher": 8978,
      "Ġarizona": 8979,
      "Ġdessert": 8980,
      "fire": 8981,
      "lace": 8982,
      "Ġsard": 8983,
      "Ġtheater": 8984,
      "hall": 8985,
      "Ġbash": 8986,
      "Ġfanny": 8987,
      "ener": 8988,
      "Ġinch": 8989,
      "Ġabroad": 8990,
      "Ġviet": 8991,
      "Ġspray": 8992,
      "ĠYep": 8993,
      "Ġpok": 8994,
      "Ġcarrier": 8995,
      "aved": 8996,
      "Ġdisgr": 8997,
      "into": 8998,
      "Ġtomb": 8999,
      "Ġ42": 9000,
      "Ġaddressed": 9001,
      "Ġhoriz": 9002,
      "Ġspoil": 9003,
      "Ġfuckin": 9004,
      "Ġceiling": 9005,
      "Ġkisses": 9006,
      "Ġportugal": 9007,
      "Ġequally": 9008,
      "Ġbowling": 9009,
      "Ġeffective": 9010,
      "Ġpropose": 9011,
      "Ġcasual": 9012,
      "Ġaccounts": 9013,
      "Ġbreathing": 9014,
      "Ġcombination": 9015,
      "Ġyogh": 9016,
      "Ġcousins": 9017,
      "Ġroughly": 9018,
      "Ġacquaint": 9019,
      "Ġprinciple": 9020,
      "Ġashore": 9021,
      "Ġresistance": 9022,
      "Ġinterpret": 9023,
      "Ġconclusion": 9024,
      "cr": 9025,
      "Ġdates": 9026,
      "Ġfid": 9027,
      "Ġgross": 9028,
      "Ġrim": 9029,
      "Ġmeals": 9030,
      "Ġfraud": 9031,
      "Ġdeed": 9032,
      "Ġsulf": 9033,
      "Ġvroom": 9034,
      "Ġspit": 9035,
      "Ġchlor": 9036,
      "Ġtwin": 9037,
      "Ġuneas": 9038,
      "Ġchasing": 9039,
      "Ġflights": 9040,
      "ĠAt": 9041,
      "Ġacce": 9042,
      "Ġsmack": 9043,
      "Ġserb": 9044,
      "ĠBl": 9045,
      "Ġgreet": 9046,
      "Ġbedtime": 9047,
      "Ġsyn": 9048,
      "Ġawk": 9049,
      "iki": 9050,
      "Ġcomplicated": 9051,
      "Ġmidst": 9052,
      "Ġtreas": 9053,
      "Ġmessages": 9054,
      "Ġcircles": 9055,
      "Ġfootballer": 9056,
      "Ġgasped": 9057,
      "Ġsuggestion": 9058,
      "Ġconsidering": 9059,
      "Ġpanel": 9060,
      "Ġcomputers": 9061,
      "Ġcracker": 9062,
      "Ġemployed": 9063,
      "Ġfeatured": 9064,
      "Ġdearest": 9065,
      "Ġdolph": 9066,
      "Ġmotorcycle": 9067,
      "66": 9068,
      "bir": 9069,
      "gun": 9070,
      "hous": 9071,
      "Ġbav": 9072,
      "Ġcem": 9073,
      "Ġfi": 9074,
      "Ġgest": 9075,
      "Ġnaked": 9076,
      "Ġinfect": 9077,
      "Ġkap": 9078,
      "Ġrebu": 9079,
      "Ġlip": 9080,
      "Ġalter": 9081,
      "Ġclin": 9082,
      "Ġmarc": 9083,
      "Ġfled": 9084,
      "Ġthrill": 9085,
      "Ġcolomb": 9086,
      "Ġ37": 9087,
      "Ġedric": 9088,
      "Ġbushes": 9089,
      "Ġdistract": 9090,
      "Ġpersian": 9091,
      "Ġskipper": 9092,
      "onto": 9093,
      "Ġhats": 9094,
      "Ġdale": 9095,
      "Ġcolorado": 9096,
      "Ġpenins": 9097,
      "Ġthanksgiving": 9098,
      "Ġtroubled": 9099,
      "Ġoctop": 9100,
      "Ġdiego": 9101,
      "works": 9102,
      "Ġtasty": 9103,
      "Ġconverted": 9104,
      "Ġthoroughly": 9105,
      "Ġslippers": 9106,
      "Ġwebsite": 9107,
      "Ġeloise": 9108,
      "Ġmushroom": 9109,
      "Ġpeoples": 9110,
      "Ġacceler": 9111,
      "Ġcemeter": 9112,
      "kind": 9113,
      "yed": 9114,
      "Ġaj": 9115,
      "Ġald": 9116,
      "Ġsunny": 9117,
      "Ġbail": 9118,
      "Ġmit": 9119,
      "Ġcul": 9120,
      "Ġdre": 9121,
      "Ġgear": 9122,
      "Ġpace": 9123,
      "orters": 9124,
      "Ġhwww": 9125,
      "Ġbees": 9126,
      "Ġkan": 9127,
      "Ġjazz": 9128,
      "Ġnegle": 9129,
      "Ġallies": 9130,
      "Ġouter": 9131,
      "igley": 9132,
      "Ġcomic": 9133,
      "Ġviv": 9134,
      "Ġamus": 9135,
      "bee": 9136,
      "Ġcrimes": 9137,
      "iba": 9138,
      "Ġcared": 9139,
      "Ġwalks": 9140,
      "Ġmovements": 9141,
      "itsar": 9142,
      "Ġspeakers": 9143,
      "Ġsquash": 9144,
      "Ġbatt": 9145,
      "Ġrecovered": 9146,
      "Ġreceiving": 9147,
      "Ġcopper": 9148,
      "Ġdestruction": 9149,
      "Ġbullshit": 9150,
      "Ġappearances": 9151,
      "Ġvisitor": 9152,
      "Ġdragged": 9153,
      "Ġscrub": 9154,
      "Ġjoining": 9155,
      "Ġchemistry": 9156,
      "Ġconstitu": 9157,
      "Ġbatteries": 9158,
      "Ġarrangements": 9159,
      "Ġbarely": 9160,
      "Ġinvented": 9161,
      "Ġwarrior": 9162,
      "Ġcommunication": 9163,
      "Ġsquirrel": 9164,
      "Ġearnestly": 9165,
      "ĠRoad": 9166,
      "Ġkangaroo": 9167,
      "Ġtremendous": 9168,
      "35": 9169,
      "cot": 9170,
      "found": 9171,
      "ody": 9172,
      "tub": 9173,
      "inary": 9174,
      "Ġfuk": 9175,
      "Ġgam": 9176,
      "Ġpel": 9177,
      "esc": 9178,
      "Ġras": 9179,
      "ooh": 9180,
      "Ġsailing": 9181,
      "Ġabd": 9182,
      "ulting": 9183,
      "Ġlecture": 9184,
      "Ġunp": 9185,
      "Ġhomework": 9186,
      "Ġswept": 9187,
      "ancies": 9188,
      "phones": 9189,
      "Ġpenal": 9190,
      "Ġvisible": 9191,
      "Ġvisiting": 9192,
      "Ġbandage": 9193,
      "Ġ1931": 9194,
      "Ġ1934": 9195,
      "oba": 9196,
      "Ġ1920": 9197,
      "Ġroland": 9198,
      "Ġtaxi": 9199,
      "Ġnicer": 9200,
      "Ġrailroad": 9201,
      "Ġopposition": 9202,
      "Ġlouisiana": 9203,
      "Ġclaus": 9204,
      "Ġsympathy": 9205,
      "Ġrequirements": 9206,
      "Ġcustomers": 9207,
      "Ġconcentrate": 9208,
[...]
